<unk>	0
<s>	0
</s>	0

	0
蒋	0
鹤	0
\"	-0
▁"	-1
in	-2
ut	-3
on	-4
。\	-5
":	-6
st	-7
ti	-8
一个	-9
可以	-10
▁{	-11
tion	-12
。"	-13
--	-14
str	-15
er	-16
ction	-17
使用	-18
put	-19
en	-20
out	-21
or	-22
``	-23
stru	-24
output	-25
struction	-26
instruction	-27
▁{"	-28
数据	-29
▁=	-30
▁\"	-31
可能	-32
at	-33
re	-34
。"}	-35
我们	-36
需要	-37
le	-38
an	-39
:\	-40
ar	-41
th	-42
▁|	-43
提供	-44
al	-45
;\	-46
这个	-47
)\	-48
。",	-49
----	-50
进行	-51
代码	-52
```	-53
se	-54
他们	-55
me	-56
>\	-57
▁c	-58
",	-59
▁<	-60
00	-61
ing	-62
通过	-63
这些	-64
影响	-65
ce	-66
问题	-67
it	-68
de	-69
\",	-70
▁1	-71
包括	-72
ent	-73
以下	-74
\\	-75
如何	-76
分析	-77
▁p	-78
}\	-79
ro	-80
2.	-81
中的	-82
▁'	-83
如果	-84
1.	-85
ge	-86
信息	-87
as	-88
ri	-89
处理	-90
ou	-91
▁s	-92
计算	-93
时间	-94
例如	-95
学习	-96
▁f	-97
li	-98
创建	-99
▁i	-100
▁-	-101
3.	-102
是一个	-103
▁t	-104
▁{\	-105
技术	-106
方法	-107
系统	-108
用户	-109
um	-110
你的	-111
一种	-112
不同	-113
ra	-114
模型	-115
▁n	-116
**	-117
ate	-118
int	-119
ct	-120
▁(	-121
```\	-122
lo	-123
以及	-124
mp	-125
根据	-126
</	-127
);\	-128
▁\	-129
一些	-130
语言	-131
ch	-132
\":	-133
选择	-134
每个	-135
es	-136
解决	-137
所有	-138
帮助	-139
di	-140
然后	-141
其他	-142
它们	-143
▁re	-144
工作	-145
用于	-146
▁a	-147
el	-148
重要	-149
▁2	-150
4.	-151
ex	-152
ur	-153
环境	-154
生成	-155
复杂	-156
▁+	-157
方式	-158
实现	-159
▁S	-160
ame	-161
▁th	-162
ord	-163
and	-164
函数	-165
此外	-166
▁m	-167
--------	-168
',	-169
设计	-170
考虑	-171
句子	-172
yth	-173
自己	-174
没有	-175
om	-176
ython	-177
"}	-178
?",	-179
因为	-180
//	-181
或者	-182
ata	-183
结果	-184
,\	-185
什么	-186
▁w	-187
研究	-188
确保	-189
la	-190
理解	-191
机器	-192
情况	-193
▁b	-194
av	-195
可能会	-196
过程	-197
程序	-198
客户	-199
▁d	-200
任务	-201
定的	-202
10	-203
对于	-204
数字	-205
这种	-206
包含	-207
ol	-208
主要	-209
产品	-210
5.	-211
应用	-212
si	-213
ad	-214
ed	-215
生活	-216
(\"	-217
算法	-218
社会	-219
▁A	-220
20	-221
服务	-222
能够	-223
ht	-224
提高	-225
任何	-226
▁C	-227
之间	-228
他们的	-229
nt	-230
il	-231
▁in	-232
同时	-233
相关	-234
的数据	-235
活动	-236
公司	-237
he	-238
),	-239
un	-240
描述	-241
ort	-242
两个	-243
▁}\	-244
应该	-245
ue	-246
▁|\	-247
ub	-248
▁the	-249
▁0	-250
示例	-251
ul	-252
能力	-253
▁[	-254
的人	-255
安全	-256
em	-257
..	-258
注意	-259
方面	-260
文本	-261
健康	-262
ext	-263
id	-264
减少	-265
最后	-266
et	-267
单词	-268
具体	-269
变化	-270
创建一个	-271
列表	-272
行为	-273
目标	-274
end	-275
功能	-276
首先	-277
新的	-278
输入	-279
具有	-280
tr	-281
预测	-282
()	-283
部分	-284
▁$	-285
经济	-286
类型	-287
世界	-288
内容	-289
ML	-290
作为	-291
ation	-292
通常	-293
因此	-294
ot	-295
\"\	-296
利用	-297
Python	-298
导致	-299
可以使用	-300
有效	-301
智能	-302
自然	-303
你能	-304
个人	-305
非常	-306
▁o	-307
age	-308
ap	-309
因素	-310
产生	-311
的影响	-312
必须	-313
您的	-314
发展	-315
ic	-316
解释	-317
各种	-318
增加	-319
▁v	-320
管理	-321
rint	-322
开始	-323
确定	-324
us	-325
挑战	-326
是否	-327
工具	-328
大的	-329
识别	-330
需求	-331
元素	-332
这样	-333
ava	-334
为了	-335
is	-336
ble	-337
字符	-338
网络	-339
好的	-340
步骤	-341
开发	-342
ers	-343
▁3	-344
AI	-345
策略	-346
其中	-347
ew	-348
然而	-349
结构	-350
pe	-351
人的	-352
动物	-353
关系	-354
找到	-355
完成	-356
实际	-357
文化	-358
的是	-359
表格	-360
国家	-361
计划	-362
关于	-363
训练	-364
已经	-365
不是	-366
name	-367
?\	-368
无法	-369
支持	-370
例子	-371
▁//	-372
故事	-373
科学	-374
格式	-375
可能需要	-376
假设	-377
存在	-378
urn	-379
所以	-380
np	-381
ni	-382
文件	-383
就是	-384
正确	-385
保护	-386
oo	-387
19	-388
以下是	-389
不同的	-390
]\	-391
表示	-392
cri	-393
这是	-394
性的	-395
但是	-396
方案	-397
ck	-398
情感	-399
▁**	-400
▁T	-401
详细	-402
ment	-403
历史	-404
保持	-405
输出	-406
\",\	-407
6.	-408
▁P	-409
机器学习	-410
ve	-411
我们的	-412
简单	-413
turn	-414
更多	-415
▁*	-416
来说	-417
比较	-418
=\"	-419
qu	-420
▁I	-421
资源	-422
ig	-423
crip	-424
生物	-425
项目	-426
自己的	-427
建议	-428
▁for	-429
res	-430
Java	-431
准确	-432
之间的	-433
分类	-434
▁h	-435
许多	-436
添加	-437
人类	-438
并且	-439
nf	-440
教育	-441
▁return	-442
▁st	-443
我们可以	-444
定义	-445
领域	-446
▁D	-447
数据库	-448
ow	-449
特征	-450
量的	-451
HT	-452
ode	-453
关键	-454
全球	-455
提供一个	-456
发现	-457
ver	-458
持续	-459
ence	-460
ass	-461
错误	-462
复杂的	-463
设备	-464
人工	-465
▁M	-466
了解	-467
data	-468
潜在	-469
word	-470
美国	-471
游戏	-472
mport	-473
不能	-474
ci	-475
▁B	-476
显示	-477
▁#	-478
▁5	-479
面的	-480
检查	-481
get	-482
涉及	-483
优化	-484
性和	-485
社交	-486
决策	-487
ine	-488
网站	-489
他的	-490
基本	-491
比如	-492
con	-493
出现	-494
直接	-495
成功	-496
__	-497
运动	-498
▁if	-499
你可以	-500
op	-501
操作	-502
ON	-503
条件	-504
编程	-505
查询	-506
上的	-507
模式	-508
由于	-509
字母	-510
QL	-511
ft	-512
获取	-513
string	-514
基于	-515
▁\\	-516
那么	-517
得到	-518
HTML	-519
公式	-520
存储	-521
ount	-522
('	-523
市场	-524
有一个	-525
改变	-526
知识	-527
数量	-528
体验	-529
▁}	-530
要求	-531
可以帮助	-532
▁O	-533
▁`	-534
学生	-535
ity	-536
▁of	-537
电影	-538
团队	-539
电子	-540
特定	-541
人工智能	-542
执行	-543
是一种	-544
ml	-545
生产	-546
作用	-547
城市	-548
代表	-549
▁4	-550
角色	-551
组织	-552
颜色	-553
成本	-554
▁e	-555
可能的	-556
主题	-557
位置	-558
let	-559
企业	-560
了一个	-561
都是	-562
医疗	-563
Ex	-564
▁to	-565
媒体	-566
获得	-567
能源	-568
1,	-569
表达	-570
评估	-571
独特	-572
ta	-573
▁y	-574
▁and	-575
解决方案	-576
7.	-577
am	-578
▁F	-579
数组	-580
▁g	-581
调整	-582
000	-583
SQL	-584
测试	-585
▁de	-586
JS	-587
tring	-588
▁R	-589
cript	-590
控制	-591
一步	-592
字符串	-593
软件	-594
哪些	-595
你需要	-596
未来	-597
od	-598
text	-599
三个	-600
可以通过	-601
our	-602
基础	-603
如何使用	-604
参与	-605
发生	-606
法律	-607
人们	-608
JSON	-609
▁L	-610
”,	-611
情况下	-612
是一	-613
▁"1.	-614
AT	-615
访问	-616
价值	-617
形式	-618
展示	-619
sp	-620
cl	-621
表现	-622
返回	-623
的信息	-624
收集	-625
员工	-626
排序	-627
事件	-628
材料	-629
▁r	-630
给定	-631
您能	-632
质量	-633
价格	-634
建立	-635
文章	-636
化的	-637
温度	-638
气候	-639
专业	-640
tit	-641
在这个	-642
平均	-643
创造	-644
名称	-645
购买	-646
不仅	-647
lic	-648
▁se	-649
背景	-650
的一	-651
风险	-652
自动	-653
ir	-654
计算机	-655
编写	-656
满足	-657
\")\	-658
ore	-659
效率	-660
AB	-661
ath	-662
ter	-663
12	-664
▁N	-665
son	-666
地区	-667
中国	-668
ult	-669
速度	-670
50	-671
吸引	-672
转换	-673
oc	-674
答案	-675
wi	-676
从而	-677
##	-678
修改	-679
ase	-680
ke	-681
性能	-682
技能	-683
实施	-684
压力	-685
ist	-686
++	-687
ss	-688
ain	-689
带来	-690
成为	-691
积极	-692
更加	-693
艺术	-694
植物	-695
心理	-696
随机	-697
这里	-698
食物	-699
现在	-700
知道	-701
者的	-702
限制	-703
sh	-704
▁is	-705
cel	-706
这是一个	-707
身体	-708
nimport	-709
ile	-710
正在	-711
cal	-712
ect	-713
希望	-714
水平	-715
▁在	-716
决定	-717
的方式	-718
的方法	-719
图像	-720
给定的	-721
td	-722
范围	-723
ph	-724
':	-725
标准	-726
应的	-727
认为	-728
神经	-729
选项	-730
一次	-731
▁l	-732
行业	-733
ure	-734
iz	-735
▁con	-736
变量	-737
有关	-738
机会	-739
在线	-740
交通	-741
num	-742
运行	-743
增强	-744
应用程序	-745
的最	-746
的地	-747
art	-748
8.	-749
政策	-750
act	-751
im	-752
传统	-753
python	-754
降低	-755
社交媒体	-756
nd	-757
个性	-758
适应	-759
投资	-760
说明	-761
搜索	-762
一起	-763
0.	-764
改善	-765
val	-766
▁</	-767
销售	-768
助于	-769
适合	-770
vi	-771
数学	-772
标题	-773
te	-774
虽然	-775
co	-776
相关的	-777
还是	-778
PI	-779
政府	-780
社区	-781
这一	-782
):\	-783
2,	-784
du	-785
提示	-786
疾病	-787
是什么	-788
有助于	-789
html	-790
喜欢	-791
深度	-792
太阳	-793
设置	-794
100	-795
ER	-796
对象	-797
0,	-798
的问题	-799
推荐	-800
▁G	-801
for	-802
孩子	-803
▁int	-804
----------------	-805
▁j	-806
▁new	-807
ublic	-808
统计	-809
避免	-810
)。	-811
以上	-812
连接	-813
主义	-814
ype	-815
特别	-816
提取	-817
反馈	-818
随着	-819
汽车	-820
可以在	-821
entence	-822
邮件	-823
形成	-824
▁x	-825
▁E	-826
概念	-827
平台	-828
提供了	-829
我的	-830
它们的	-831
▁/	-832
▁&	-833
to	-834
简单的	-835
页面	-836
数据的	-837
我们需要	-838
音乐	-839
重要的	-840
做出	-841
Excel	-842
后的	-843
第二	-844
营销	-845
如下	-846
家庭	-847
过程中	-848
▁6	-849
rom	-850
命令	-851
\")	-852
▁W	-853
朋友	-854
最终	-855
至少	-856
15	-857
制定	-858
完全	-859
它的	-860
必要	-861
到了	-862
打印	-863
{\	-864
▁:	-865
eg	-866
逻辑	-867
ma	-868
原因	-869
ff	-870
接受	-871
更多的	-872
拥有	-873
符合	-874
多个	-875
()\	-876
将其	-877
行动	-878
nde	-879
up	-880
不会	-881
起来	-882
ray	-883
常见	-884
::	-885
深入	-886
▁使用	-887
探索	-888
才能	-889
收入	-890
使得	-891
▁num	-892
地球	-893
记录	-894
。2.	-895
大小	-896
方程	-897
Script	-898
特定的	-899
措施	-900
生态	-901
机器人	-902
ans	-903
ay	-904
ly	-905
消费	-906
数据集	-907
▁==	-908
一下	-909
广泛	-910
效果	-911
JavaScript	-912
治疗	-913
当前	-914
问题的	-915
CT	-916
过去	-917
日期	-918
这样的	-919
这段	-920
规则	-921
可持续	-922
如果你	-923
:“	-924
▁<<	-925
com	-926
tic	-927
人员	-928
程度	-929
andom	-930
wift	-931
自然语言	-932
大量	-933
eng	-934
提出	-935
人口	-936
按照	-937
谜题	-938
进一步	-939
组成	-940
是在	-941
用来	-942
1)	-943
很多	-944
增长	-945
之一	-946
一般	-947
time	-948
生成一个	-949
物品	-950
理论	-951
以下是一个	-952
LAB	-953
item	-954
的时间	-955
森林	-956
更新	-957
制作	-958
——	-959
准备	-960
寻找	-961
ber	-962
状态	-963
空间	-964
视觉	-965
移动	-966
年龄	-967
尝试	-968
ATLAB	-969
的重要	-970
ind	-971
美元	-972
参数	-973
2)	-974
nprint	-975
▁data	-976
▁ar	-977
。3.	-978
讨论	-979
情绪	-980
来源	-981
所需	-982
及其	-983
so	-984
您能否	-985
适当	-986
ry	-987
意义	-988
']	-989
感到	-990
不断	-991
.\	-992
title	-993
sion	-994
也是	-995
采取	-996
体的	-997
促进	-998
用的	-999
时候	-1000
使用的	-1001
\";\	-1002
力的	-1003
上述	-1004
沟通	-1005
政治	-1006
而且	-1007
总的	-1008
):	-1009
9.	-1010
18	-1011
uby	-1012
ack	-1013
['	-1014
LE	-1015
第一	-1016
ith	-1017
受到	-1018
MATLAB	-1019
容易	-1020
营养	-1021
改进	-1022
ite	-1023
▁10	-1024
▁word	-1025
▁di	-1026
并不	-1027
ary	-1028
ag	-1029
▁.	-1030
循环	-1031
生命	-1032
报告	-1033
▁as	-1034
给出	-1035
饮食	-1036
30	-1037
▁2.	-1038
▁7	-1039
密码	-1040
为什么	-1041
高的	-1042
。”	-1043
用户的	-1044
海洋	-1045
▁8	-1046
现实	-1047
某些	-1048
下面	-1049
甚至	-1050
品牌	-1051
整个	-1052
ark	-1053
创新	-1054
快速	-1055
旅行	-1056
one	-1057
充满	-1058
排放	-1059
经验	-1060
具体的	-1061
odel	-1062
都有	-1063
互动	-1064
联系	-1065
The	-1066
看到	-1067
5,	-1068
row	-1069
**:	-1070
▁%	-1071
多样	-1072
验证	-1073
空气	-1074
责任	-1075
总的来说	-1076
了一	-1077
定期	-1078
工程	-1079
气候变化	-1080
天气	-1081
实践	-1082
结合	-1083
pro	-1084
独特的	-1085
污染	-1086
采用	-1087
她的	-1088
合作	-1089
食品	-1090
意味	-1091
短语	-1092
长期	-1093
加入	-1094
Data	-1095
正确的	-1096
度和	-1097
丰富	-1098
ument	-1099
ant	-1100
▁0.	-1101
小时	-1102
olor	-1103
▁H	-1104
able	-1105
ac	-1106
标签	-1107
ach	-1108
更好	-1109
ust	-1110
ear	-1111
物种	-1112
ance	-1113
依赖	-1114
允许	-1115
自然语言处理	-1116
尽管	-1117
现代	-1118
SE	-1119
意味着	-1120
相同	-1121
检测	-1122
趋势	-1123
();\	-1124
这可能	-1125
差异	-1126
构建	-1127
eb	-1128
ell	-1129
String	-1130
鼓励	-1131
物质	-1132
分钟	-1133
per	-1134
介绍	-1135
序列	-1136
技巧	-1137
ion	-1138
防止	-1139
反应	-1140
---	-1141
的主要	-1142
类别	-1143
来自	-1144
tp	-1145
all	-1146
25	-1147
距离	-1148
努力	-1149
变得	-1150
想要	-1151
XML	-1152
物理	-1153
else	-1154
分配	-1155
模拟	-1156
ns	-1157
翻译	-1158
ength	-1159
ab	-1160
也可以	-1161
lab	-1162
以便	-1163
职业	-1164
公共	-1165
环保	-1166
只有	-1167
ec	-1168
和其他	-1169
NL	-1170
的例子	-1171
))	-1172
重复	-1173
观点	-1174
维护	-1175
ight	-1176
高效	-1177
除了	-1178
列出	-1179
转换为	-1180
度的	-1181
log	-1182
患者	-1183
ID	-1184
:1.	-1185
que	-1186
分享	-1187
▁print	-1188
之前	-1189
提升	-1190
替换	-1191
虚拟	-1192
▁>	-1193
语法	-1194
▁<-	-1195
平衡	-1196
重新	-1197
所有的	-1198
回答	-1199
ange	-1200
ouble	-1201
的总	-1202
阅读	-1203
Con	-1204
▁cl	-1205
po	-1206
交互	-1207
关注	-1208
细胞	-1209
经历	-1210
明确	-1211
几个	-1212
类型的	-1213
并在	-1214
困难	-1215
组合	-1216
ody	-1217
清晰	-1218
3,	-1219
自由	-1220
RO	-1221
yst	-1222
gle	-1223
▁name	-1224
low	-1225
。4.	-1226
这将	-1227
力量	-1228
考虑到	-1229
系列	-1230
ook	-1231
请注意	-1232
11	-1233
阶段	-1234
系统的	-1235
兴趣	-1236
▁3.	-1237
enti	-1238
的结果	-1239
pp	-1240
app	-1241
HP	-1242
可视	-1243
一样	-1244
手机	-1245
称为	-1246
无论	-1247
set	-1248
ory	-1249
的工作	-1250
推理	-1251
面积	-1252
苹果	-1253
全面	-1254
名为	-1255
数的	-1256
一定	-1257
跟踪	-1258
▁pro	-1259
大量的	-1260
redi	-1261
▁20	-1262
mple	-1263
作品	-1264
意识	-1265
造成	-1266
风格	-1267
▁},\	-1268
一段	-1269
▁的	-1270
otal	-1271
实验	-1272
应对	-1273
满意	-1274
模型的	-1275
:**	-1276
Re	-1277
继续	-1278
找出	-1279
API	-1280
电子邮件	-1281
ocument	-1282
CS	-1283
联网	-1284
ne	-1285
有的	-1286
严重	-1287
只是	-1288
ndef	-1289
\");\	-1290
form	-1291
在一个	-1292
多种	-1293
rain	-1294
的示例	-1295
lf	-1296
隐私	-1297
)、	-1298
不要	-1299
加密	-1300
list	-1301
感觉	-1302
In	-1303
文档	-1304
unction	-1305
顺序	-1306
以确保	-1307
强调	-1308
有效的	-1309
user	-1310
|\	-1311
ude	-1312
额外	-1313
长度	-1314
Te	-1315
ystem	-1316
请提供	-1317
)。\	-1318
的代码	-1319
而不是	-1320
json	-1321
两种	-1322
编程语言	-1323
sc	-1324
一份	-1325
色的	-1326
▁String	-1327
cho	-1328
成员	-1329
head	-1330
▁9	-1331
ser	-1332
duct	-1333
面临	-1334
蛋白	-1335
符号	-1336
那些	-1337
▁else	-1338
道德	-1339
你能否	-1340
▁string	-1341
sq	-1342
▁ch	-1343
ener	-1344
ax	-1345
下来	-1346
超过	-1347
领导	-1348
tive	-1349
16	-1350
达到	-1351
目的	-1352
伦理	-1353
使其	-1354
科技	-1355
世纪	-1356
中心	-1357
属于	-1358
实体	-1359
ob	-1360
可视化	-1361
频率	-1362
整体	-1363
能量	-1364
水果	-1365
▁var	-1366
动词	-1367
cala	-1368
($	-1369
力和	-1370
共同	-1371
多少	-1372
最大	-1373
提供的	-1374
分布	-1375
▁me	-1376
▁public	-1377
场景	-1378
名字	-1379
保健	-1380
引起	-1381
的能力	-1382
另一	-1383
针对	-1384
单位	-1385
实时	-1386
可能是	-1387
另一个	-1388
障碍	-1389
')\	-1390
自我	-1391
显著	-1392
ln	-1393
”。	-1394
Swift	-1395
Name	-1396
http	-1397
还有	-1398
神经网络	-1399
购物	-1400
are	-1401
nA	-1402
观察	-1403
))\	-1404
的一个	-1405
适当的	-1406
。5.	-1407
▁=>	-1408
结束	-1409
交易	-1410
转化	-1411
ght	-1412
br	-1413
课程	-1414
涉及到	-1415
竞争	-1416
犯罪	-1417
基因	-1418
安装	-1419
排列	-1420
AR	-1421
形容	-1422
动态	-1423
相对	-1424
ard	-1425
ject	-1426
原则	-1427
声音	-1428
分别	-1429
理解和	-1430
句话	-1431
解析	-1432
规定	-1433
cs	-1434
取决	-1435
有效地	-1436
取决于	-1437
og	-1438
如何在	-1439
大学	-1440
还可以	-1441
混合	-1442
脚本	-1443
真实	-1444
视频	-1445
更好地	-1446
的内容	-1447
count	-1448
不可	-1449
片段	-1450
出来	-1451
公司的	-1452
).	-1453
商品	-1454
▁U	-1455
财务	-1456
让我们	-1457
你可以使用	-1458
费用	-1459
200	-1460
再生	-1461
这个问题	-1462
强大的	-1463
key	-1464
预算	-1465
PHP	-1466
▁let	-1467
查找	-1468
nC	-1469
est	-1470
来实现	-1471
▁V	-1472
深度学习	-1473
参考	-1474
body	-1475
最佳	-1476
高度	-1477
技术的	-1478
必要的	-1479
医疗保健	-1480
数据分析	-1481
类似	-1482
习惯	-1483
广告	-1484
评论	-1485
▁std	-1486
ace	-1487
独立	-1488
lot	-1489
14	-1490
date	-1491
NLP	-1492
▁class	-1493
],	-1494
整数	-1495
日常	-1496
les	-1497
一旦	-1498
优势	-1499
化学	-1500
我可以	-1501
有所	-1502
line	-1503
lement	-1504
\">	-1505
框架	-1506
网页	-1507
语句	-1508
这段代码	-1509
足够	-1510
区域	-1511
详细的	-1512
21	-1513
判断	-1514
ast	-1515
小说	-1516
经常	-1517
特点	-1518
建筑	-1519
状况	-1520
ze	-1521
ang	-1522
到的	-1523
环境中	-1524
诊断	-1525
特殊	-1526
▁将	-1527
Ch	-1528
扩展	-1529
div	-1530
高级	-1531
性别	-1532
第三	-1533
ens	-1534
有一	-1535
玩家	-1536
精神	-1537
和分析	-1538
▁main	-1539
pri	-1540
互联网	-1541
调查	-1542
相互	-1543
子的	-1544
保证	-1545
创作	-1546
电脑	-1547
只能	-1548
ost	-1549
清单	-1550
商业	-1551
请求	-1552
words	-1553
五个	-1554
17	-1555
真正	-1556
稳定	-1557
▁val	-1558
St	-1559
好处	-1560
设定	-1561
进入	-1562
▁res	-1563
氧化	-1564
lay	-1565
你可能需要	-1566
匹配	-1567
等于	-1568
仍然	-1569
标记	-1570
ize	-1571
mat	-1572
我们将	-1573
等等	-1574
____	-1575
oh	-1576
os	-1577
制造	-1578
国际	-1579
个性化	-1580
oogle	-1581
相应的	-1582
塑料	-1583
▁an	-1584
咖啡	-1585
err	-1586
enc	-1587
令人	-1588
GP	-1589
当然	-1590
|--------	-1591
,“	-1592
思维	-1593
^2	-1594
文学	-1595
own	-1596
图表	-1597
rue	-1598
方面的	-1599
更复杂的	-1600
呈现	-1601
之后	-1602
特性	-1603
至关	-1604
目前	-1605
蔬菜	-1606
交流	-1607
▁数据	-1608
农业	-1609
传播	-1610
金融	-1611
新闻	-1612
....	-1613
业务	-1614
英语	-1615
设施	-1616
nlet	-1617
事情	-1618
▁end	-1619
形容词	-1620
第一个	-1621
贡献	-1622
尊重	-1623
clude	-1624
lt	-1625
响应	-1626
人民	-1627
sole	-1628
atex	-1629
所需的	-1630
每种	-1631
服务器	-1632
标志	-1633
义词	-1634
://	-1635
想法	-1636
物的	-1637
可再生	-1638
攻击	-1639
行的	-1640
nc	-1641
▁J	-1642
对话	-1643
概率	-1644
▁import	-1645
方向	-1646
机构	-1647
记住	-1648
异常	-1649
\"]	-1650
直到	-1651
▁和	-1652
地方	-1653
我们可以使用	-1654
print	-1655
年的	-1656
ents	-1657
睡眠	-1658
另外	-1659
回归	-1660
tiv	-1661
绿色	-1662
LECT	-1663
全面的	-1664
消息	-1665
'\	-1666
推动	-1667
属性	-1668
面对	-1669
评分	-1670
会议	-1671
您可以	-1672
流程	-1673
有趣	-1674
欢迎	-1675
生长	-1676
症状	-1677
冲突	-1678
即使	-1679
学校	-1680
检索	-1681
平方	-1682
当地	-1683
思考	-1684
消费者	-1685
更好的	-1686
ep	-1687
潜在的	-1688
陈述	-1689
规模	-1690
中使用	-1691
ess	-1692
同样	-1693
量子	-1694
优先	-1695
权利	-1696
常见的	-1697
是指	-1698
label	-1699
add	-1700
完整	-1701
驾驶	-1702
表明	-1703
因为它	-1704
期间	-1705
清洁	-1706
的值	-1707
一直	-1708
对比	-1709
每天	-1710
Go	-1711
反映	-1712
生存	-1713
图片	-1714
呼吸	-1715
NT	-1716
时期	-1717
冒险	-1718
自动化	-1719
▁:=	-1720
偏见	-1721
产品的	-1722
每一	-1723
烹饪	-1724
[]	-1725
ohn	-1726
的情况下	-1727
名词	-1728
最小	-1729
Ruby	-1730
参加	-1731
ROM	-1732
形状	-1733
class	-1734
var	-1735
细节	-1736
易于	-1737
4,	-1738
编写一个	-1739
威胁	-1740
nB	-1741
质数	-1742
优点	-1743
内部	-1744
都会	-1745
length	-1746
▁with	-1747
线性	-1748
we	-1749
查看	-1750
并提供	-1751
cription	-1752
sum	-1753
List	-1754
回收	-1755
缺点	-1756
▁pri	-1757
身份	-1758
进步	-1759
病毒	-1760
的潜在	-1761
oid	-1762
ample	-1763
include	-1764
合适	-1765
ork	-1766
三角	-1767
供应	-1768
60	-1769
调用	-1770
...	-1771
区别	-1772
还需要	-1773
ak	-1774
有些	-1775
集成	-1776
的地方	-1777
助手	-1778
观众	-1779
诗歌	-1780
的故事	-1781
总之	-1782
就可以	-1783
▁on	-1784
quest	-1785
动力	-1786
和社会	-1787
ip	-1788
图形	-1789
约翰	-1790
10.	-1791
负面	-1792
if	-1793
发送	-1794
lation	-1795
情感分析	-1796
含义	-1797
▁4.	-1798
1:	-1799
餐厅	-1800
公平	-1801
ree	-1802
的关键	-1803
这些数据	-1804
预处理	-1805
各个	-1806
bers	-1807
的大	-1808
Int	-1809
csv	-1810
▁100	-1811
传达	-1812
ng	-1813
记忆	-1814
上下	-1815
\">\	-1816
原始	-1817
可再生能源	-1818
并将	-1819
出了	-1820
代码中	-1821
科学家	-1822
在一起	-1823
13	-1824
一致	-1825
聊天	-1826
时间的	-1827
版本	-1828
认知	-1829
egin	-1830
偏好	-1831
der	-1832
正常	-1833
也会	-1834
受众	-1835
rac	-1836
插入	-1837
食谱	-1838
锻炼	-1839
相似	-1840
一篇	-1841
ature	-1842
▁get	-1843
这两个	-1844
现象	-1845
只是一个	-1846
尤其	-1847
sql	-1848
alse	-1849
精确	-1850
▁wh	-1851
就像	-1852
的行为	-1853
工业	-1854
机器学习算法	-1855
new	-1856
机制	-1857
▁ex	-1858
事实	-1859
难以	-1860
input	-1861
type	-1862
▁System	-1863
轻松	-1864
80	-1865
Word	-1866
dd	-1867
的时候	-1868
cess	-1869
ire	-1870
指标	-1871
SELECT	-1872
告诉	-1873
代码片段	-1874
model	-1875
链接	-1876
明显	-1877
规划	-1878
nfor	-1879
ww	-1880
删除	-1881
加载	-1882
ld	-1883
的具体	-1884
sentence	-1885
周围	-1886
▁be	-1887
的生活	-1888
替代	-1889
比赛	-1890
);	-1891
▁id	-1892
就会	-1893
重大	-1894
词汇	-1895
nD	-1896
编码	-1897
nfrom	-1898
测量	-1899
Scala	-1900
定制	-1901
可能导致	-1902
分为	-1903
探讨	-1904
La	-1905
他人	-1906
人物	-1907
Pro	-1908
result	-1909
ask	-1910
▁or	-1911
演示	-1912
▁result	-1913
唯一	-1914
分析和	-1915
个体	-1916
成分	-1917
在于	-1918
3)	-1919
专注	-1920
动作	-1921
的单词	-1922
蛋白质	-1923
unc	-1924
代码示例	-1925
2:	-1926
ail	-1927
表达式	-1928
▁[\"	-1929
读者	-1930
实际上	-1931
平等	-1932
年轻	-1933
语音	-1934
并使用	-1935
发布	-1936
灵活	-1937
omp	-1938
引发	-1939
消耗	-1940
遵循	-1941
8,	-1942
构成	-1943
mt	-1944
书籍	-1945
的数字	-1946
TeX	-1947
经过	-1948
减轻	-1949
利益	-1950
有哪些	-1951
初始	-1952
总结	-1953
的过程	-1954
破坏	-1955
过滤	-1956
良好的	-1957
mo	-1958
use	-1959
▁Con	-1960
**\	-1961
ram	-1962
负责	-1963
▁+=	-1964
,\"	-1965
以下句子	-1966
气体	-1967
my	-1968
证明	-1969
出的	-1970
进制	-1971
基本的	-1972
->	-1973
指导	-1974
!",	-1975
its	-1976
下的	-1977
下降	-1978
医生	-1979
准确性	-1980
电视	-1981
英国	-1982
象征	-1983
作者	-1984
读取	-1985
▁al	-1986
的发展	-1987
ustom	-1988
成长	-1989
上升	-1990
界面	-1991
ong	-1992
不过	-1993
编辑	-1994
客户的	-1995
▁def	-1996
:\"	-1997
ash	-1998
▁是	-1999
法规	-2000
电池	-2001
▁0,	-2002
`,	-2003
或其他	-2004
宇宙	-2005
先进	-2006
神秘	-2007
对应的	-2008
ev	-2009
四个	-2010
}{	-2011
IN	-2012
ood	-2013
UR	-2014
size	-2015
-1	-2016
转化为	-2017
三种	-2018
的平均	-2019
运算	-2020
ill	-2021
的重要性	-2022
的句子	-2023
https	-2024
恢复	-2025
设计一个	-2026
ud	-2027
des	-2028
危险	-2029
lear	-2030
NA	-2031
浏览	-2032
下面的	-2033
数值	-2034
心理健康	-2035
plot	-2036
美丽	-2037
敏感	-2038
];\	-2039
思想	-2040
有限	-2041
食材	-2042
ere	-2043
ery	-2044
药物	-2045
额外的	-2046
▁k	-2047
▁1.	-2048
角度	-2049
40	-2050
享受	-2051
日本	-2052
印度	-2053
分数	-2054
begin	-2055
多数	-2056
url	-2057
ST	-2058
▁un	-2059
三角形	-2060
垃圾	-2061
[0	-2062
的数量	-2063
透明	-2064
ken	-2065
培训	-2066
意思	-2067
驱动	-2068
区块	-2069
的所有	-2070
-0	-2071
原理	-2072
也有	-2073
loc	-2074
综合	-2075
法国	-2076
22	-2077
位于	-2078
专门	-2079
entiment	-2080
每一个	-2081
战争	-2082
段落	-2083
erson	-2084
这些信息	-2085
公园	-2086
情节	-2087
本身	-2088
一名	-2089
阳光	-2090
ator	-2091
寻求	-2092
我会	-2093
dex	-2094
怎么	-2095
丰富的	-2096
客户服务	-2097
可靠	-2098
引擎	-2099
支付	-2100
▁如果	-2101
接下来	-2102
开放	-2103
table	-2104
公众	-2105
可用	-2106
休息	-2107
文字	-2108
舒适	-2109
生态系统	-2110
的使用	-2111
来越	-2112
总是	-2113
隐藏	-2114
而是	-2115
Sh	-2116
我想	-2117
},	-2118
大利	-2119
45	-2120
的详细	-2121
-3	-2122
');\	-2123
更改	-2124
越来越	-2125
Google	-2126
的研究	-2127
多样性	-2128
ces	-2129
单元	-2130
上下文	-2131
rite	-2132
著名	-2133
最大的	-2134
指南	-2135
医学	-2136
一系列	-2137
过度	-2138
的复杂	-2139
Latex	-2140
时间和	-2141
To	-2142
后果	-2143
char	-2144
哪个	-2145
的情感	-2146
▁text	-2147
得分	-2148
就业	-2149
特别是	-2150
fi	-2151
地点	-2152
强烈	-2153
东西	-2154
方便	-2155
最近	-2156
assword	-2157
▁self	-2158
每次	-2159
土壤	-2160
姓名	-2161
往往	-2162
▁sum	-2163
革命	-2164
99	-2165
cre	-2166
Element	-2167
群体	-2168
这意味着	-2169
取得	-2170
色彩	-2171
打开	-2172
部门	-2173
emp	-2174
地理	-2175
可能性	-2176
read	-2177
概述	-2178
太阳能	-2179
对环境	-2180
test	-2181
儿童	-2182
比例	-2183
预防	-2184
pen	-2185
物体	-2186
并没有	-2187
监督	-2188
简介	-2189
\",\"	-2190
注意的是	-2191
时的	-2192
抱歉	-2193
▁5.	-2194
每个人	-2195
▁K	-2196
的小	-2197
ies	-2198
atic	-2199
▁void	-2200
共享	-2201
Web	-2202
通信	-2203
的环境	-2204
多的	-2205
接触	-2206
列表中	-2207
运用	-2208
learn	-2209
LaTeX	-2210
内的	-2211
ym	-2212
个性化的	-2213
sub	-2214
▁sentence	-2215
引人	-2216
。\"	-2217
追求	-2218
字段	-2219
旨在	-2220
一天	-2221
500	-2222
urr	-2223
是由	-2224
的变化	-2225
相比	-2226
硬件	-2227
的情况	-2228
来计算	-2229
证据	-2230
GPT	-2231
路径	-2232
一位	-2233
核心	-2234
onse	-2235
▁Pro	-2236
Line	-2237
的需求	-2238
using	-2239
严格	-2240
预期	-2241
另一方面	-2242
fe	-2243
的新	-2244
大气	-2245
分解	-2246
CSS	-2247
的风险	-2248
可以用于	-2249
ations	-2250
练习	-2251
应包括	-2252
▁random	-2253
缺失	-2254
aly	-2255
大型	-2256
color	-2257
lect	-2258
红色	-2259
如何影响	-2260
时代	-2261
▁li	-2262
缺乏	-2263
自行	-2264
分子	-2265
ateg	-2266
再次	-2267
突出	-2268
股票	-2269
区块链	-2270
地址	-2271
')	-2272
如此	-2273
nval	-2274
激励	-2275
简洁	-2276
file	-2277
npublic	-2278
摘要	-2279
女性	-2280
生素	-2281
向量	-2282
至关重要	-2283
车辆	-2284
节省	-2285
ERE	-2286
一组	-2287
电话	-2288
学习和	-2289
皮肤	-2290
一条	-2291
产生了	-2292
[\"	-2293
▁代码	-2294
John	-2295
有着	-2296
par	-2297
Ar	-2298
普通	-2299
ime	-2300
在此	-2301
燃料	-2302
的基本	-2303
协作	-2304
pt	-2305
aut	-2306
矩阵	-2307
论文	-2308
试图	-2309
线索	-2310
我无法	-2311
und	-2312
推广	-2313
到达	-2314
制度	-2315
结论	-2316
信息的	-2317
sort	-2318
发挥	-2319
。</	-2320
强大	-2321
想象	-2322
对应	-2323
认识	-2324
揭示	-2325
▁double	-2326
ug	-2327
有机	-2328
px	-2329
▁this	-2330
创意	-2331
与其他	-2332
和文化	-2333
合理	-2334
random	-2335
。`	-2336
ial	-2337
▁{\"	-2338
样本	-2339
cul	-2340
yle	-2341
▁str	-2342
requ	-2343
字典	-2344
数据和	-2345
列举	-2346
导航	-2347
演讲	-2348
领域的	-2349
▁total	-2350
建设	-2351
RE	-2352
并将其	-2353
book	-2354
融入	-2355
公民	-2356
道路	-2357
enerate	-2358
蓝色	-2359
来解决	-2360
ncon	-2361
点击	-2362
变暖	-2363
CO	-2364
24	-2365
描绘	-2366
释放	-2367
含有	-2368
遗传	-2369
使用了	-2370
充分	-2371
节点	-2372
ress	-2373
▁static	-2374
▁count	-2375
保留	-2376
大于	-2377
不需要	-2378
他们在	-2379
保存	-2380
动画	-2381
专家	-2382
你好	-2383
▁sh	-2384
旅程	-2385
php	-2386
银行	-2387
lit	-2388
评价	-2389
放在	-2390
io	-2391
内存	-2392
atch	-2393
ner	-2394
tent	-2395
协议	-2396
ee	-2397
感染	-2398
最高	-2399
rep	-2400
rans	-2401
这可以	-2402
单词的	-2403
商店	-2404
><	-2405
逐渐	-2406
。6.	-2407
生成的	-2408
一家	-2409
二氧化	-2410
未来的	-2411
ound	-2412
▁he	-2413
同义词	-2414
栖息	-2415
死亡	-2416
简化	-2417
某个	-2418
监控	-2419
您需要	-2420
▁\\\\	-2421
满意度	-2422
Text	-2423
train	-2424
设计和	-2425
这个句子	-2426
写作	-2427
产生的	-2428
▁!	-2429
理想	-2430
引入	-2431
能否	-2432
广泛的	-2433
远程	-2434
土地	-2435
天空	-2436
以下是一些	-2437
信号	-2438
期望	-2439
娱乐	-2440
遇到	-2441
ous	-2442
7,	-2443
学术	-2444
索引	-2445
成就	-2446
顾客	-2447
HERE	-2448
性质	-2449
安排	-2450
宪法	-2451
},\	-2452
应该是	-2453
请提供一个	-2454
成功的	-2455
▁words	-2456
带有	-2457
次数	-2458
任务是	-2459
假设你	-2460
同时也	-2461
价值观	-2462
的目标	-2463
新鲜	-2464
▁0;\	-2465
bo	-2466
流行	-2467
的语言	-2468
用户输入	-2469
▁le	-2470
外部	-2471
主角	-2472
90	-2473
里的	-2474
欧洲	-2475
生活的	-2476
ome	-2477
ties	-2478
大多数	-2479
value	-2480
至于	-2481
碳排放	-2482
被称为	-2483
section	-2484
其实	-2485
Ph	-2486
遍历	-2487
▁12	-2488
▁la	-2489
在这种	-2490
某种	-2491
接收	-2492
也就是	-2493
assi	-2494
▁对	-2495
”、	-2496
right	-2497
动机	-2498
更容易	-2499
数据进行	-2500
纤维	-2501
angu	-2502
▁2,	-2503
焦虑	-2504
似乎	-2505
▁1,	-2506
数据库中	-2507
职位	-2508
down	-2509
anguage	-2510
tri	-2511
尽可能	-2512
▁[\	-2513
指令	-2514
温室	-2515
体系	-2516
撰写	-2517
其次	-2518
年代	-2519
的水	-2520
相同的	-2521
覆盖	-2522
它是	-2523
是否有	-2524
公正	-2525
损失	-2526
mal	-2527
合适的	-2528
▁"“	-2529
识别和	-2530
将会	-2531
幸福	-2532
ption	-2533
Val	-2534
都可以	-2535
货币	-2536
的理解	-2537
的任何	-2538
运输	-2539
ating	-2540
监测	-2541
可能会导致	-2542
及时	-2543
引用	-2544
充满了	-2545
提醒	-2546
屏幕	-2547
笔记	-2548
but	-2549
map	-2550
Id	-2551
重量	-2552
其中包含	-2553
lace	-2554
安全性	-2555
yn	-2556
刺激	-2557
ref	-2558
传递	-2559
相当	-2560
看起来	-2561
idth	-2562
的技术	-2563
ll	-2564
对其	-2565
一项	-2566
添加到	-2567
行星	-2568
吸收	-2569
进展	-2570
这只是一个	-2571
栖息地	-2572
完美	-2573
秘密	-2574
,`	-2575
传感	-2576
坚持	-2577
适用于	-2578
”、“	-2579
例子中	-2580
的任务	-2581
快乐	-2582
温暖	-2583
维持	-2584
表面	-2585
▁St	-2586
可以是	-2587
原子	-2588
By	-2589
地位	-2590
可以用来	-2591
关键词	-2592
传感器	-2593
喜欢的	-2594
6,	-2595
▁API	-2596
恐惧	-2597
规范	-2598
hor	-2599
具备	-2600
nclass	-2601
order	-2602
rame	-2603
更为	-2604
可以根据	-2605
遵守	-2606
健康的	-2607
式的	-2608
运营	-2609
js	-2610
聊天机器人	-2611
loy	-2612
▁"\"	-2613
一个人	-2614
维生素	-2615
▁set	-2616
2>	-2617
ru	-2618
失去	-2619
奖励	-2620
ater	-2621
XX	-2622
gro	-2623
fic	-2624
范围内	-2625
5)	-2626
鸡蛋	-2627
='	-2628
▁qu	-2629
的一种	-2630
力学	-2631
视为	-2632
体育	-2633
西班	-2634
▁not	-2635
连续	-2636
的形式	-2637
西班牙	-2638
小的	-2639
作为一个	-2640
document	-2641
都能	-2642
机器学习模型	-2643
的历史	-2644
py	-2645
eam	-2646
本书	-2647
讲述	-2648
需求和	-2649
ctor	-2650
模块	-2651
全球变暖	-2652
(1	-2653
除以	-2654
巨大的	-2655
▁Y	-2656
传统的	-2657
你在	-2658
今天	-2659
失败	-2660
▁true	-2661
ES	-2662
忠诚	-2663
gs	-2664
andas	-2665
ef	-2666
信任	-2667
代码来	-2668
这个函数	-2669
DO	-2670
房间	-2671
▁ac	-2672
该函数	-2673
歌曲	-2674
▁array	-2675
电动	-2676
更有	-2677
值得	-2678
ures	-2679
IT	-2680
得出	-2681
和一个	-2682
面包	-2683
分类为	-2684
始终	-2685
也可能	-2686
▁中	-2687
但不	-2688
厘米	-2689
形象	-2690
世界上	-2691
国家的	-2692
之间的关系	-2693
NN	-2694
▁range	-2695
▁_	-2696
周期	-2697
指定	-2698
足够的	-2699
▁->	-2700
println	-2701
影响的	-2702
用户体验	-2703
健身	-2704
学科	-2705
心脏	-2706
在实际	-2707
潜力	-2708
订单	-2709
长的	-2710
生产力	-2711
百分	-2712
一切	-2713
集合	-2714
组件	-2715
ackage	-2716
append	-2717
culate	-2718
照片	-2719
ave	-2720
▁计算	-2721
等因素	-2722
学家	-2723
表中	-2724
这个任务	-2725
在这里	-2726
的话	-2727
是通过	-2728
irst	-2729
的概念	-2730
未知	-2731
迅速	-2732
变成	-2733
和数据	-2734
ice	-2735
的功能	-2736
description	-2737
接近	-2738
并不是	-2739
-2	-2740
缓解	-2741
这就是	-2742
和理解	-2743
stance	-2744
见解	-2745
red	-2746
/2	-2747
可以被	-2748
。(	-2749
tity	-2750
脂肪	-2751
团队成员	-2752
感谢	-2753
宠物	-2754
▁19	-2755
术语	-2756
URL	-2757
Count	-2758
go	-2759
更具	-2760
ency	-2761
ustomer	-2762
字体	-2763
2>\	-2764
▁are	-2765
放松	-2766
urrent	-2767
浪费	-2768
!"}	-2769
进行分类	-2770
进行排序	-2771
立即	-2772
类的	-2773
限于	-2774
ild	-2775
▁type	-2776
并确保	-2777
nusing	-2778
掌握	-2779
意大利	-2780
受欢迎	-2781
PE	-2782
ual	-2783
Write	-2784
你能提供一个	-2785
▁创建	-2786
化合	-2787
▁err	-2788
这是一种	-2789
美味	-2790
load	-2791
price	-2792
▁json	-2793
克服	-2794
min	-2795
一只	-2796
我将	-2797
单元格	-2798
自身	-2799
nfunc	-2800
不足	-2801
传输	-2802
相信	-2803
不起	-2804
2、	-2805
愿意	-2806
种植	-2807
};\	-2808
最好的	-2809
解密	-2810
▁max	-2811
的基础	-2812
IM	-2813
而不	-2814
”。\	-2815
index	-2816
nF	-2817
期待	-2818
[0]	-2819
第二个	-2820
Th	-2821
▁function	-2822
只要	-2823
▁3,	-2824
资金	-2825
可以提供	-2826
DP	-2827
base	-2828
arr	-2829
II	-2830
of	-2831
各自	-2832
引导	-2833
重写	-2834
。\"\	-2835
音频	-2836
兴奋	-2837
lan	-2838
并为	-2839
并根据	-2840
puts	-2841
布局	-2842
ulation	-2843
句子中	-2844
文件中	-2845
1、	-2846
专注于	-2847
来的	-2848
nend	-2849
培养	-2850
眼睛	-2851
▁FROM	-2852
Sp	-2853
rt	-2854
还要	-2855
自行车	-2856
max	-2857
大部分	-2858
感受	-2859
相应	-2860
array	-2861
▁time	-2862
集中	-2863
体现	-2864
的一些	-2865
几乎	-2866
▁my	-2867
体重	-2868
层次	-2869
nvar	-2870
解决问题	-2871
的前	-2872
70	-2873
product	-2874
一首	-2875
ink	-2876
location	-2877
旅游	-2878
选举	-2879
公共交通	-2880
实例	-2881
积极的	-2882
Mark	-2883
comp	-2884
人士	-2885
强度	-2886
self	-2887
ses	-2888
这需要	-2889
cor	-2890
肌肉	-2891
解决这个	-2892
ilter	-2893
化和	-2894
late	-2895
▁com	-2896
都在	-2897
被认为	-2898
比喻	-2899
下一个	-2900
世界的	-2901
来完成	-2902
存储在	-2903
季节	-2904
▁at	-2905
路线	-2906
黑暗	-2907
▁po	-2908
df	-2909
▁by	-2910
准确地	-2911
';\	-2912
开头	-2913
▁List	-2914
您能否提供	-2915
搜索引擎	-2916
菜单	-2917
▁Int	-2918
ctions	-2919
生活中	-2920
祝你好	-2921
素食	-2922
祝你好运	-2923
pi	-2924
态度	-2925
▁!=	-2926
no	-2927
二氧化碳	-2928
xml	-2929
的机会	-2930
学生的	-2931
位数	-2932
应当	-2933
案例	-2934
候选	-2935
comm	-2936
ick	-2937
old	-2938
废物	-2939
数列	-2940
▁char	-2941
你会	-2942
迭代	-2943
确实	-2944
塑造	-2945
有所不同	-2946
排除	-2947
2021	-2948
和平	-2949
来看	-2950
真的	-2951
带来的	-2952
这句话	-2953
本地	-2954
而言	-2955
Num	-2956
改变了	-2957
衡量	-2958
AN	-2959
离开	-2960
复杂度	-2961
来进行	-2962
效益	-2963
有了	-2964
深远	-2965
▁饰	-2966
{\"	-2967
nSELECT	-2968
75	-2969
▁,	-2970
的主题	-2971
ven	-2972
翻译成	-2973
之外	-2974
级别	-2975
节奏	-2976
词语	-2977
您可以使用	-2978
家人	-2979
等待	-2980
装饰	-2981
\"。	-2982
的颜色	-2983
为您	-2984
的列表	-2985
1000	-2986
技术和	-2987
否则	-2988
core	-2989
的产品	-2990
▁you	-2991
中文	-2992
3、	-2993
大规模	-2994
mage	-2995
这种方法	-2996
ET	-2997
飞行	-2998
math	-2999
修复	-3000
觉得	-3001
联合	-3002
acter	-3003
他在	-3004
相关性	-3005
关闭	-3006
多元	-3007
卫生	-3008
边缘	-3009
有一些	-3010
的原因	-3011
temp	-3012
4)	-3013
的不同	-3014
frac	-3015
隐喻	-3016
全部	-3017
出一个	-3018
国的	-3019
▁we	-3020
实际的	-3021
ther	-3022
那个	-3023
%,	-3024
fo	-3025
帮助你	-3026
peci	-3027
估计	-3028
?"}	-3029
nint	-3030
交换	-3031
权力	-3032
决策树	-3033
的世界	-3034
活动的	-3035
ale	-3036
vel	-3037
是使用	-3038
的数据库	-3039
的位置	-3040
vent	-3041
那里	-3042
以其	-3043
来确定	-3044
▁it	-3045
1]	-3046
结尾	-3047
也能	-3048
有什么	-3049
我们如何	-3050
然后使用	-3051
决心	-3052
▁Ch	-3053
选择一个	-3054
闻名	-3055
在这种情况下	-3056
CSV	-3057
的文本	-3058
平面	-3059
疫情	-3060
紧张	-3061
。-	-3062
永远	-3063
之处	-3064
冥想	-3065
有效性	-3066
地区的	-3067
split	-3068
▁1\	-3069
▁html	-3070
主动	-3071
梦想	-3072
或服务	-3073
不仅仅	-3074
写一段	-3075
作为一名	-3076
伤害	-3077
改写	-3078
但在	-3079
已知	-3080
带来了	-3081
更大的	-3082
An	-3083
命名	-3084
整合	-3085
种族	-3086
WriteLine	-3087
大约	-3088
▁your	-3089
蛋糕	-3090
正则	-3091
可能对	-3092
场所	-3093
-19	-3094
number	-3095
需要注意的是	-3096
行政	-3097
▁arr	-3098
uc	-3099
时刻	-3100
即可	-3101
Cl	-3102
和环境	-3103
密度	-3104
▁0;	-3105
rc	-3106
尺寸	-3107
温室气体	-3108
sed	-3109
`\	-3110
支出	-3111
▁ro	-3112
vate	-3113
一张	-3114
本题	-3115
父母	-3116
的挑战	-3117
的数据集	-3118
搅拌	-3119
调节	-3120
这个过程	-3121
▁user	-3122
▁sk	-3123
依赖于	-3124
raph	-3125
▁The	-3126
合同	-3127
哲学	-3128
流量	-3129
菜肴	-3130
.\"	-3131
注意力	-3132
利润	-3133
年份	-3134
ati	-3135
ton	-3136
太空	-3137
正式	-3138
配置	-3139
orld	-3140
宁静	-3141
加上	-3142
它们在	-3143
的关系	-3144
Print	-3145
大家	-3146
帮我	-3147
按钮	-3148
OS	-3149
野生	-3150
热情	-3151
金属	-3152
咨询	-3153
对手	-3154
下列	-3155
▁do	-3156
投入	-3157
olum	-3158
tain	-3159
加强	-3160
深刻	-3161
10,	-3162
准确的	-3163
博客	-3164
百分比	-3165
可能包括	-3166
(1)	-3167
可以帮助你	-3168
美食	-3169
全国	-3170
样式	-3171
民主	-3172
经典	-3173
是多少	-3174
Time	-3175
▁pd	-3176
动物的	-3177
哪种	-3178
和技术	-3179
也不	-3180
均匀	-3181
可用于	-3182
信用	-3183
▁from	-3184
相机	-3185
服装	-3186
ues	-3187
▁par	-3188
cent	-3189
重要的是	-3190
33	-3191
尤其是	-3192
排名	-3193
英文	-3194
难题	-3195
▁X	-3196
罗马	-3197
loat	-3198
style	-3199
TP	-3200
足迹	-3201
金额	-3202
非常重要	-3203
有许多	-3204
9,	-3205
优秀	-3206
示例代码	-3207
▁"##	-3208
生活方式	-3209
哺乳	-3210
igh	-3211
的步骤	-3212
质量的	-3213
sition	-3214
通过使用	-3215
简要	-3216
患者的	-3217
体积	-3218
的社会	-3219
表格中	-3220
▁输出	-3221
的一部分	-3222
SS	-3223
相反	-3224
化合物	-3225
同一	-3226
64	-3227
账户	-3228
lib	-3229
笔记本	-3230
和处理	-3231
▁Console	-3232
口味	-3233
寿命	-3234
▁can	-3235
▁&&	-3236
确认	-3237
配料	-3238
战略	-3239
▁cal	-3240
在这个例子中	-3241
总统	-3242
将以下	-3243
ensor	-3244
Po	-3245
ey	-3246
专业的	-3247
view	-3248
早期	-3249
魔法	-3250
手段	-3251
你的任务是	-3252
更高的	-3253
突然	-3254
化石	-3255
口感	-3256
贸易	-3257
替换为	-3258
负面影响	-3259
时尚	-3260
▁['	-3261
score	-3262
左右	-3263
_{	-3264
彻底	-3265
宗教	-3266
爱的	-3267
紧急	-3268
出现的	-3269
训练模型	-3270
所在	-3271
架构	-3272
▁ad	-3273
审查	-3274
葡萄	-3275
”,“	-3276
bject	-3277
ender	-3278
ATE	-3279
打印出	-3280
▁---	-3281
Shell	-3282
▁color	-3283
逐步	-3284
()`	-3285
将这些	-3286
数据中	-3287
Value	-3288
ake	-3289
2020	-3290
摄入	-3291
最好	-3292
语义	-3293
您能否提供一个	-3294
乘以	-3295
并非	-3296
als	-3297
并不能	-3298
ower	-3299
jo	-3300
onym	-3301
|------------	-3302
教师	-3303
权重	-3304
email	-3305
入胜	-3306
和对	-3307
的人口	-3308
尽量	-3309
......	-3310
88	-3311
重视	-3312
这一点	-3313
引人入胜	-3314
辅助	-3315
基础设施	-3316
在这	-3317
心的	-3318
浏览器	-3319
java	-3320
目标受众	-3321
捕捉	-3322
wit	-3323
工程师	-3324
而闻名	-3325
就能	-3326
本质	-3327
构造	-3328
标注	-3329
存在的	-3330
都需要	-3331
曾经	-3332
net	-3333
rand	-3334
出生	-3335
爱情	-3336
▁15	-3337
下面是一个	-3338
。7.	-3339
```"}	-3340
常常	-3341
番茄	-3342
和服务	-3343
ales	-3344
公开	-3345
的选择	-3346
清洗	-3347
结构和	-3348
ical	-3349
香蕉	-3350
树木	-3351
Pri	-3352
actor	-3353
▁“	-3354
纽约	-3355
贫困	-3356
表演	-3357
论点	-3358
▁提供	-3359
普遍	-3360
jec	-3361
0000	-3362
方法来	-3363
ps	-3364
▁@	-3365
黄色	-3366
的格式	-3367
处于	-3368
资本	-3369
让人	-3370
arg	-3371
使用以下	-3372
勇气	-3373
中间	-3374
▁en	-3375
办公	-3376
ndex	-3377
ia	-3378
$$	-3379
数据格式	-3380
鸟类	-3381
绝对	-3382
重点	-3383
为一个	-3384
创建了一个	-3385
此代码	-3386
ello	-3387
规律	-3388
是最	-3389
假设我们	-3390
▁document	-3391
申请	-3392
清楚	-3393
ont	-3394
Qu	-3395
句子的	-3396
\\\\	-3397
arget	-3398
关联	-3399
人类的	-3400
目标是	-3401
ib	-3402
直观	-3403
民族	-3404
清理	-3405
免疫	-3406
ssage	-3407
ltk	-3408
atures	-3409
倾向	-3410
大大	-3411
进行了	-3412
选择的	-3413
折扣	-3414
nif	-3415
德国	-3416
内置	-3417
资料	-3418
可以用	-3419
\"]\	-3420
处理和	-3421
一款	-3422
极端	-3423
样的	-3424
网站的	-3425
一定的	-3426
发明	-3427
感知	-3428
目的地	-3429
Phone	-3430
▁input	-3431
先进的	-3432
▁<=	-3433
地图	-3434
任务的	-3435
对方	-3436
个人的	-3437
YPE	-3438
数字的	-3439
script	-3440
numbers	-3441
更快	-3442
mes	-3443
出版	-3444
河流	-3445
组成部分	-3446
操作系统	-3447
良好	-3448
(2	-3449
OR	-3450
劳动	-3451
智慧	-3452
App	-3453
我国	-3454
AL	-3455
back	-3456
我需要	-3457
构建一个	-3458
stream	-3459
奶酪	-3460
这项	-3461
和经济	-3462
古代	-3463
产业	-3464
它将	-3465
ND	-3466
rect	-3467
▁comp	-3468
erature	-3469
▁sp	-3470
这包括	-3471
营销策略	-3472
ution	-3473
arch	-3474
批判	-3475
面试	-3476
iew	-3477
安全的	-3478
自定义	-3479
ather	-3480
居民	-3481
户外	-3482
教学	-3483
▁4,	-3484
真正的	-3485
进行比较	-3486
更高	-3487
疼痛	-3488
▁定义	-3489
区分	-3490
▁{'	-3491
opulation	-3492
提交	-3493
▁5,	-3494
的元素	-3495
充电	-3496
也需要	-3497
函数来	-3498
现有的	-3499
ponse	-3500
危机	-3501
启动	-3502
爱好	-3503
语言的	-3504
我们使用	-3505
女孩	-3506
英雄	-3507
▁lo	-3508
主语	-3509
较低	-3510
和水	-3511
商务	-3512
难度	-3513
添加一个	-3514
▁echo	-3515
仔细	-3516
和使用	-3517
以提高	-3518
它可以	-3519
▁that	-3520
nfunction	-3521
ign	-3522
你必须	-3523
保障	-3524
智能手机	-3525
▁value	-3526
www	-3527
看看	-3528
tivity	-3529
此类	-3530
大脑	-3531
知识和	-3532
你们	-3533
的建议	-3534
trans	-3535
继承	-3536
预计	-3537
na	-3538
不到	-3539
增加了	-3540
最高的	-3541
▁"《	-3542
是如何	-3543
.\"\	-3544
avas	-3545
inal	-3546
公里	-3547
重要性	-3548
一点	-3549
▁model	-3550
Array	-3551
战斗	-3552
password	-3553
not	-3554
然后将	-3555
fit	-3556
ular	-3557
的解决方案	-3558
avascript	-3559
ource	-3560
<!	-3561
的最大	-3562
total	-3563
演员	-3564
++)	-3565
的决策	-3566
是不	-3567
最新的	-3568
...\	-3569
扩大	-3570
的不	-3571
▁BY	-3572
conn	-3573
追踪	-3574
应用于	-3575
起源	-3576
work	-3577
▁6.	-3578
欺诈	-3579
izer	-3580
包装	-3581
很大	-3582
文化和	-3583
redict	-3584
信仰	-3585
|----	-3586
并以	-3587
经理	-3588
二进制	-3589
无论是	-3590
▁false	-3591
包容	-3592
成为了	-3593
▁number	-3594
有很多	-3595
形的	-3596
代码的	-3597
艺术家	-3598
欣赏	-3599
剧情	-3600
干预	-3601
氛围	-3602
brary	-3603
开发一个	-3604
如果您	-3605
ility	-3606
电力	-3607
▁private	-3608
',\	-3609
the	-3610
承诺	-3611
忽视	-3612
day	-3613
reate	-3614
ny	-3615
味道	-3616
很好	-3617
情境	-3618
模板	-3619
海滩	-3620
词性	-3621
非洲	-3622
成绩	-3623
人在	-3624
种群	-3625
承担	-3626
主要是	-3627
He	-3628
天的	-3629
▁sort	-3630
贷款	-3631
image	-3632
交叉	-3633
印象	-3634
并返回	-3635
很难	-3636
根本	-3637
英里	-3638
ural	-3639
参与者	-3640
Index	-3641
花费	-3642
复杂性	-3643
递归	-3644
强化	-3645
的最佳	-3646
path	-3647
可见	-3648
ration	-3649
bs	-3650
的名称	-3651
碳足迹	-3652
ning	-3653
这可能会	-3654
ty	-3655
旋转	-3656
:00	-3657
在你的	-3658
涵盖	-3659
只需要	-3660
成立	-3661
干扰	-3662
杰克	-3663
alth	-3664
虚拟现实	-3665
准备好	-3666
和优化	-3667
));\	-3668
▁INT	-3669
example	-3670
损害	-3671
!\	-3672
有价值	-3673
的感觉	-3674
Me	-3675
十年	-3676
可以提高	-3677
现有	-3678
lob	-3679
导入	-3680
孩子们	-3681
提供一些	-3682
your	-3683
保险	-3684
你将	-3685
和维护	-3686
23	-3687
考试	-3688
each	-3689
的可能性	-3690
It	-3691
子和	-3692
小于	-3693
fmt	-3694
为每个	-3695
-5	-3696
展示了	-3697
歧视	-3698
tx	-3699
展现	-3700
星球	-3701
热量	-3702
的光	-3703
研究和	-3704
用途	-3705
中央	-3706
观看	-3707
留下	-3708
ruby	-3709
让你	-3710
\").	-3711
▁SQL	-3712
即将	-3713
ndata	-3714
AS	-3715
深深	-3716
熟悉	-3717
items	-3718
start	-3719
▁list	-3720
发电	-3721
工作的	-3722
ector	-3723
的部分	-3724
复制	-3725
化石燃料	-3726
```",	-3727
意见	-3728
语气	-3729
可能在	-3730
不再	-3731
彼此	-3732
法的	-3733
知名	-3734
▁was	-3735
atter	-3736
IP	-3737
ily	-3738
如果我们	-3739
抽象	-3740
▁提高	-3741
面部	-3742
mer	-3743
数组中	-3744
表现出	-3745
bf	-3746
这部	-3747
包含了	-3748
的高	-3749
▁key	-3750
勇敢	-3751
花园	-3752
▁\",	-3753
pre	-3754
以前	-3755
形态	-3756
接口	-3757
过的	-3758
来处理	-3759
和不	-3760
通常需要	-3761
lient	-3762
']\	-3763
struct	-3764
ingredi	-3765
可以从	-3766
是一名	-3767
它在	-3768
机关	-3769
流动	-3770
填充	-3771
▁从	-3772
护理	-3773
▁]\	-3774
的经济	-3775
的长度	-3776
ie	-3777
亚马	-3778
食用	-3779
的用户	-3780
code	-3781
少年	-3782
建模	-3783
频繁	-3784
答案为	-3785
另一种	-3786
的速度	-3787
pus	-3788
swift	-3789
My	-3790
作物	-3791
》(	-3792
依据	-3793
ics	-3794
亚马逊	-3795
我们首先	-3796
ategory	-3797
:-	-3798
饮料	-3799
然后在	-3800
意外	-3801
文明	-3802
ran	-3803
创新的	-3804
CTYPE	-3805
1>	-3806
GB	-3807
文献	-3808
std	-3809
繁殖	-3810
意识到	-3811
夜晚	-3812
目录	-3813
还能	-3814
CH	-3815
消极	-3816
对不起	-3817
空气污染	-3818
DOCTYPE	-3819
35	-3820
db	-3821
会在	-3822
().	-3823
部署	-3824
▁np	-3825
3:	-3826
系数	-3827
oud	-3828
最小化	-3829
元素的	-3830
和管理	-3831
▁创建一个	-3832
^{	-3833
含量	-3834
])\	-3835
巨大	-3836
65	-3837
air	-3838
▁25	-3839
的价格	-3840
友好	-3841
▁\\\\\	-3842
year	-3843
密钥	-3844
尼亚	-3845
是对	-3846
机械	-3847
燃烧	-3848
员工的	-3849
GDP	-3850
by	-3851
补充	-3852
包括一个	-3853
约为	-3854
视角	-3855
是一位	-3856
▁while	-3857
▁30	-3858
▁so	-3859
CD	-3860
是的	-3861
▁50	-3862
和时间	-3863
平均值	-3864
人群	-3865
笔记本电脑	-3866
少的	-3867
慢性	-3868
健康和	-3869
创造一个	-3870
数量的	-3871
长时间	-3872
','	-3873
飞机	-3874
投票	-3875
指数	-3876
有害	-3877
mpact	-3878
各地	-3879
故障	-3880
种类	-3881
交互式	-3882
销售额	-3883
克斯	-3884
典型	-3885
过于	-3886
说话	-3887
rix	-3888
和发展	-3889
▁cout	-3890
储存	-3891
孤独	-3892
初始化	-3893
的同时	-3894
随时	-3895
效率和	-3896
这可能包括	-3897
巧克	-3898
监管	-3899
以来	-3900
总体	-3901
有时	-3902
的活动	-3903
纳入	-3904
氏度	-3905
美洲	-3906
生活在	-3907
元音	-3908
需要的	-3909
阐述	-3910
ticle	-3911
dition	-3912
gram	-3913
和机器学习	-3914
的力量	-3915
▁len	-3916
不得	-3917
优惠	-3918
抑郁	-3919
矛盾	-3920
这使得	-3921
法院	-3922
解答	-3923
过多	-3924
▁sq	-3925
find	-3926
▁row	-3927
可能影响	-3928
关节	-3929
哈希	-3930
中提取	-3931
ative	-3932
他们对	-3933
合并	-3934
▁)\	-3935
的设计	-3936
但不限于	-3937
定律	-3938
积分	-3939
Res	-3940
can	-3941
处理器	-3942
的安全	-3943
中最	-3944
于是	-3945
Map	-3946
▁df	-3947
▁根据	-3948
更深入	-3949
中实现	-3950
的表	-3951
技能和	-3952
天然	-3953
年人	-3954
节约	-3955
api	-3956
ech	-3957
常用的	-3958
的函数	-3959
的工具	-3960
相互作用	-3961
节能	-3962
我们在	-3963
nW	-3964
给你	-3965
nFROM	-3966
几种	-3967
For	-3968
以确定	-3969
模式和	-3970
军事	-3971
无需	-3972
▁	-3973
n	-3974
,	-3975
\	-3976
的	-3977
t	-3978
"	-3979
e	-3980
。	-3981
i	-3982
o	-3983
r	-3984
a	-3985
s	-3986
u	-3987
:	-3988
c	-3989
和	-3990
l	-3991
一	-3992
p	-3993
.	-3994
个	-3995
是	-3996
d	-3997
以	-3998
可	-3999
在	-4000
用	-4001
m	-4002
-	-4003
)	-4004
(	-4005
能	-4006
这	-4007
、	-4008
有	-4009
数	-4010
1	-4011
`	-4012
h	-4013
中	-4014
0	-4015
为	-4016
g	-4017
{	-4018
}	-4019
要	-4020
们	-4021
2	-4022
人	-4023
如	-4024
不	-4025
了	-4026
y	-4027
f	-4028
=	-4029
我	-4030
使	-4031
对	-4032
行	-4033
来	-4034
生	-4035
据	-4036
于	-4037
分	-4038
你	-4039
b	-4040
'	-4041
_	-4042
时	-4043
性	-4044
S	-4045
或	-4046
成	-4047
提	-4048
他	-4049
理	-4050
方	-4051
到	-4052
/	-4053
法	-4054
并	-4055
定	-4056
下	-4057
大	-4058
A	-4059
|	-4060
学	-4061
会	-4062
动	-4063
v	-4064
<	-4065
需	-4066
过	-4067
3	-4068
出	-4069
种	-4070
>	-4071
;	-4072
化	-4073
作	-4074
进	-4075
其	-4076
5	-4077
w	-4078
地	-4079
解	-4080
些	-4081
物	-4082
子	-4083
表	-4084
体	-4085
上	-4086
C	-4087
应	-4088
P	-4089
代	-4090
T	-4091
将	-4092
?	-4093
度	-4094
通	-4095
更	-4096
实	-4097
面	-4098
现	-4099
计	-4100
x	-4101
程	-4102
后	-4103
式	-4104
发	-4105
L	-4106
量	-4107
多	-4108
果	-4109
*	-4110
文	-4111
力	-4112
关	-4113
4	-4114
自	-4115
最	-4116
而	-4117
同	-4118
供	-4119
等	-4120
题	-4121
它	-4122
I	-4123
工	-4124
然	-4125
例	-4126
机	-4127
包	-4128
间	-4129
确	-4130
语	-4131
因	-4132
所	-4133
本	-4134
码	-4135
者	-4136
建	-4137
高	-4138
E	-4139
加	-4140
保	-4141
类	-4142
重	-4143
M	-4144
何	-4145
设	-4146
特	-4147
算	-4148
示	-4149
此	-4150
与	-4151
入	-4152
k	-4153
“	-4154
问	-4155
系	-4156
”	-4157
情	-4158
字	-4159
影	-4160
D	-4161
R	-4162
新	-4163
常	-4164
[	-4165
]	-4166
经	-4167
国	-4168
合	-4169
型	-4170
主	-4171
户	-4172
创	-4173
相	-4174
N	-4175
公	-4176
意	-4177
及	-4178
之	-4179
也	-4180
件	-4181
家	-4182
信	-4183
变	-4184
模	-4185
制	-4186
产	-4187
结	-4188
具	-4189
每	-4190
业	-4191
全	-4192
O	-4193
您	-4194
品	-4195
词	-4196
务	-4197
得	-4198
6	-4199
格	-4200
外	-4201
决	-4202
开	-4203
标	-4204
响	-4205
处	-4206
B	-4207
都	-4208
单	-4209
年	-4210
比	-4211
+	-4212
统	-4213
任	-4214
技	-4215
列	-4216
好	-4217
点	-4218
感	-4219
电	-4220
选	-4221
小	-4222
9	-4223
#	-4224
术	-4225
但	-4226
息	-4227
从	-4228
8	-4229
色	-4230
析	-4231
括	-4232
器	-4233
名	-4234
就	-4235
活	-4236
平	-4237
该	-4238
正	-4239
水	-4240
内	-4241
习	-4242
部	-4243
7	-4244
无	-4245
被	-4246
目	-4247
别	-4248
事	-4249
持	-4250
助	-4251
序	-4252
复	-4253
当	-4254
$	-4255
素	-4256
效	-4257
利	-4258
组	-4259
接	-4260
长	-4261
交	-4262
取	-4263
期	-4264
心	-4265
形	-4266
明	-4267
说	-4268
前	-4269
基	-4270
测	-4271
还	-4272
气	-4273
位	-4274
句	-4275
改	-4276
H	-4277
请	-4278
社	-4279
环	-4280
着	-4281
天	-4282
预	-4283
步	-4284
样	-4285
网	-4286
求	-4287
质	-4288
值	-4289
言	-4290
么	-4291
少	-4292
述	-4293
根	-4294
存	-4295
两	-4296
查	-4297
给	-4298
F	-4299
源	-4300
美	-4301
义	-4302
考	-4303
导	-4304
食	-4305
G	-4306
展	-4307
输	-4308
识	-4309
图	-4310
J	-4311
策	-4312
写	-4313
知	-4314
回	-4315
项	-4316
里	-4317
运	-4318
起	-4319
增	-4320
强	-4321
论	-4322
容	-4323
元	-4324
注	-4325
由	-4326
引	-4327
只	-4328
想	-4329
客	-4330
三	-4331
受	-4332
境	-4333
适	-4334
整	-4335
调	-4336
区	-4337
帮	-4338
集	-4339
率	-4340
总	-4341
j	-4342
非	-4343
先	-4344
安	-4345
否	-4346
含	-4347
员	-4348
构	-4349
收	-4350
找	-4351
功	-4352
库	-4353
球	-4354
线	-4355
视	-4356
择	-4357
日	-4358
段	-4359
资	-4360
次	-4361
第	-4362
反	-4363
优	-4364
那	-4365
道	-4366
服	-4367
杂	-4368
符	-4369
各	-4370
准	-4371
编	-4372
战	-4373
原	-4374
验	-4375
完	-4376
管	-4377
看	-4378
传	-4379
深	-4380
案	-4381
很	-4382
手	-4383
则	-4384
向	-4385
排	-4386
没	-4387
细	-4388
场	-4389
虑	-4390
观	-4391
q	-4392
流	-4393
且	-4394
况	-4395
指	-4396
音	-4397
简	-4398
减	-4399
节	-4400
规	-4401
达	-4402
必	-4403
风	-4404
科	-4405
身	-4406
推	-4407
首	-4408
研	-4409
态	-4410
让	-4411
市	-4412
函	-4413
备	-4414
W	-4415
致	-4416
够	-4417
去	-4418
始	-4419
直	-4420
价	-4421
健	-4422
世	-4423
角	-4424
己	-4425
政	-4426
立	-4427
造	-4428
放	-4429
料	-4430
空	-4431
转	-4432
试	-4433
教	-4434
象	-4435
参	-4436
至	-4437
究	-4438
界	-4439
%	-4440
置	-4441
较	-4442
记	-4443
什	-4444
获	-4445
历	-4446
描	-4447
司	-4448
护	-4449
车	-4450
条	-4451
支	-4452
病	-4453
索	-4454
密	-4455
她	-4456
V	-4457
U	-4458
像	-4459
议	-4460
口	-4461
做	-4462
清	-4463
满	-4464
权	-4465
评	-4466
已	-4467
海	-4468
z	-4469
智	-4470
显	-4471
》	-4472
《	-4473
二	-4474
命	-4475
检	-4476
配	-4477
带	-4478
!	-4479
见	-4480
吗	-4481
速	-4482
X	-4483
未	-4484
维	-4485
领	-4486
故	-4487
随	-4488
低	-4489
消	-4490
续	-4491
积	-4492
民	-4493
许	-4494
际	-4495
神	-4496
除	-4497
认	-4498
光	-4499
极	-4500
互	-4501
片	-4502
释	-4503
施	-4504
足	-4505
划	-4506
打	-4507
金	-4508
状	-4509
康	-4510
话	-4511
换	-4512
略	-4513
假	-4514
景	-4515
证	-4516
独	-4517
温	-4518
斯	-4519
易	-4520
专	-4521
克	-4522
游	-4523
限	-4524
练	-4525
费	-4526
乐	-4527
称	-4528
治	-4529
域	-4530
商	-4531
医	-4532
联	-4533
营	-4534
共	-4535
即	-4536
济	-4537
约	-4538
失	-4539
难	-4540
疗	-4541
级	-4542
断	-4543
训	-4544
史	-4545
候	-4546
险	-4547
月	-4548
路	-4549
须	-4550
征	-4551
·	-4552
育	-4553
挑	-4554
哪	-4555
销	-4556
思	-4557
热	-4558
母	-4559
误	-4560
快	-4561
号	-4562
广	-4563
仅	-4564
头	-4565
队	-4566
吸	-4567
太	-4568
律	-4569
键	-4570
星	-4571
精	-4572
布	-4573
读	-4574
答	-4575
Q	-4576
修	-4577
错	-4578
觉	-4579
再	-4580
真	-4581
概	-4582
络	-4583
英	-4584
降	-4585
骤	-4586
书	-4587
压	-4588
西	-4589
味	-4590
站	-4591
告	-4592
潜	-4593
望	-4594
几	-4595
装	-4596
尔	-4597
按	-4598
某	-4599
团	-4600
演	-4601
购	-4602
照	-4603
份	-4604
详	-4605
城	-4606
令	-4607
围	-4608
充	-4609
轻	-4610
白	-4611
采	-4612
声	-4613
控	-4614
储	-4615
便	-4616
均	-4617
差	-4618
询	-4619
材	-4620
升	-4621
防	-4622
尽	-4623
短	-4624
花	-4625
另	-4626
爱	-4627
页	-4628
报	-4629
连	-4630
戏	-4631
离	-4632
德	-4633
添	-4634
Y	-4635
异	-4636
拉	-4637
越	-4638
投	-4639
印	-4640
众	-4641
养	-4642
层	-4643
势	-4644
菜	-4645
门	-4646
频	-4647
操	-4648
超	-4649
属	-4650
马	-4651
估	-4652
终	-4653
林	-4654
移	-4655
台	-4656
—	-4657
五	-4658
四	-4659
欢	-4660
周	-4661
探	-4662
远	-4663
友	-4664
涉	-4665
职	-4666
软	-4667
K	-4668
免	-4669
师	-4670
边	-4671
念	-4672
阳	-4673
善	-4674
背	-4675
享	-4676
女	-4677
拟	-4678
执	-4679
米	-4680
织	-4681
亚	-4682
负	-4683
旅	-4684
喜	-4685
止	-4686
才	-4687
植	-4688
买	-4689
范	-4690
树	-4691
希	-4692
缺	-4693
录	-4694
微	-4695
激	-4696
切	-4697
章	-4698
&	-4699
把	-4700
企	-4701
山	-4702
富	-4703
群	-4704
近	-4705
干	-4706
益	-4707
十	-4708
颜	-4709
媒	-4710
餐	-4711
似	-4712
击	-4713
依	-4714
访	-4715
突	-4716
住	-4717
火	-4718
寻	-4719
串	-4720
艺	-4721
争	-4722
隐	-4723
害	-4724
张	-4725
士	-4726
责	-4727
偏	-4728
兴	-4729
介	-4730
监	-4731
售	-4732
额	-4733
辑	-4734
款	-4735
落	-4736
画	-4737
讨	-4738
老	-4739
励	-4740
南	-4741
剧	-4742
孩	-4743
蛋	-4744
返	-4745
困	-4746
油	-4747
染	-4748
趣	-4749
土	-4750
歌	-4751
础	-4752
块	-4753
替	-4754
房	-4755
往	-4756
饮	-4757
归	-4758
黑	-4759
洋	-4760
症	-4761
严	-4762
融	-4763
红	-4764
农	-4765
石	-4766
患	-4767
^	-4768
衡	-4769
卡	-4770
著	-4771
脑	-4772
循	-4773
初	-4774
链	-4775
碳	-4776
万	-4777
协	-4778
避	-4779
血	-4780
诗	-4781
拥	-4782
罪	-4783
破	-4784
奇	-4785
又	-4786
古	-4787
举	-4788
判	-4789
端	-4790
儿	-4791
罗	-4792
疾	-4793
波	-4794
财	-4795
谜	-4796
玩	-4797
牌	-4798
汽	-4799
府	-4800
东	-4801
板	-4802
香	-4803
跟	-4804
般	-4805
王	-4806
障	-4807
典	-4808
虽	-4809
搜	-4810
促	-4811
森	-4812
室	-4813
听	-4814
邮	-4815
静	-4816
军	-4817
肉	-4818
私	-4819
待	-4820
松	-4821
留	-4822
走	-4823
良	-4824
庭	-4825
阶	-4826
巧	-4827
虚	-4828
局	-4829
普	-4830
临	-4831
架	-4832
早	-4833
灵	-4834
犯	-4835
药	-4836
馈	-4837
混	-4838
版	-4839
皮	-4840
丽	-4841
荐	-4842
底	-4843
糖	-4844
眼	-4845
察	-4846
志	-4847
伦	-4848
核	-4849
园	-4850
泛	-4851
措	-4852
伤	-4853
北	-4854
飞	-4855
黄	-4856
距	-4857
射	-4858
死	-4859
承	-4860
钟	-4861
朋	-4862
翻	-4863
威	-4864
签	-4865
氧	-4866
继	-4867
载	-4868
译	-4869
讲	-4870
草	-4871
龄	-4872
店	-4873
航	-4874
损	-4875
逻	-4876
扩	-4877
尝	-4878
危	-4879
追	-4880
百	-4881
洲	-4882
顺	-4883
佳	-4884
冲	-4885
踪	-4886
送	-4887
华	-4888
洁	-4889
纪	-4890
云	-4891
乘	-4892
院	-4893
叶	-4894
曲	-4895
族	-4896
塑	-4897
脚	-4898
州	-4899
阅	-4900
抗	-4901
课	-4902
紧	-4903
绿	-4904
尼	-4905
福	-4906
沟	-4907
鱼	-4908
篇	-4909
巴	-4910
季	-4911
播	-4912
亲	-4913
透	-4914
货	-4915
触	-4916
绪	-4917
坚	-4918
鼓	-4919
冷	-4920
猫	-4921
污	-4922
硬	-4923
丰	-4924
遇	-4925
痛	-4926
束	-4927
针	-4928
夜	-4929
刻	-4930
盖	-4931
仍	-4932
木	-4933
纳	-4934
闻	-4935
毒	-4936
票	-4937
藏	-4938
官	-4939
甚	-4940
摄	-4941
酸	-4942
股	-4943
付	-4944
稳	-4945
慢	-4946
阿	-4947
半	-4948
晚	-4949
秘	-4950
雨	-4951
赛	-4952
野	-4953
绝	-4954
奶	-4955
赖	-4956
径	-4957
粉	-4958
蓝	-4959
暖	-4960
居	-4961
豆	-4962
趋	-4963
框	-4964
甲	-4965
敏	-4966
双	-4967
献	-4968
践	-4969
努	-4970
培	-4971
校	-4972
睡	-4973
革	-4974
折	-4975
散	-4976
鲜	-4977
吃	-4978
档	-4979
诉	-4980
允	-4981
遗	-4982
燃	-4983
饰	-4984
熟	-4985
绍	-4986
沙	-4987
却	-4988
胞	-4989
担	-4990
愿	-4991
繁	-4992
呼	-4993
尊	-4994
冰	-4995
省	-4996
逐	-4997
竞	-4998
宝	-4999
彩	-5000
亮	-5001
靠	-5002
鸟	-5003
盘	-5004
谢	-5005
遵	-5006
映	-5007
诊	-5008
余	-5009
奖	-5010
穿	-5011
缓	-5012
欧	-5013
碍	-5014
博	-5015
守	-5016
男	-5017
派	-5018
顾	-5019
牙	-5020
晰	-5021
停	-5022
河	-5023
巨	-5024
审	-5025
绘	-5026
胜	-5027
牛	-5028
订	-5029
鸡	-5030
坏	-5031
乎	-5032
露	-5033
哈	-5034
烤	-5035
捕	-5036
插	-5037
酒	-5038
恶	-5039
急	-5040
攻	-5041
苹	-5042
办	-5043
疫	-5044
陈	-5045
暴	-5046
谱	-5047
呈	-5048
暗	-5049
冒	-5050
缩	-5051
液	-5052
千	-5053
浪	-5054
叫	-5055
杯	-5056
固	-5057
汇	-5058
耗	-5059
烈	-5060
班	-5061
休	-5062
洗	-5063
补	-5064
兰	-5065
今	-5066
笑	-5067
笔	-5068
卫	-5069
零	-5070
疑	-5071
递	-5072
劳	-5073
惊	-5074
税	-5075
聚	-5076
惯	-5077
恐	-5078
钱	-5079
村	-5080
驶	-5081
迎	-5082
批	-5083
岁	-5084
舞	-5085
银	-5086
遍	-5087
尾	-5088
刺	-5089
六	-5090
既	-5091
座	-5092
虫	-5093
青	-5094
祝	-5095
匹	-5096
狗	-5097
忆	-5098
筑	-5099
废	-5100
龙	-5101
夫	-5102
池	-5103
坐	-5104
炎	-5105
旦	-5106
顶	-5107
退	-5108
朝	-5109
眠	-5110
驾	-5111
喻	-5112
殊	-5113
杀	-5114
沉	-5115
梦	-5116
币	-5117
父	-5118
封	-5119
闭	-5120
败	-5121
填	-5122
灯	-5123
咖	-5124
启	-5125
刑	-5126
诚	-5127
洞	-5128
警	-5129
抱	-5130
毛	-5131
伴	-5132
久	-5133
啡	-5134
箱	-5135
勇	-5136
茶	-5137
占	-5138
尺	-5139
轮	-5140
厅	-5141
阻	-5142
炼	-5143
驱	-5144
卷	-5145
综	-5146
蔬	-5147
途	-5148
殖	-5149
斗	-5150
肥	-5151
湿	-5152
贡	-5153
览	-5154
宇	-5155
乳	-5156
尤	-5157
永	-5158
跳	-5159
迹	-5160
唯	-5161
怎	-5162
籍	-5163
纸	-5164
肌	-5165
Z	-5166
聊	-5167
麦	-5168
矩	-5169
醒	-5170
@	-5171
魔	-5172
左	-5173
侵	-5174
诺	-5175
弹	-5176
夏	-5177
右	-5178
剂	-5179
甜	-5180
渐	-5181
附	-5182
姓	-5183
烹	-5184
拼	-5185
圆	-5186
奥	-5187
焦	-5188
衣	-5189
滤	-5190
阵	-5191
救	-5192
舒	-5193
辆	-5194
隔	-5195
抽	-5196
童	-5197
倒	-5198
幸	-5199
礼	-5200
延	-5201
艾	-5202
帝	-5203
铁	-5204
倾	-5205
套	-5206
旋	-5207
菌	-5208
胁	-5209
迷	-5210
苏	-5211
贵	-5212
骨	-5213
漫	-5214
汉	-5215
杰	-5216
弱	-5217
谈	-5218
副	-5219
亡	-5220
饪	-5221
丝	-5222
锻	-5223
宽	-5224
托	-5225
幕	-5226
脱	-5227
灾	-5228
滑	-5229
挥	-5230
寸	-5231
屏	-5232
登	-5233
翰	-5234
泡	-5235
曾	-5236
跑	-5237
删	-5238
奏	-5239
予	-5240
肤	-5241
拿	-5242
塔	-5243
武	-5244
侧	-5245
偶	-5246
姆	-5247
授	-5248
氏	-5249
馆	-5250
歉	-5251
账	-5252
借	-5253
揭	-5254
乱	-5255
耐	-5256
顿	-5257
船	-5258
萨	-5259
址	-5260
盐	-5261
雪	-5262
宣	-5263
督	-5264
岛	-5265
摘	-5266
尿	-5267
尚	-5268
缘	-5269
粒	-5270
掌	-5271
贝	-5272
阴	-5273
扰	-5274
乙	-5275
弃	-5276
苦	-5277
°	-5278
幻	-5279
汤	-5280
哥	-5281
镜	-5282
胡	-5283
乏	-5284
镇	-5285
宙	-5286
委	-5287
脂	-5288
闪	-5289
脏	-5290
宪	-5291
恢	-5292
旧	-5293
倍	-5294
田	-5295
雷	-5296
宗	-5297
李	-5298
覆	-5299
脉	-5300
壤	-5301
末	-5302
烧	-5303
塞	-5304
浏	-5305
陆	-5306
兵	-5307
旨	-5308
默	-5309
辅	-5310
雄	-5311
掉	-5312
垃	-5313
握	-5314
圾	-5315
婚	-5316
谷	-5317
呢	-5318
午	-5319
洛	-5320
润	-5321
耳	-5322
碎	-5323
擎	-5324
奋	-5325
忠	-5326
绩	-5327
匙	-5328
诸	-5329
忽	-5330
春	-5331
丁	-5332
亿	-5333
抵	-5334
宁	-5335
郁	-5336
幅	-5337
伯	-5338
京	-5339
刚	-5340
伊	-5341
栖	-5342
贫	-5343
忘	-5344
灭	-5345
净	-5346
骑	-5347
孤	-5348
酱	-5349
怀	-5350
迫	-5351
欺	-5352
剩	-5353
佛	-5354
八	-5355
饼	-5356
膜	-5357
纯	-5358
抑	-5359
吉	-5360
玛	-5361
猎	-5362
屋	-5363
莎	-5364
秒	-5365
莉	-5366
床	-5367
糕	-5368
残	-5369
若	-5370
罚	-5371
江	-5372
赋	-5373
宠	-5374
恒	-5375
党	-5376
惧	-5377
椒	-5378
袋	-5379
跨	-5380
截	-5381
纤	-5382
妙	-5383
矿	-5384
肿	-5385
钥	-5386
谁	-5387
峰	-5388
赏	-5389
娱	-5390
磁	-5391
拍	-5392
雅	-5393
坦	-5394
煮	-5395
皇	-5396
陷	-5397
七	-5398
冬	-5399
撰	-5400
裂	-5401
惠	-5402
沿	-5403
禁	-5404
秀	-5405
厚	-5406
寿	-5407
扣	-5408
悲	-5409
韵	-5410
橙	-5411
累	-5412
卖	-5413
爆	-5414
逊	-5415
朗	-5416
申	-5417
柔	-5418
浓	-5419
仿	-5420
迅	-5421
哲	-5422
圣	-5423
唱	-5424
肯	-5425
敢	-5426
违	-5427
埃	-5428
纽	-5429
鼠	-5430
烟	-5431
割	-5432
冠	-5433
蜂	-5434
壮	-5435
漏	-5436
怕	-5437
棋	-5438
厘	-5439
湖	-5440
债	-5441
颗	-5442
震	-5443
迁	-5444
刷	-5445
堆	-5446
墙	-5447
鲁	-5448
叉	-5449
宫	-5450
饭	-5451
赞	-5452
摩	-5453
珠	-5454
蜜	-5455
爬	-5456
汁	-5457
噪	-5458
秋	-5459
荣	-5460
署	-5461
迭	-5462
吧	-5463
戴	-5464
誉	-5465
恩	-5466
桌	-5467
徒	-5468
浸	-5469
窗	-5470
绕	-5471
跃	-5472
兼	-5473
涵	-5474
纠	-5475
滩	-5476
逃	-5477
瓶	-5478
锅	-5479
谓	-5480
招	-5481
葱	-5482
番	-5483
迪	-5484
丧	-5485
彻	-5486
仔	-5487
斜	-5488
仪	-5489
拌	-5490
毫	-5491
锁	-5492
堂	-5493
肪	-5494
冥	-5495
浮	-5496
苗	-5497
楚	-5498
麻	-5499
搭	-5500
氛	-5501
睛	-5502
轴	-5503
寒	-5504
宜	-5505
勒	-5506
歧	-5507
潮	-5508
鉴	-5509
瓣	-5510
玉	-5511
捉	-5512
唐	-5513
匀	-5514
敬	-5515
庄	-5516
毕	-5517
诈	-5518
册	-5519
盟	-5520
贷	-5521
彼	-5522
弗	-5523
盛	-5524
叙	-5525
伐	-5526
欣	-5527
灰	-5528
酪	-5529
租	-5530
厂	-5531
尖	-5532
仰	-5533
茄	-5534
捷	-5535
莱	-5536
疲	-5537
欲	-5538
淡	-5539
搅	-5540
淋	-5541
壁	-5542
荷	-5543
堡	-5544
腹	-5545
悬	-5546
肺	-5547
贸	-5548
癌	-5549
肠	-5550
街	-5551
篮	-5552
肴	-5553
斑	-5554
蒙	-5555
敌	-5556
岩	-5557
遭	-5558
厨	-5559
瑞	-5560
怪	-5561
钮	-5562
宾	-5563
桥	-5564
瓦	-5565
刀	-5566
拔	-5567
咨	-5568
鞋	-5569
疼	-5570
粗	-5571
胀	-5572
曼	-5573
乡	-5574
哺	-5575
萝	-5576
胸	-5577
珍	-5578
央	-5579
邦	-5580
猪	-5581
梯	-5582
熊	-5583
胎	-5584
贴	-5585
墨	-5586
悉	-5587
暂	-5588
薪	-5589
阐	-5590
瓜	-5591
抓	-5592
葡	-5593
邻	-5594
纹	-5595
迟	-5596
庆	-5597
脸	-5598
蕉	-5599
楼	-5600
慧	-5601
弦	-5602
胃	-5603
盗	-5604
萄	-5605
弟	-5606
扫	-5607
嵌	-5608
稀	-5609
紫	-5610
朵	-5611
腿	-5612
携	-5613
伙	-5614
泰	-5615
黎	-5616
摇	-5617
豪	-5618
涂	-5619
羊	-5620
愉	-5621
押	-5622
鼻	-5623
腺	-5624
腐	-5625
伟	-5626
莫	-5627
九	-5628
辞	-5629
筛	-5630
挖	-5631
韧	-5632
乔	-5633
赢	-5634
盾	-5635
轨	-5636
逆	-5637
齐	-5638
剪	-5639
泄	-5640
胆	-5641
衰	-5642
乌	-5643
刘	-5644
妇	-5645
圈	-5646
碗	-5647
援	-5648
俄	-5649
壳	-5650
偿	-5651
伸	-5652
伽	-5653
忙	-5654
械	-5655
祖	-5656
忧	-5657
畅	-5658
漠	-5659
颈	-5660
猜	-5661
聘	-5662
喷	-5663
娜	-5664
辣	-5665
喝	-5666
撒	-5667
渔	-5668
枪	-5669
盒	-5670
蒸	-5671
柱	-5672
鸣	-5673
振	-5674
幼	-5675
棒	-5676
倡	-5677
薄	-5678
凡	-5679
丢	-5680
貌	-5681
凝	-5682
贯	-5683
脆	-5684
叹	-5685
勤	-5686
卜	-5687
蒂	-5688
菲	-5689
雇	-5690
叠	-5691
莓	-5692
昂	-5693
～	-5694
丙	-5695
矛	-5696
掘	-5697
毁	-5698
恰	-5699
悦	-5700
扬	-5701
扮	-5702
炸	-5703
糊	-5704
摆	-5705
~	-5706
泳	-5707
契	-5708
俗	-5709
磨	-5710
君	-5711
枝	-5712
蒜	-5713
芒	-5714
稍	-5715
舍	-5716
闲	-5717
钢	-5718
狂	-5719
幽	-5720
伪	-5721
披	-5722
岸	-5723
砍	-5724
茨	-5725
裁	-5726
晶	-5727
辨	-5728
肾	-5729
宏	-5730
腊	-5731
凯	-5732
「	-5733
酶	-5734
」	-5735
缝	-5736
夺	-5737
宋	-5738
召	-5739
溶	-5740
罕	-5741
瘤	-5742
兽	-5743
丹	-5744
渠	-5745
川	-5746
渴	-5747
孔	-5748
兔	-5749
瑜	-5750
赠	-5751
桃	-5752
妻	-5753
纵	-5754
胶	-5755
昆	-5756
扎	-5757
帖	-5758
拒	-5759
妈	-5760
尘	-5761
怒	-5762
凉	-5763
狮	-5764
耀	-5765
垂	-5766
冻	-5767
役	-5768
谐	-5769
铺	-5770
旁	-5771
炒	-5772
邀	-5773
仁	-5774
罐	-5775
席	-5776
劣	-5777
犹	-5778
疏	-5779
’	-5780
烘	-5781
蓄	-5782
谨	-5783
蹈	-5784
肝	-5785
羽	-5786
】	-5787
撞	-5788
辐	-5789
辩	-5790
【	-5791
齿	-5792
榄	-5793
橄	-5794
竟	-5795
荒	-5796
晨	-5797
卓	-5798
孙	-5799
姐	-5800
怖	-5801
虎	-5802
玻	-5803
伏	-5804
御	-5805
谋	-5806
恋	-5807
袭	-5808
箭	-5809
谊	-5810
横	-5811
港	-5812
魂	-5813
氢	-5814
艰	-5815
饱	-5816
柠	-5817
é	-5818
洪	-5819
膨	-5820
讯	-5821
惑	-5822
梅	-5823
腔	-5824
讽	-5825
窃	-5826
琴	-5827
遥	-5828
摸	-5829
渡	-5830
盈	-5831
斐	-5832
唤	-5833
浅	-5834
县	-5835
肢	-5836
辛	-5837
霍	-5838
阔	-5839
梗	-5840
椅	-5841
穷	-5842
仙	-5843
忍	-5844
灌	-5845
偷	-5846
雕	-5847
滚	-5848
煎	-5849
浆	-5850
妹	-5851
帕	-5852
檬	-5853
凭	-5854
滴	-5855
宿	-5856
弯	-5857
荡	-5858
聪	-5859
懂	-5860
帽	-5861
勃	-5862
夹	-5863
挂	-5864
纲	-5865
嘴	-5866
鹰	-5867
雾	-5868
芝	-5869
狼	-5870
剑	-5871
栏	-5872
敦	-5873
削	-5874
腰	-5875
泥	-5876
甘	-5877
犬	-5878
吹	-5879
踏	-5880
慎	-5881
捐	-5882
擦	-5883
旱	-5884
璃	-5885
滥	-5886
饲	-5887
慈	-5888
拖	-5889
脊	-5890
卵	-5891
朱	-5892
伍	-5893
濒	-5894
艳	-5895
骗	-5896
菠	-5897
梁	-5898
姿	-5899
亦	-5900
泽	-5901
肩	-5902
吐	-5903
稿	-5904
穴	-5905
迈	-5906
奴	-5907
炉	-5908
烦	-5909
兄	-5910
梨	-5911
抛	-5912
畏	-5913
寄	-5914
拆	-5915
泌	-5916
燥	-5917
愈	-5918
沸	-5919
膀	-5920
碰	-5921
隆	-5922
磅	-5923
螺	-5924
拜	-5925
澳	-5926
撑	-5927
佩	-5928
鬼	-5929
罩	-5930
猴	-5931
蝶	-5932
盲	-5933
愤	-5934
粮	-5935
卧	-5936
珊	-5937
芬	-5938
粘	-5939
邪	-5940
坡	-5941
赫	-5942
龟	-5943
π	-5944
寓	-5945
猩	-5946
剥	-5947
韩	-5948
锐	-5949
崩	-5950
漂	-5951
碑	-5952
翅	-5953
凌	-5954
臣	-5955
沃	-5956
鹿	-5957
券	-5958
溃	-5959
盆	-5960
堵	-5961
巫	-5962
氮	-5963
竹	-5964
蛇	-5965
臂	-5966
晋	-5967
诱	-5968
秦	-5969
鳄	-5970
瞬	-5971
斤	-5972
钙	-5973
赔	-5974
挫	-5975
卢	-5976
挤	-5977
杆	-5978
岗	-5979
爵	-5980
钻	-5981
陪	-5982
鲸	-5983
酷	-5984
俳	-5985
浴	-5986
豹	-5987
侦	-5988
涨	-5989
‘	-5990
棉	-5991
喂	-5992
虹	-5993
醇	-5994
霜	-5995
纷	-5996
嫌	-5997
筹	-5998
弥	-5999
芯	-6000
×	-6001
狐	-6002
丘	-6003
袖	-6004
翼	-6005
吨	-6006
履	-6007
杉	-6008
燕	-6009
囊	-6010
抢	-6011
牧	-6012
鹅	-6013
氨	-6014
涡	-6015
仇	-6016
诞	-6017
麸	-6018
赵	-6019
淇	-6020
猛	-6021
陶	-6022
汗	-6023
夸	-6024
杨	-6025
闹	-6026
曰	-6027
姻	-6028
棵	-6029
泊	-6030
窟	-6031
丛	-6032
淆	-6033
棕	-6034
兹	-6035
奔	-6036
帐	-6037
涯	-6038
搞	-6039
拯	-6040
侣	-6041
旗	-6042
颖	-6043
爽	-6044
溯	-6045
酵	-6046
挡	-6047
廷	-6048
晒	-6049
婴	-6050
蛛	-6051
拓	-6052
烁	-6053
捞	-6054
垫	-6055
悠	-6056
泉	-6057
杜	-6058
薯	-6059
赤	-6060
瑰	-6061
腾	-6062
擅	-6063
逗	-6064
磷	-6065
惩	-6066
•	-6067
孕	-6068
扭	-6069
椎	-6070
饿	-6071
蚀	-6072
赶	-6073
瑚	-6074
泪	-6075
贾	-6076
扇	-6077
瑟	-6078
朴	-6079
烂	-6080
溢	-6081
抹	-6082
乃	-6083
裹	-6084
橡	-6085
叛	-6086
啊	-6087
庞	-6088
谚	-6089
湾	-6090
缀	-6091
撤	-6092
攀	-6093
井	-6094
虾	-6095
宅	-6096
逼	-6097
穆	-6098
寂	-6099
津	-6100
稻	-6101
奉	-6102
炮	-6103
玫	-6104
翔	-6105
赚	-6106
耍	-6107
黏	-6108
杏	-6109
胖	-6110
隶	-6111
妮	-6112
惜	-6113
蝴	-6114
陌	-6115
菇	-6116
桶	-6117
徙	-6118
毅	-6119
慰	-6120
牲	-6121
衬	-6122
芽	-6123
魅	-6124
搬	-6125
饥	-6126
仑	-6127
焙	-6128
坛	-6129
硫	-6130
挣	-6131
椰	-6132
豚	-6133
祉	-6134
柏	-6135
曹	-6136
妥	-6137
桑	-6138
巾	-6139
渗	-6140
峡	-6141
枚	-6142
舰	-6143
奈	-6144
秩	-6145
胰	-6146
廉	-6147
滋	-6148
辉	-6149
寺	-6150
埋	-6151
琳	-6152
逝	-6153
弊	-6154
仓	-6155
碱	-6156
钠	-6157
缠	-6158
锋	-6159
孟	-6160
株	-6161
笼	-6162
痕	-6163
戒	-6164
皆	-6165
砂	-6166
栽	-6167
贪	-6168
漆	-6169
勺	-6170
浇	-6171
恨	-6172
煤	-6173
讼	-6174
抚	-6175
厌	-6176
瓷	-6177
矶	-6178
劫	-6179
阈	-6180
涌	-6181
疹	-6182
屈	-6183
裔	-6184
狸	-6185
傲	-6186
狭	-6187
狱	-6188
崛	-6189
陵	-6190
晴	-6191
俱	-6192
催	-6193
勾	-6194
詹	-6195
樱	-6196
牵	-6197
醉	-6198
吞	-6199
纬	-6200
馅	-6201
届	-6202
哦	-6203
蜘	-6204
吴	-6205
糟	-6206
挺	-6207
崇	-6208
魏	-6209
巢	-6210
牺	-6211
礁	-6212
裙	-6213
裤	-6214
栈	-6215
飘	-6216
咒	-6217
钓	-6218
焰	-6219
耕	-6220
郎	-6221
奢	-6222
冗	-6223
沮	-6224
籽	-6225
柜	-6226
凶	-6227
霸	-6228
咳	-6229
韦	-6230
爸	-6231
跌	-6232
毯	-6233
筋	-6234
桂	-6235
侯	-6236
绳	-6237
衫	-6238
咽	-6239
欠	-6240
姜	-6241
醋	-6242
颠	-6243
匿	-6244
洒	-6245
蕾	-6246
昏	-6247
讶	-6248
刊	-6249
遮	-6250
骼	-6251
茂	-6252
莲	-6253
豫	-6254
硅	-6255
扁	-6256
斥	-6257
铜	-6258
伞	-6259
咪	-6260
吁	-6261
狩	-6262
鸭	-6263
瘦	-6264
窄	-6265
疯	-6266
掷	-6267
堪	-6268
爷	-6269
晓	-6270
雌	-6271
ó	-6272
屿	-6273
竭	-6274
肖	-6275
弄	-6276
蛙	-6277
枢	-6278
庙	-6279
悟	-6280
丈	-6281
卉	-6282
髓	-6283
扑	-6284
飓	-6285
歇	-6286
嘉	-6287
臭	-6288
戈	-6289
绑	-6290
铅	-6291
昨	-6292
憾	-6293
纺	-6294
谎	-6295
凑	-6296
妆	-6297
糙	-6298
凤	-6299
梵	-6300
溪	-6301
牢	-6302
懒	-6303
渲	-6304
熔	-6305
√	-6306
烷	-6307
侠	-6308
盎	-6309
粹	-6310
舌	-6311
驳	-6312
摧	-6313
宴	-6314
榜	-6315
壶	-6316
谬	-6317
咸	-6318
夕	-6319
淀	-6320
霉	-6321
剖	-6322
砖	-6323
筒	-6324
黛	-6325
忌	-6326
渊	-6327
祥	-6328
芳	-6329
枯	-6330
掩	-6331
遂	-6332
哮	-6333
绵	-6334
董	-6335
脓	-6336
溉	-6337
赌	-6338
屑	-6339
喉	-6340
爪	-6341
柳	-6342
铃	-6343
娘	-6344
酬	-6345
衍	-6346
蔓	-6347
丸	-6348
蚁	-6349
矮	-6350
雀	-6351
橘	-6352
脾	-6353
藻	-6354
懈	-6355
敲	-6356
丑	-6357
蘑	-6358
眉	-6359
扶	-6360
茎	-6361
弓	-6362
柴	-6363
殿	-6364
扔	-6365
葛	-6366
骚	-6367
贼	-6368
怨	-6369
炭	-6370
徐	-6371
帧	-6372
藤	-6373
槽	-6374
钾	-6375
悄	-6376
劲	-6377
廊	-6378
婆	-6379
汐	-6380
硕	-6381
篡	-6382
腻	-6383
艇	-6384
骰	-6385
沫	-6386
锤	-6387
萧	-6388
倦	-6389
艘	-6390
á	-6391
佐	-6392
抬	-6393
裕	-6394
夷	-6395
泻	-6396
哭	-6397
氯	-6398
蓬	-6399
躲	-6400
鲨	-6401
僵	-6402
瀑	-6403
弧	-6404
慌	-6405
佣	-6406
咬	-6407
亏	-6408
馨	-6409
嗅	-6410
俯	-6411
滞	-6412
泼	-6413
坠	-6414
挪	-6415
熙	-6416
蜡	-6417
–	-6418
喘	-6419
舟	-6420
苍	-6421
辈	-6422
巡	-6423
─	-6424
庇	-6425
嗽	-6426
炖	-6427
赁	-6428
隙	-6429
柯	-6430
瘾	-6431
篷	-6432
颤	-6433
奸	-6434
膝	-6435
郑	-6436
郡	-6437
鲍	-6438
芭	-6439
厉	-6440
尸	-6441
厄	-6442
呕	-6443
垄	-6444
膏	-6445
兑	-6446
汀	-6447
淘	-6448
翠	-6449
蔽	-6450
塘	-6451
熵	-6452
坑	-6453
儒	-6454
衷	-6455
吓	-6456
膳	-6457
叔	-6458
萎	-6459
妖	-6460
辖	-6461
矢	-6462
辱	-6463
耶	-6464
蟹	-6465
恼	-6466
拘	-6467
虐	-6468
粪	-6469
胺	-6470
嫩	-6471
畜	-6472
拨	-6473
浙	-6474
抄	-6475
蕴	-6476
碌	-6477
娃	-6478
恤	-6479
拳	-6480
浩	-6481
の	-6482
奠	-6483
惫	-6484
搏	-6485
钉	-6486
钦	-6487
鳞	-6488
坊	-6489
澄	-6490
祈	-6491
祸	-6492
塌	-6493
惨	-6494
煌	-6495
耸	-6496
÷	-6497
逸	-6498
í	-6499
凸	-6500
媚	-6501
烯	-6502
茫	-6503
藜	-6504
躺	-6505
铝	-6506
烛	-6507
赎	-6508
哀	-6509
踢	-6510
吊	-6511
颅	-6512
戳	-6513
孝	-6514
棘	-6515
贺	-6516
辰	-6517
驼	-6518
傅	-6519
悔	-6520
窝	-6521
敛	-6522
疆	-6523
菊	-6524
崎	-6525
诅	-6526
刹	-6527
芦	-6528
茸	-6529
亩	-6530
寡	-6531
亨	-6532
昌	-6533
晕	-6534
杠	-6535
贬	-6536
遣	-6537
墓	-6538
慕	-6539
颁	-6540
旺	-6541
辟	-6542
肃	-6543
郭	-6544
冶	-6545
锦	-6546
妨	-6547
慨	-6548
绎	-6549
褐	-6550
鸦	-6551
琐	-6552
芹	-6553
啸	-6554
廓	-6555
摊	-6556
→	-6557
拾	-6558
暑	-6559
纱	-6560
榴	-6561
冈	-6562
苔	-6563
祭	-6564
垒	-6565
仲	-6566
缴	-6567
闷	-6568
娅	-6569
陀	-6570
帆	-6571
畴	-6572
玄	-6573
缆	-6574
誓	-6575
匠	-6576
喊	-6577
嫁	-6578
恭	-6579
畸	-6580
枕	-6581
徽	-6582
贤	-6583
颇	-6584
啥	-6585
曝	-6586
羞	-6587
吻	-6588
阁	-6589
吵	-6590
挽	-6591
枫	-6592
阱	-6593
卑	-6594
惕	-6595
掠	-6596
蚂	-6597
厦	-6598
柑	-6599
珀	-6600
腌	-6601
躁	-6602
酮	-6603
驰	-6604
彰	-6605
呆	-6606
狄	-6607
痒	-6608
薇	-6609
缸	-6610
苷	-6611
β	-6612
驻	-6613
棍	-6614
萌	-6615
轰	-6616
熬	-6617
罢	-6618
赴	-6619
鹦	-6620
刮	-6621
劝	-6622
挚	-6623
禽	-6624
蝠	-6625
姑	-6626
侈	-6627
巩	-6628
肽	-6629
趾	-6630
抖	-6631
柄	-6632
渍	-6633
鹉	-6634
盔	-6635
吾	-6636
胚	-6637
诡	-6638
肛	-6639
沈	-6640
淹	-6641
唇	-6642
皂	-6643
撼	-6644
谍	-6645
椭	-6646
衔	-6647
悚	-6648
炽	-6649
摔	-6650
矣	-6651
鸿	-6652
凹	-6653
昼	-6654
辽	-6655
囚	-6656
孵	-6657
昭	-6658
滨	-6659
赐	-6660
皱	-6661
拦	-6662
敞	-6663
郊	-6664
闰	-6665
匆	-6666
疡	-6667
谦	-6668
啤	-6669
缚	-6670
舱	-6671
逢	-6672
锈	-6673
嘿	-6674
匈	-6675
啦	-6676
氦	-6677
崖	-6678
吏	-6679
愁	-6680
亭	-6681
骄	-6682
顽	-6683
噬	-6684
涩	-6685
喧	-6686
绣	-6687
蝙	-6688
卸	-6689
嘱	-6690
贩	-6691
陡	-6692
棱	-6693
渣	-6694
邓	-6695
兆	-6696
翁	-6697
藩	-6698
辜	-6699
酿	-6700
酥	-6701
陕	-6702
帅	-6703
琼	-6704
碧	-6705
舆	-6706
茁	-6707
葵	-6708
吠	-6709
绒	-6710
荆	-6711
锥	-6712
睾	-6713
肚	-6714
稠	-6715
邃	-6716
屠	-6717
杖	-6718
俩	-6719
薛	-6720
峭	-6721
腕	-6722
蚊	-6723
幂	-6724
睑	-6725
笛	-6726
蹄	-6727
雏	-6728
嗡	-6729
锡	-6730
Δ	-6731
狡	-6732
绽	-6733
拂	-6734
泵	-6735
俊	-6736
坝	-6737
晃	-6738
蜀	-6739
酰	-6740
镁	-6741
喱	-6742
宛	-6743
帘	-6744
潘	-6745
柿	-6746
铲	-6747
矫	-6748
铭	-6749
撕	-6750
梭	-6751
瘫	-6752
斩	-6753
澡	-6754
嘲	-6755
坎	-6756
慷	-6757
蛮	-6758
谧	-6759
卿	-6760
吕	-6761
灼	-6762
臀	-6763
铸	-6764
弈	-6765
蚕	-6766
溜	-6767
苯	-6768
婪	-6769
庸	-6770
贿	-6771
锯	-6772
僧	-6773
峻	-6774
曳	-6775
️	-6776
侍	-6777
驴	-6778
裸	-6779
沛	-6780
挠	-6781
淌	-6782
灶	-6783
熏	-6784
痴	-6785
禅	-6786
浦	-6787
茅	-6788
岭	-6789
昔	-6790
≈	-6791
剔	-6792
栓	-6793
簇	-6794
肆	-6795
蹲	-6796
仗	-6797
觅	-6798
募	-6799
钝	-6800
蜥	-6801
蝇	-6802
躯	-6803
孜	-6804
蛾	-6805
咆	-6806
栗	-6807
泣	-6808
θ	-6809
巅	-6810
耻	-6811
汰	-6812
岳	-6813
澈	-6814
胱	-6815
骂	-6816
嫉	-6817
岖	-6818
颂	-6819
姬	-6820
梳	-6821
嗜	-6822
涅	-6823
犀	-6824
袁	-6825
袜	-6826
隋	-6827
霞	-6828
冯	-6829
宰	-6830
芥	-6831
弘	-6832
淮	-6833
谣	-6834
鸽	-6835
に	-6836
俚	-6837
驯	-6838
仆	-6839
灿	-6840
缅	-6841
踩	-6842
±	-6843
凿	-6844
嚣	-6845
猾	-6846
趁	-6847
哑	-6848
娇	-6849
愚	-6850
戚	-6851
粥	-6852
葬	-6853
嚼	-6854
氟	-6855
肋	-6856
榨	-6857
ー	-6858
怜	-6859
沥	-6860
硝	-6861
竖	-6862
旬	-6863
酯	-6864
靖	-6865
è	-6866
彭	-6867
杭	-6868
湘	-6869
贞	-6870
阀	-6871
た	-6872
刃	-6873
喀	-6874
妒	-6875
浑	-6876
芙	-6877
吟	-6878
斓	-6879
暮	-6880
槛	-6881
紊	-6882
穗	-6883
μ	-6884
篝	-6885
荧	-6886
诏	-6887
轿	-6888
拭	-6889
攘	-6890
钩	-6891
哨	-6892
窦	-6893
隧	-6894
咙	-6895
侮	-6896
甸	-6897
鳍	-6898
薰	-6899
闯	-6900
涤	-6901
猕	-6902
痹	-6903
挛	-6904
湛	-6905
绸	-6906
勋	-6907
沌	-6908
疱	-6909
魄	-6910
卒	-6911
痰	-6912
吱	-6913
屡	-6914
尉	-6915
を	-6916
惰	-6917
耦	-6918
坞	-6919
妃	-6920
尬	-6921
盯	-6922
疮	-6923
稼	-6924
骆	-6925
乾	-6926
焕	-6927
甫	-6928
呀	-6929
喵	-6930
弛	-6931
沼	-6932
ñ	-6933
巷	-6934
螂	-6935
逾	-6936
堕	-6937
痉	-6938
茜	-6939
赦	-6940
拐	-6941
瞻	-6942
脖	-6943
褪	-6944
尴	-6945
焚	-6946
禄	-6947
肘	-6948
勿	-6949
垢	-6950
妊	-6951
癜	-6952
聋	-6953
脐	-6954
凰	-6955
浊	-6956
睹	-6957
葫	-6958
饵	-6959
橱	-6960
蠕	-6961
α	-6962
娠	-6963
抒	-6964
勉	-6965
墟	-6966
孢	-6967
彗	-6968
涛	-6969
狠	-6970
瘙	-6971
蠢	-6972
這	-6973
し	-6974
僚	-6975
翱	-6976
扯	-6977
捣	-6978
匪	-6979
悖	-6980
痪	-6981
铀	-6982
靴	-6983
圳	-6984
戊	-6985
鼎	-6986
淫	-6987
蜒	-6988
镑	-6989
棚	-6990
簿	-6991
蔡	-6992
轶	-6993
亥	-6994
嗨	-6995
糜	-6996
豌	-6997
饺	-6998
亢	-6999
俘	-7000
勘	-7001
唾	-7002
瑕	-7003
菱	-7004
遏	-7005
嘻	-7006
拱	-7007
烫	-7008
蜿	-7009
★	-7010
嘈	-7011
噩	-7012
坪	-7013
嘛	-7014
帜	-7015
锌	-7016
る	-7017
沐	-7018
沦	-7019
焉	-7020
苑	-7021
о	-7022
屁	-7023
揉	-7024
蜴	-7025
陨	-7026
捧	-7027
栋	-7028
笨	-7029
逮	-7030
沾	-7031
酚	-7032
饶	-7033
à	-7034
妄	-7035
慑	-7036
於	-7037
嗯	-7038
嘶	-7039
嬉	-7040
禧	-7041
捆	-7042
栩	-7043
淤	-7044
玲	-7045
は	-7046
绞	-7047
舶	-7048
婉	-7049
旷	-7050
為	-7051
烃	-7052
腥	-7053
颌	-7054
と	-7055
厥	-7056
猿	-7057
來	-7058
梢	-7059
聆	-7060
袤	-7061
Σ	-7062
傍	-7063
冤	-7064
喙	-7065
苛	-7066
倚	-7067
岂	-7068
汪	-7069
袍	-7070
锂	-7071
個	-7072
涕	-7073
缕	-7074
谛	-7075
贮	-7076
鞭	-7077
颊	-7078
・	-7079
叩	-7080
桩	-7081
殷	-7082
炫	-7083
螃	-7084
谅	-7085
雁	-7086
咏	-7087
敷	-7088
痘	-7089
砸	-7090
祀	-7091
羡	-7092
翡	-7093
蔻	-7094
咕	-7095
扼	-7096
疚	-7097
斋	-7098
绅	-7099
缤	-7100
鲑	-7101
―	-7102
□	-7103
い	-7104
僻	-7105
愧	-7106
時	-7107
菩	-7108
ə	-7109
佬	-7110
熄	-7111
翩	-7112
雍	-7113
剃	-7114
厕	-7115
惟	-7116
牡	-7117
盼	-7118
睁	-7119
蹦	-7120
ン	-7121
枣	-7122
疸	-7123
瞳	-7124
稽	-7125
窒	-7126
簧	-7127
蟑	-7128
飙	-7129
て	-7130
龈	-7131
吡	-7132
羚	-7133
蜗	-7134
洼	-7135
窥	-7136
鲤	-7137
咯	-7138
殴	-7139
绚	-7140
衅	-7141
靶	-7142
墅	-7143
捡	-7144
桉	-7145
瞰	-7146
驭	-7147
娶	-7148
瞒	-7149
秃	-7150
糯	-7151
诠	-7152
迄	-7153
嘌	-7154
囤	-7155
寞	-7156
碘	-7157
荫	-7158
渺	-7159
睿	-7160
祷	-7161
酌	-7162
髋	-7163
呤	-7164
崭	-7165
熠	-7166
蓉	-7167
诫	-7168
锚	-7169
鸥	-7170
嚏	-7171
姨	-7172
幔	-7173
後	-7174
捍	-7175
昵	-7176
璀	-7177
璨	-7178
譬	-7179
钞	-7180
匮	-7181
厢	-7182
坍	-7183
汹	-7184
筝	-7185
咀	-7186
寇	-7187
朽	-7188
蔚	-7189
蝉	-7190
拇	-7191
拷	-7192
漱	-7193
绷	-7194
诀	-7195
ā	-7196
凋	-7197
哇	-7198
粤	-7199
魁	-7200
●	-7201
奎	-7202
藓	-7203
逅	-7204
邂	-7205
屉	-7206
浣	-7207
溅	-7208
疵	-7209
盏	-7210
醛	-7211
陋	-7212
が	-7213
丞	-7214
圭	-7215
堤	-7216
惹	-7217
汲	-7218
│	-7219
な	-7220
吼	-7221
崽	-7222
捏	-7223
萃	-7224
語	-7225
∶	-7226
乞	-7227
俭	-7228
唆	-7229
缪	-7230
芜	-7231
啶	-7232
寨	-7233
眩	-7234
踝	-7235
鹏	-7236
で	-7237
璋	-7238
粟	-7239
邑	-7240
彦	-7241
晾	-7242
祺	-7243
莽	-7244
顷	-7245
恳	-7246
柚	-7247
轼	-7248
镶	-7249
咱	-7250
哉	-7251
缔	-7252
阮	-7253
潭	-7254
瘟	-7255
睫	-7256
庶	-7257
朔	-7258
桨	-7259
榈	-7260
骁	-7261
掀	-7262
绊	-7263
蔗	-7264
贱	-7265
丫	-7266
乒	-7267
烩	-7268
笋	-7269
肇	-7270
蒲	-7271
钗	-7272
а	-7273
嗣	-7274
汞	-7275
碟	-7276
莺	-7277
崔	-7278
眨	-7279
羟	-7280
萤	-7281
蕨	-7282
蟒	-7283
赃	-7284
麝	-7285
叮	-7286
晦	-7287
暇	-7288
歪	-7289
歼	-7290
漩	-7291
腮	-7292
凄	-7293
啮	-7294
遛	-7295
ρ	-7296
噜	-7297
悼	-7298
扳	-7299
楔	-7300
灸	-7301
瘠	-7302
癫	-7303
纂	-7304
诵	-7305
谭	-7306
е	-7307
す	-7308
喇	-7309
嘎	-7310
屎	-7311
拢	-7312
拧	-7313
氪	-7314
瑶	-7315
疤	-7316
祛	-7317
馏	-7318
ü	-7319
潺	-7320
呵	-7321
國	-7322
帚	-7323
穹	-7324
糠	-7325
镍	-7326
麟	-7327
ε	-7328
т	-7329
侏	-7330
垮	-7331
怠	-7332
悍	-7333
涎	-7334
澜	-7335
琪	-7336
蕃	-7337
襄	-7338
靡	-7339
栅	-7340
骸	-7341
ç	-7342
娩	-7343
猬	-7344
睐	-7345
莹	-7346
蛹	-7347
蜕	-7348
蜻	-7349
豁	-7350
ɛ	-7351
═	-7352
『	-7353
』	-7354
悸	-7355
暹	-7356
涟	-7357
磺	-7358
與	-7359
秤	-7360
蜓	-7361
鳃	-7362
ú	-7363
兮	-7364
拽	-7365
曙	-7366
漓	-7367
矗	-7368
羁	-7369
羔	-7370
跪	-7371
迦	-7372
骶	-7373
⁄	-7374
∑	-7375
啉	-7376
戮	-7377
砧	-7378
碾	-7379
腱	-7380
陛	-7381
λ	-7382
冀	-7383
嘧	-7384
拙	-7385
攒	-7386
焊	-7387
現	-7388
仕	-7389
妾	-7390
挨	-7391
棠	-7392
檐	-7393
溺	-7394
漪	-7395
烬	-7396
畔	-7397
禹	-7398
虏	-7399
鄙	-7400
鳗	-7401
乍	-7402
啼	-7403
扛	-7404
藕	-7405
ɪ	-7406
乓	-7407
孪	-7408
掺	-7409
撇	-7410
桓	-7411
甩	-7412
钳	-7413
ˈ	-7414
и	-7415
れ	-7416
眶	-7417
絮	-7418
绀	-7419
蟾	-7420
霓	-7421
霾	-7422
徊	-7423
椿	-7424
祁	-7425
秧	-7426
篱	-7427
耿	-7428
俏	-7429
垠	-7430
怡	-7431
琥	-7432
瞄	-7433
秆	-7434
茵	-7435
谏	-7436
γ	-7437
揽	-7438
炊	-7439
瞩	-7440
箔	-7441
茉	-7442
逛	-7443
鸢	-7444
凳	-7445
徘	-7446
扉	-7447
枉	-7448
辍	-7449
雹	-7450
佑	-7451
卦	-7452
唑	-7453
寥	-7454
晖	-7455
曦	-7456
秉	-7457
脲	-7458
膈	-7459
蔷	-7460
鬣	-7461
黯	-7462
傻	-7463
嫡	-7464
宵	-7465
痫	-7466
磕	-7467
藉	-7468
詞	-7469
轩	-7470
£	-7471
σ	-7472
か	-7473
ま	-7474
伺	-7475
斧	-7476
沧	-7477
煲	-7478
稚	-7479
褶	-7480
钛	-7481
坂	-7482
怯	-7483
掏	-7484
揣	-7485
烙	-7486
祇	-7487
過	-7488
鹃	-7489
冕	-7490
對	-7491
擀	-7492
洽	-7493
涝	-7494
竿	-7495
蘸	-7496
诛	-7497
谔	-7498
跖	-7499
鹊	-7500
り	-7501
乖	-7502
剁	-7503
嗓	-7504
昧	-7505
湍	-7506
甄	-7507
窍	-7508
荟	-7509
钡	-7510
н	-7511
卤	-7512
瞎	-7513
砺	-7514
蚓	-7515
侄	-7516
抉	-7517
潇	-7518
炙	-7519
炬	-7520
爹	-7521
盂	-7522
筐	-7523
蚣	-7524
蜈	-7525
蝎	-7526
跋	-7527
阑	-7528
骷	-7529
髅	-7530
鸵	-7531
イ	-7532
咎	-7533
彪	-7534
茧	-7535
蓟	-7536
蚯	-7537
鞘	-7538
█	-7539
兜	-7540
冉	-7541
啄	-7542
媳	-7543
杞	-7544
汝	-7545
疟	-7546
皿	-7547
谤	-7548
趴	-7549
辊	-7550
ら	-7551
尹	-7552
瀚	-7553
硼	-7554
筷	-7555
趟	-7556
ö	-7557
в	-7558
ル	-7559
尧	-7560
恕	-7561
無	-7562
煽	-7563
璐	-7564
粕	-7565
诽	-7566
う	-7567
們	-7568
彬	-7569
沪	-7570
纶	-7571
阪	-7572
颞	-7573
動	-7574
屹	-7575
犁	-7576
砌	-7577
轧	-7578
镖	-7579
ス	-7580
恍	-7581
憎	-7582
挞	-7583
搐	-7584
枸	-7585
桐	-7586
淑	-7587
滕	-7588
蟀	-7589
蟋	-7590
赘	-7591
钴	-7592
っ	-7593
姚	-7594
學	-7595
搁	-7596
琢	-7597
痔	-7598
苟	-7599
酋	-7600
к	-7601
倘	-7602
寝	-7603
昊	-7604
赂	-7605
с	-7606
き	-7607
叭	-7608
嘘	-7609
姥	-7610
宦	-7611
屯	-7612
帷	-7613
槟	-7614
檀	-7615
淳	-7616
琉	-7617
虞	-7618
闽	-7619
ا	-7620
−	-7621
こ	-7622
啾	-7623
娴	-7624
槃	-7625
舅	-7626
蛤	-7627
闺	-7628
さ	-7629
坤	-7630
寐	-7631
毗	-7632
漾	-7633
痂	-7634
耽	-7635
萦	-7636
間	-7637
骡	-7638
་	-7639
侨	-7640
旭	-7641
桔	-7642
毋	-7643
焓	-7644
睦	-7645
禾	-7646
稣	-7647
窘	-7648
蜷	-7649
跤	-7650
長	-7651
鲶	-7652
ω	-7653
≤	-7654
哗	-7655
啃	-7656
坯	-7657
庐	-7658
懿	-7659
戰	-7660
樊	-7661
胧	-7662
舀	-7663
ê	-7664
ラ	-7665
刨	-7666
劾	-7667
垦	-7668
娥	-7669
帛	-7670
挟	-7671
摒	-7672
毂	-7673
翘	-7674
荀	-7675
螨	-7676
貂	-7677
迥	-7678
颚	-7679
⭐	-7680
惶	-7681
戌	-7682
數	-7683
毙	-7684
氩	-7685
瘀	-7686
癖	-7687
砝	-7688
胛	-7689
隘	-7690
鬃	-7691
¿	-7692
ト	-7693
兀	-7694
憋	-7695
憧	-7696
憬	-7697
朦	-7698
榆	-7699
秽	-7700
讳	-7701
辄	-7702
並	-7703
悯	-7704
殆	-7705
獭	-7706
瓢	-7707
瞥	-7708
瞪	-7709
胫	-7710
腑	-7711
舜	-7712
荔	-7713
钚	-7714
锄	-7715
镀	-7716
鳕	-7717
匡	-7718
咧	-7719
哆	-7720
峦	-7721
戛	-7722
搓	-7723
歹	-7724
疣	-7725
鱿	-7726
も	-7727
將	-7728
牟	-7729
砾	-7730
舵	-7731
苓	-7732
锰	-7733
闸	-7734
阙	-7735
呜	-7736
哄	-7737
恬	-7738
腭	-7739
見	-7740
辙	-7741
進	-7742
阎	-7743
鸪	-7744
忱	-7745
戎	-7746
癣	-7747
眸	-7748
秸	-7749
茴	-7750
蕊	-7751
蜍	-7752
裴	-7753
鞠	-7754
鹭	-7755
ŋ	-7756
р	-7757
≥	-7758
あ	-7759
佃	-7760
啰	-7761
喃	-7762
嚎	-7763
埔	-7764
實	-7765
峨	-7766
懦	-7767
缭	-7768
舔	-7769
诬	-7770
谕	-7771
蹭	-7772
躬	-7773
辗	-7774
釉	-7775
饷	-7776
龛	-7777
ʁ	-7778
ん	-7779
凛	-7780
憩	-7781
棣	-7782
滔	-7783
琶	-7784
磊	-7785
祯	-7786
禀	-7787
绛	-7788
绫	-7789
绰	-7790
羧	-7791
镰	-7792
霄	-7793
驿	-7794
′	-7795
喳	-7796
巍	-7797
忒	-7798
撮	-7799
會	-7800
柬	-7801
渎	-7802
濑	-7803
痢	-7804
發	-7805
種	-7806
笃	-7807
蔑	-7808
襟	-7809
诣	-7810
馀	-7811
✔	-7812
䳍	-7813
倭	-7814
呛	-7815
庚	-7816
桦	-7817
铬	-7818
颓	-7819
¥	-7820
━	-7821
ア	-7822
丐	-7823
侬	-7824
咋	-7825
坷	-7826
峙	-7827
撬	-7828
蝗	-7829
谴	-7830
軍	-7831
開	-7832
隼	-7833
鹧	-7834
ä	-7835
ل	-7836
≠	-7837
匣	-7838
問	-7839
嘟	-7840
噌	-7841
弼	-7842
晏	-7843
芸	-7844
铂	-7845
阉	-7846
æ	-7847
ː	-7848
ク	-7849
タ	-7850
亵	-7851
剿	-7852
寅	-7853
楂	-7854
氓	-7855
涸	-7856
煨	-7857
琅	-7858
瘘	-7859
瘪	-7860
箍	-7861
膛	-7862
诃	-7863
韭	-7864
鸠	-7865
∠	-7866
く	-7867
佼	-7868
墩	-7869
浒	-7870
町	-7871
當	-7872
疝	-7873
痊	-7874
瘢	-7875
笙	-7876
腋	-7877
莴	-7878
遁	-7879
龋	-7880
劈	-7881
娟	-7882
婿	-7883
機	-7884
涓	-7885
眷	-7886
簸	-7887
缉	-7888
羌	-7889
螟	-7890
蟠	-7891
衙	-7892
骇	-7893
體	-7894
鼾	-7895
♫	-7896
そ	-7897
啁	-7898
岔	-7899
彷	-7900
涧	-7901
炯	-7902
瞧	-7903
聂	-7904
荞	-7905
褒	-7906
說	-7907
诙	-7908
逍	-7909
逞	-7910
闵	-7911
麒	-7912
つ	-7913
伎	-7914
偻	-7915
內	-7916
坟	-7917
憨	-7918
扦	-7919
書	-7920
氖	-7921
渥	-7922
祠	-7923
谟	-7924
酝	-7925
镭	-7926
陇	-7927
霆	-7928
題	-7929
だ	-7930
シ	-7931
場	-7932
奚	-7933
嫂	-7934
恪	-7935
敖	-7936
晤	-7937
湃	-7938
盹	-7939
绢	-7940
裳	-7941
靛	-7942
鞍	-7943
髂	-7944
鸮	-7945
‍	-7946
リ	-7947
ロ	-7948
侃	-7949
俞	-7950
呐	-7951
哔	-7952
掐	-7953
楠	-7954
榕	-7955
樟	-7956
汶	-7957
罹	-7958
荚	-7959
虔	-7960
蛀	-7961
踵	-7962
デ	-7963
朊	-7964
朕	-7965
札	-7966
硒	-7967
羹	-7968
蚜	-7969
赡	-7970
壬	-7971
徵	-7972
窜	-7973
笠	-7974
苣	-7975
虱	-7976
蚤	-7977
钍	-7978
阂	-7979
電	-7980
刍	-7981
卯	-7982
曜	-7983
渤	-7984
澎	-7985
瑙	-7986
竣	-7987
節	-7988
绮	-7989
耘	-7990
脯	-7991
萍	-7992
變	-7993
雯	-7994
ʊ	-7995
м	-7996
テ	-7997
佝	-7998
氣	-7999
珑	-8000
琏	-8001
確	-8002
笆	-8003
荼	-8004
處	-8005
螳	-8006
○	-8007
め	-8008
匕	-8009
吒	-8010
吮	-8011
哩	-8012
喋	-8013
堰	-8014
妓	-8015
岚	-8016
扒	-8017
桡	-8018
梧	-8019
潴	-8020
煞	-8021
犷	-8022
眺	-8023
稷	-8024
經	-8025
義	-8026
苞	-8027
茬	-8028
蛎	-8029
袒	-8030
類	-8031
л	-8032
亟	-8033
俐	-8034
叽	-8035
夭	-8036
戍	-8037
枭	-8038
沁	-8039
犰	-8040
狳	-8041
玮	-8042
皓	-8043
砷	-8044
苇	-8045
荽	-8046
螈	-8047
裘	-8048
铵	-8049
鹫	-8050
🎉	-8051
ē	-8052
у	-8053
☆	-8054
俸	-8055
倪	-8056
囿	-8057
嫔	-8058
強	-8059
從	-8060
枷	-8061
炳	-8062
熹	-8063
猝	-8064
結	-8065
統	-8066
腓	-8067
萼	-8068
邢	-8069
钋	-8070
馍	-8071
骏	-8072
鲟	-8073
鲫	-8074
鸳	-8075
レ	-8076
冢	-8077
啪	-8078
囱	-8079
嬛	-8080
岌	-8081
擒	-8082
臼	-8083
τ	-8084
奕	-8085
孽	-8086
惋	-8087
愛	-8088
攸	-8089
榻	-8090
橇	-8091
泞	-8092
漢	-8093
狙	-8094
痣	-8095
窖	-8096
纨	-8097
肱	-8098
胳	-8099
計	-8100
釜	-8101
钧	-8102
颐	-8103
ʃ	-8104
д	-8105
ッ	-8106
ド	-8107
剽	-8108
娓	-8109
嫖	-8110
弩	-8111
應	-8112
懊	-8113
敕	-8114
氘	-8115
猥	-8116
笺	-8117
篆	-8118
粼	-8119
纣	-8120
芫	-8121
茯	-8122
記	-8123
蹴	-8124
選	-8125
鬓	-8126
黜	-8127
🌍	-8128
φ	-8129
壑	-8130
婢	-8131
媲	-8132
宕	-8133
榛	-8134
汛	-8135
滇	-8136
潦	-8137
缮	-8138
裨	-8139
評	-8140
诲	-8141
贲	-8142
赣	-8143
鑫	-8144
關	-8145
鼹	-8146
Ω	-8147
∆	-8148
け	-8149
ィ	-8150
刁	-8151
別	-8152
哼	-8153
巳	-8154
慵	-8155
懵	-8156
渝	-8157
溴	-8158
琵	-8159
疽	-8160
皋	-8161
監	-8162
窑	-8163
谥	-8164
镊	-8165
鲈	-8166
鸯	-8167
鼬	-8168
¡	-8169
ǎ	-8170
剌	-8171
垣	-8172
妍	-8173
婷	-8174
孰	-8175
彤	-8176
徇	-8177
惬	-8178
拮	-8179
揪	-8180
摹	-8181
東	-8182
烽	-8183
焖	-8184
砥	-8185
