<unk>	0
<s>	0
</s>	0
<|im_start|>	0
<|im_end|>	0

	0
..	-0
....	-1
六郎	-2
......	-3
:“	-4
。”	-5
战龙	-6
自己	-7
▁六郎	-8
?”	-9
没有	-10
▁“	-11
她的	-12
已经	-13
......”	-14
了一	-15
我们	-16
!”	-17
小姐	-18
起来	-19
龙枪	-20
▁战龙	-21
四小姐	-22
什么	-23
知道	-24
六郎的	-25
慕容	-26
雪航	-27
一个	-28
慕容雪航	-29
这样	-30
现在	-31
不是	-32
姐姐	-33
自己的	-34
凤凰	-35
,“	-36
不住	-37
时候	-38
花蕊	-39
萧绰	-40
就是	-41
人的	-42
出来	-43
不要	-44
感觉	-45
但是	-46
你们	-47
一下	-48
心中	-49
一阵	-50
轻轻	-51
可是	-52
白凤凰	-53
身上	-54
一声	-55
到了	-56
你的	-57
笑道	-58
怎么	-59
身体	-60
他的	-61
虽然	-62
这个	-63
皇后	-64
也不	-65
开始	-66
之后	-67
他们	-68
我的	-69
还是	-70
的玉	-71
周后	-72
过来	-73
不能	-74
身子	-75
都是	-76
因为	-77
可以	-78
--	-79
下来	-80
双手	-81
还有	-82
舒服	-83
看着	-84
一次	-85
紧紧	-86
的小	-87
不由	-88
说道	-89
不过	-90
四娘	-91
有些	-92
的大	-93
这么	-94
若儿	-95
▁慕容雪航	-96
看到	-97
上的	-98
▁说	-99
一边	-100
真是	-101
用力	-102
点头	-103
慢慢	-104
只是	-105
四姐	-106
▁四小姐	-107
一点	-108
雪妃	-109
这些	-110
程世	-111
程世杰	-112
一起	-113
紫若儿	-114
大周后	-115
战龙的	-116
娇躯	-117
也是	-118
将军	-119
微微	-120
着她	-121
公主	-122
明歌	-123
然后	-124
呻吟	-125
郡主	-126
两个	-127
全身	-128
突然	-129
大的	-130
云妃	-131
幽谷	-132
如此	-133
更是	-134
发出	-135
真的	-136
事情	-137
觉得	-138
六爷	-139
要是	-140
今天	-141
里面	-142
中的	-143
水师	-144
马上	-145
雪白	-146
不断	-147
白雪妃	-148
在她	-149
之间	-150
不了	-151
的一	-152
▁第	-153
紫烟	-154
白云妃	-155
不会	-156
动作	-157
眼睛	-158
柔软	-159
的时候	-160
时间	-161
于是	-162
一样	-163
这种	-164
云罗	-165
士兵	-166
这里	-167
的美	-168
雪雁	-169
快感	-170
女人	-171
日明	-172
宝日明	-173
宝日明梅	-174
辽军	-175
苗雪雁	-176
的话	-177
不知道	-178
桂英	-179
这一	-180
随着	-181
同时	-182
一般	-183
穆桂英	-184
来的	-185
所以	-186
妹妹	-187
居然	-188
有一	-189
不到	-190
的感觉	-191
刺激	-192
下去	-193
人家	-194
刚才	-195
忍不住	-196
过去	-197
终于	-198
好了	-199
死了	-200
清苑	-201
十分	-202
小穴	-203
肌肤	-204
大嫂	-205
整个	-206
浑身	-207
准备	-208
却是	-209
强烈	-210
她们	-211
下的	-212
钟皇后	-213
看看	-214
一股	-215
那么	-216
司清苑	-217
之中	-218
元神	-219
嫩的	-220
想到	-221
那些	-222
声道	-223
不得	-224
上来	-225
衣服	-226
吴越	-227
尤其	-228
感到	-229
手指	-230
口中	-231
龙兰	-232
夫人	-233
娇羞	-234
住了	-235
灵灵	-236
美的	-237
体内	-238
了一下	-239
着她的	-240
司马	-241
李煜	-242
一定	-243
温柔	-244
不停	-245
脸上	-246
更加	-247
▁萧绰	-248
舌头	-249
来了	-250
耶律	-251
▁白凤凰	-252
元罗	-253
只有	-254
颤抖	-255
丰满	-256
厉害	-257
之下	-258
姐妹	-259
公子	-260
面的	-261
二人	-262
让她	-263
动着	-264
抚摸	-265
那一	-266
不知	-267
----	-268
司马紫烟	-269
口气	-270
的双	-271
能够	-272
出一	-273
酥胸	-274
咱们	-275
明歌郡主	-276
实在	-277
来到	-278
女子	-279
笑着	-280
会儿	-281
大家	-282
东西	-283
火热	-284
进去	-285
清影	-286
无比	-287
所有	-288
是一	-289
胸前	-290
身边	-291
东方	-292
不可	-293
的手	-294
顿时	-295
享受	-296
问道	-297
如何	-298
继续	-299
越来	-300
喜欢	-301
上去	-302
色的	-303
声音	-304
那个	-305
越来越	-306
正在	-307
就要	-308
那种	-309
高潮	-310
▁六郎道	-311
抽插	-312
办法	-313
的是	-314
的人	-315
最后	-316
深处	-317
在六郎	-318
不好	-319
回来	-320
一直	-321
男人	-322
的龙枪	-323
玉娇	-324
眼前	-325
将她	-326
不敢	-327
蒙古	-328
▁她	-329
一笑	-330
为了	-331
无法	-332
一些	-333
南阳	-334
一只	-335
完全	-336
欲火	-337
是不是	-338
上了	-339
的乳	-340
只觉	-341
在一起	-342
着六郎	-343
紫玉	-344
大人	-345
而且	-346
感受	-347
出了	-348
晚上	-349
样子	-350
手中	-351
发现	-352
这是	-353
应该	-354
还不	-355
姑姑	-356
床上	-357
贵妃	-358
++	-359
胴体	-360
的阴	-361
弟弟	-362
朱玉	-363
六哥	-364
怀中	-365
还要	-366
缓缓	-367
去了	-368
连忙	-369
了一声	-370
进入	-371
地方	-372
我就	-373
般的	-374
两人	-375
▁说着	-376
力的	-377
那样	-378
...	-379
给你	-380
被六郎	-381
似乎	-382
哥哥	-383
上面	-384
潘凤	-385
的情	-386
渐渐	-387
就在	-388
林熙	-389
加上	-390
原来	-391
若是	-392
全部	-393
林熙蕊	-394
司徒	-395
告诉	-396
吴越水师	-397
兴奋	-398
带着	-399
点点头	-400
不行	-401
一片	-402
红的	-403
美丽	-404
龟头	-405
了起来	-406
下身	-407
又是	-408
着那	-409
还没有	-410
娇喘	-411
着六郎的	-412
岳灵灵	-413
敏感	-414
洪玉娇	-415
似的	-416
意思	-417
东方紫玉	-418
仿佛	-419
只能	-420
圣母	-421
呼吸	-422
好好	-423
如果	-424
抱住	-425
修长	-426
出的	-427
花心	-428
几乎	-429
好像	-430
给我	-431
这儿	-432
只要	-433
她那	-434
一双	-435
清雅	-436
此时	-437
敌人	-438
深深	-439
哪里	-440
当然	-441
自然	-442
进来	-443
难道	-444
我要	-445
屁股	-446
开了	-447
想要	-448
晋王	-449
充满	-450
几个	-451
赶紧	-452
的快感	-453
你了	-454
让我	-455
说话	-456
少女	-457
惜惜	-458
成了	-459
英雄	-460
大军	-461
令人	-462
双腿	-463
难以	-464
攻击	-465
让你	-466
明白	-467
姥姥	-468
师父	-469
快速	-470
进攻	-471
两位	-472
宝贝	-473
飞虎	-474
跟着	-475
伸手	-476
你就	-477
需要	-478
高兴	-479
的娇	-480
看来	-481
芳心	-482
滋味	-483
玉手	-484
也没有	-485
武功	-486
满足	-487
前面	-488
兄弟	-489
只见	-490
父亲	-491
阵阵	-492
的事情	-493
必须	-494
飞虎城	-495
女儿	-496
根本	-497
的香	-498
骊山	-499
▁花蕊	-500
的身体	-501
让六郎	-502
目光	-503
一面	-504
坚挺	-505
命令	-506
爱抚	-507
轻轻的	-508
听到	-509
再次	-510
▁这	-511
尽管	-512
有了	-513
上下	-514
人都	-515
直接	-516
纤腰	-517
一种	-518
清楚	-519
那里	-520
母后	-521
好舒服	-522
的呻吟	-523
果然	-524
的肉	-525
过了	-526
早就	-527
身后	-528
有什么	-529
刚刚	-530
下面	-531
面前	-532
说不	-533
谨梅	-534
接着	-535
摇头	-536
玉棠	-537
一丝	-538
的神	-539
逍遥	-540
修神	-541
就算	-542
浑圆	-543
离开	-544
苏蒙	-545
想不到	-546
可能	-547
而是	-548
石玉棠	-549
一手	-550
后面	-551
樱唇	-552
★☆	-553
心里	-554
一下子	-555
说的	-556
不由得	-557
一把	-558
三个	-559
不想	-560
就会	-561
任何	-562
喘息	-563
花公主	-564
挑逗	-565
晶莹	-566
滑的	-567
骑兵	-568
一会儿	-569
▁白云妃	-570
地说	-571
好的	-572
温谨梅	-573
温暖	-574
愿意	-575
之上	-576
云若	-577
正好	-578
宋皇后	-579
上前	-580
以后	-581
休息	-582
分开	-583
天下	-584
有人	-585
疯狂	-586
立即	-587
吸吮	-588
露出	-589
蒙古兵	-590
弄得	-591
饱满	-592
了出来	-593
力气	-594
苏蒙云若	-595
关系	-596
放心	-597
的道	-598
▁宝日明梅	-599
嘴唇	-600
握住	-601
战船	-602
玉腿	-603
另外	-604
地上	-605
你是	-606
希望	-607
抱着	-608
狠狠	-609
酥麻	-610
小周后	-611
林雪	-612
而出	-613
身下	-614
在她的	-615
林雪贞	-616
★☆★☆	-617
大手	-618
大辽	-619
孟姜	-620
让人	-621
伸出	-622
淫水	-623
像是	-624
回去	-625
一道	-626
小嘴	-627
花蕊的	-628
老婆	-629
见她	-630
看了	-631
见到	-632
起了	-633
其实	-634
很快	-635
九天	-636
樱桃	-637
受不了	-638
皇上	-639
在自己	-640
在六郎的	-641
不禁	-642
心道	-643
我也	-644
插入	-645
高手	-646
大宋	-647
本来	-648
皇帝	-649
了几	-650
^^	-651
一条	-652
就将	-653
强烈的	-654
一眼	-655
你要	-656
怎样	-657
我不	-658
用手	-659
就这样	-660
容易	-661
朱玉婵	-662
出去	-663
多少	-664
娇妻	-665
彻底	-666
控制	-667
诱人	-668
逐渐	-669
在了	-670
快乐	-671
让他	-672
感觉到	-673
▁白雪妃	-674
扭动	-675
姑娘	-676
湿润	-677
着脸	-678
结果	-679
倒是	-680
小心	-681
配合	-682
的样子	-683
兵马	-684
再也	-685
左右	-686
我是	-687
抓住	-688
这才	-689
里的	-690
非常	-691
▁四娘	-692
九天玄	-693
机会	-694
美妙	-695
这样的	-696
你可	-697
宋军	-698
无限	-699
在床上	-700
▁苗雪雁	-701
得到	-702
烈的	-703
被他	-704
这件	-705
慢慢的	-706
▁一	-707
刀手	-708
眼神	-709
肯定	-710
嘿嘿	-711
热的	-712
这次	-713
龙头	-714
深入	-715
简直	-716
柔软的	-717
符皇后	-718
一旦	-719
功力	-720
既然	-721
乃是	-722
之前	-723
滑腻	-724
那是	-725
到底	-726
无力	-727
沙河	-728
▁元罗	-729
不及	-730
如同	-731
粗大	-732
苏姬	-733
即使	-734
秀发	-735
并且	-736
害怕	-737
情的	-738
舌尖	-739
阴道	-740
九天玄佛	-741
。“	-742
主动	-743
的肌肤	-744
▁紫若儿	-745
以为	-746
朝着	-747
爱的	-748
了一个	-749
不自	-750
再说	-751
沈慈	-752
亲吻	-753
向前	-754
帮助	-755
御剑	-756
顺着	-757
已经是	-758
坏蛋	-759
司徒清雅	-760
你不	-761
此刻	-762
长亭	-763
为什么	-764
骊山圣母	-765
洁白	-766
答应	-767
▁司马紫烟	-768
担心	-769
杨家	-770
的身	-771
素心	-772
越秀	-773
下了	-774
的声音	-775
琼花公主	-776
仙君	-777
成熟	-778
的一声	-779
逍遥仙君	-780
你这	-781
多了	-782
抬起	-783
二嫂	-784
其中	-785
绝色	-786
肚兜	-787
高耸	-788
令她	-789
耶律长亭	-790
下体	-791
令公	-792
孟良	-793
小的	-794
--------	-795
一步	-796
对方	-797
急促	-798
赵匡	-799
紧紧地	-800
功夫	-801
十万	-802
回头	-803
手下	-804
的脸	-805
速度	-806
销魂	-807
你不要	-808
妩媚	-809
意的	-810
有的	-811
眼中	-812
荡漾	-813
进了	-814
长的	-815
诱人的	-816
甚至	-817
▁说罢	-818
身上的	-819
望着	-820
了下来	-821
你怎么	-822
晋王妃	-823
水清影	-824
的玉峰	-825
也要	-826
挣扎	-827
有点	-828
还在	-829
美人	-830
连连	-831
娇嫩的	-832
赵匡胤	-833
指挥	-834
模样	-835
花瓣	-836
紧紧的	-837
++++	-838
在那	-839
悬空	-840
昨天	-841
的心	-842
盖天	-843
尤其是	-844
——	-845
张静	-846
惊讶	-847
早已	-848
显得	-849
欲望	-850
实在是	-851
军队	-852
竟然	-853
羞涩	-854
上一	-855
摩擦	-856
母亲	-857
白玉	-858
起伏	-859
不管	-860
今日	-861
只好	-862
盾牌	-863
着一	-864
只觉得	-865
▁司清苑	-866
乳房	-867
含羞	-868
弄着	-869
抽送	-870
相信	-871
距离	-872
悬空岛	-873
轻轻地	-874
不起	-875
玉峰	-876
阴户	-877
不停的	-878
的士兵	-879
的胴体	-880
哈哈	-881
大腿	-882
正是	-883
满了	-884
不断地	-885
慢慢地	-886
传来	-887
发生	-888
回到	-889
外面	-890
大力	-891
就不	-892
许多	-893
之处	-894
从来	-895
在他	-896
子宫	-897
我和	-898
竟是	-899
老公	-900
臀部	-901
这般	-902
不堪	-903
不已	-904
丽华	-905
坚硬	-906
才能	-907
以前	-908
修炼	-909
娇艳	-910
房间	-911
赤裸	-912
保护	-913
南唐	-914
太宗	-915
急忙	-916
的动作	-917
**	-918
▁他	-919
光滑	-920
这时	-921
的地方	-922
的娇躯	-923
这一次	-924
叹道	-925
弟子	-926
我了	-927
▁那	-928
不同	-929
的玉腿	-930
被战龙	-931
低头	-932
你还	-933
永远	-934
重重	-935
第一次	-936
双峰	-937
小腹	-938
怀里	-939
洞庭	-940
冲击	-941
出声	-942
姿势	-943
带领	-944
小坏蛋	-945
一波	-946
之人	-947
娇嫩	-948
巨龙	-949
都不	-950
除了	-951
难受	-952
粗大龙枪	-953
▁六郎笑道	-954
七星	-955
动了	-956
处女	-957
差点	-958
痛苦	-959
相公	-960
柴明歌	-961
洞庭湖	-962
就像	-963
性命	-964
滚烫	-965
雅芙	-966
了一口	-967
六将军	-968
的身子	-969
城墙	-970
媚眼	-971
心的	-972
悄悄	-973
战斗	-974
然大	-975
都要	-976
让战龙	-977
一看	-978
中间	-979
了吗	-980
张开	-981
男女	-982
表情	-983
雷霆	-984
香舌	-985
的大腿	-986
都没有	-987
三人	-988
原本	-989
叫着	-990
注意	-991
一个人	-992
人马	-993
众人	-994
▁穆桂英	-995
三春	-996
你啊	-997
气的	-998
的蜜	-999
看得	-1000
纷纷	-1001
迅速	-1002
没想到	-1003
两只	-1004
吮吸	-1005
诱惑	-1006
我们的	-1007
盖天娇	-1008
一切	-1009
一口	-1010
俏脸	-1011
变得	-1012
娘娘	-1013
子的	-1014
师姐	-1015
弓弩	-1016
了进去	-1017
天山	-1018
搂住	-1019
消息	-1020
淫荡	-1021
红色	-1022
细的	-1023
心中一	-1024
陶三春	-1025
动人	-1026
动的	-1027
很多	-1028
意识	-1029
战马	-1030
以及	-1031
你好	-1032
你真	-1033
山西	-1034
并不	-1035
日子	-1036
甜蜜	-1037
修神界	-1038
并没有	-1039
红着脸	-1040
一件	-1041
玲珑	-1042
甬道	-1043
经过	-1044
在战龙	-1045
我现在	-1046
着自己	-1047
两片	-1048
的胸	-1049
看见	-1050
着急	-1051
美女	-1052
美目	-1053
部分	-1054
在这里	-1055
知道了	-1056
一路	-1057
不如	-1058
你想	-1059
其他	-1060
多的	-1061
得了	-1062
快些	-1063
的小穴	-1064
今后	-1065
全都	-1066
对手	-1067
已是	-1068
我会	-1069
直到	-1070
西凉	-1071
所有的	-1072
反应	-1073
啊啊	-1074
显然	-1075
玉门	-1076
第二	-1077
▁龙兰	-1078
巨大的	-1079
出现	-1080
卧牛	-1081
身的	-1082
一时	-1083
丈夫	-1084
不错	-1085
否则	-1086
说着	-1087
一只手	-1088
一番	-1089
宝剑	-1090
思菱	-1091
明明	-1092
里头	-1093
▁东方紫玉	-1094
又道	-1095
恐怕	-1096
紧闭	-1097
兰柳	-1098
回鹘	-1099
好美	-1100
将那	-1101
想起	-1102
紧张	-1103
的酥胸	-1104
气息	-1105
精华	-1106
面对	-1107
不行了	-1108
将自己	-1109
耶律撒	-1110
陆思菱	-1111
为何	-1112
了吧	-1113
分明	-1114
嘴里	-1115
无极	-1116
转身	-1117
迎合	-1118
龙姬	-1119
周雅芙	-1120
朱玉鸾	-1121
王贵妃	-1122
耶律撒葛	-1123
不仅	-1124
不时	-1125
丰腴	-1126
吁吁	-1127
疼痛	-1128
酥软	-1129
重要	-1130
石清影	-1131
一对	-1132
不用	-1133
大了	-1134
性的	-1135
情况	-1136
揉捏	-1137
自主	-1138
▁说完	-1139
干什么	-1140
你说	-1141
儿子	-1142
危险	-1143
喊道	-1144
太原	-1145
忽然	-1146
杀了	-1147
的水	-1148
计划	-1149
这位	-1150
问题	-1151
文素心	-1152
温柔的	-1153
▁岳灵灵	-1154
光义	-1155
因此	-1156
嫩肉	-1157
孩子	-1158
安排	-1159
尽情	-1160
弓箭	-1161
收缩	-1162
欲仙	-1163
耳边	-1164
舒畅	-1165
辽兵	-1166
骂道	-1167
无比的	-1168
哎呀	-1169
男子	-1170
行动	-1171
白姐姐	-1172
的双峰	-1173
洞庭湖水师	-1174
入了	-1175
冲动	-1176
回答	-1177
娇媚	-1178
得她	-1179
无数	-1180
曲线	-1181
高高	-1182
黑山	-1183
的女人	-1184
赵光义	-1185
我还	-1186
桃源	-1187
淡淡	-1188
肉棒	-1189
毕竟	-1190
缠绵	-1191
都被	-1192
幽谷甬道	-1193
一身	-1194
下头	-1195
两条	-1196
叫道	-1197
命的	-1198
往下	-1199
手掌	-1200
明天	-1201
死的	-1202
潘豹	-1203
神秘	-1204
解开	-1205
六郎和	-1206
怎么办	-1207
抚摸着	-1208
这时候	-1209
从未	-1210
血妖	-1211
丢了	-1212
咬着	-1213
我好	-1214
有如	-1215
走了	-1216
叹口气	-1217
黑山血妖	-1218
不上	-1219
不再	-1220
等着	-1221
虽说	-1222
充满了	-1223
凤凰城	-1224
依然	-1225
向上	-1226
圣洁	-1227
大量	-1228
焦赞	-1229
燃烧	-1230
痛楚	-1231
▁慕容雪航道	-1232
不少	-1233
依旧	-1234
大声	-1235
粗壮	-1236
他们的	-1237
这么多	-1238
使用	-1239
对着	-1240
异常	-1241
情欲	-1242
的好	-1243
认识	-1244
雨秋	-1245
宋太宗	-1246
右手	-1247
头上	-1248
时辰	-1249
到时候	-1250
什么时候	-1251
不见	-1252
丫头	-1253
妃暄	-1254
对付	-1255
心神	-1256
方向	-1257
玉体	-1258
要不	-1259
不自禁	-1260
的小腹	-1261
迷人的	-1262
亮的	-1263
愈来	-1264
撞击	-1265
明神	-1266
的粉	-1267
盈盈	-1268
真气	-1269
结实	-1270
愈来愈	-1271
点头道	-1272
二女	-1273
吩咐	-1274
站在	-1275
贪婪	-1276
师妃暄	-1277
和你	-1278
帮你	-1279
打算	-1280
接触	-1281
极为	-1282
王妃	-1283
虽是	-1284
闭上	-1285
的乳房	-1286
不由自主	-1287
幸福	-1288
按照	-1289
玉臀	-1290
▁南阳	-1291
一阵阵	-1292
能不能	-1293
慕容雨秋	-1294
你也	-1295
到她	-1296
或许	-1297
桥关	-1298
进行	-1299
不断的	-1300
瓦桥关	-1301
今天晚上	-1302
▁当	-1303
九妹	-1304
众女	-1305
却不	-1306
可惜	-1307
承受	-1308
渴望	-1309
瞬间	-1310
不停地	-1311
司徒明	-1312
▁在	-1313
一颤	-1314
人了	-1315
叫声	-1316
想着	-1317
生的	-1318
相互	-1319
穆宗	-1320
简单	-1321
见过	-1322
▁六郎的	-1323
▁明歌郡主	-1324
也就	-1325
亲自	-1326
倒在	-1327
偷偷	-1328
力量	-1329
大王	-1330
挺动	-1331
放开	-1332
铭儿	-1333
阿姨	-1334
我已经	-1335
从来没有	-1336
哼了一声	-1337
不多	-1338
也有	-1339
却道	-1340
嫂子	-1341
心头	-1342
愈发	-1343
本能	-1344
立刻	-1345
轻声	-1346
方丽华	-1347
▁洪玉娇	-1348
南宫	-1349
反抗	-1350
可爱	-1351
方才	-1352
程千	-1353
肉体	-1354
跟我	-1355
都在	-1356
队伍	-1357
防御	-1358
司徒明枫	-1359
六郎的龙枪	-1360
坐在	-1361
如今	-1362
把她	-1363
激情	-1364
你要是	-1365
萧铭儿	-1366
二十	-1367
使得	-1368
受到	-1369
彷佛	-1370
紧了	-1371
紧窄	-1372
都会	-1373
出来的	-1374
扭动着	-1375
火雷霆	-1376
之际	-1377
前进	-1378
地道	-1379
好爽	-1380
抗拒	-1381
接受	-1382
时而	-1383
求你	-1384
湿滑	-1385
的火	-1386
睁开	-1387
被你	-1388
辽穆宗	-1389
情不自禁	-1390
不但	-1391
传令	-1392
几天	-1393
听说	-1394
吻着	-1395
嘴巴	-1396
地将	-1397
恢复	-1398
普通	-1399
柔嫩	-1400
水中	-1401
的花	-1402
的说	-1403
六郎也	-1404
好弟弟	-1405
也不知道	-1406
亵裤	-1407
就连	-1408
尸体	-1409
得更	-1410
檀口	-1411
的她	-1412
真正	-1413
鲜血	-1414
▁李煜	-1415
已经被	-1416
偷袭	-1417
大哥	-1418
是我	-1419
毫无	-1420
燕子	-1421
王爷	-1422
的事	-1423
舒爽	-1424
隐隐	-1425
住她的	-1426
的六郎	-1427
主意	-1428
内心	-1429
却又	-1430
是啊	-1431
朝廷	-1432
眼泪	-1433
私处	-1434
胸口	-1435
脖子	-1436
迷人	-1437
那双	-1438
怎么会	-1439
一听	-1440
包裹	-1441
向下	-1442
对准	-1443
将领	-1444
生命	-1445
秀影	-1446
轻柔	-1447
不住的	-1448
一张	-1449
全力	-1450
变成	-1451
四个	-1452
四周	-1453
圆润	-1454
如丝	-1455
征服	-1456
雪珍	-1457
▁于是	-1458
摇摇头	-1459
是什么	-1460
郑秀影	-1461
六郎的手	-1462
世宗	-1463
乌龟	-1464
交合	-1465
仔细	-1466
城的	-1467
弹性	-1468
柳腰	-1469
瑶烟	-1470
第一	-1471
羞红	-1472
胯下	-1473
赤虎	-1474
隔着	-1475
▁云罗	-1476
六郎道	-1477
的刺激	-1478
的滋味	-1479
越秀公主	-1480
三十	-1481
之外	-1482
之时	-1483
快活	-1484
美艳	-1485
起的	-1486
我知道	-1487
军的	-1488
同意	-1489
挤压	-1490
搓揉	-1491
无奈	-1492
最好	-1493
脚步	-1494
面上	-1495
六郎将	-1496
到六郎	-1497
两天	-1498
姨娘	-1499
精神	-1500
钦差	-1501
辽军的	-1502
道元神	-1503
▁见	-1504
了两	-1505
了我	-1506
嘻嘻	-1507
毫不	-1508
满意	-1509
琳儿	-1510
生气	-1511
的情况	-1512
红色的	-1513
这件事	-1514
^^^^	-1515
四小姐的	-1516
停止	-1517
千万	-1518
名器	-1519
呵呵	-1520
形成	-1521
空中	-1522
羞得	-1523
而已	-1524
肚子	-1525
师小姐	-1526
整个人	-1527
航姐姐	-1528
三千	-1529
了好	-1530
剧烈	-1531
周身	-1532
摆动	-1533
春情	-1534
通红	-1535
火热的	-1536
用力的	-1537
一副	-1538
你和	-1539
别人	-1540
又说	-1541
双眼	-1542
后的	-1543
对我	-1544
开来	-1545
片刻	-1546
用的	-1547
的长	-1548
脑袋	-1549
了下去	-1550
★☆★☆★☆★☆	-1551
不出	-1552
之内	-1553
修罗	-1554
又将	-1555
报仇	-1556
收拾	-1557
是在	-1558
爱你	-1559
牺牲	-1560
猛然	-1561
留下	-1562
确实	-1563
给他	-1564
▁潘凤	-1565
庞然大	-1566
有没有	-1567
着战龙	-1568
庞然大物	-1569
兵器	-1570
动手	-1571
句话	-1572
和尚	-1573
在这	-1574
头来	-1575
张若	-1576
快的	-1577
有着	-1578
猛地	-1579
认为	-1580
那就	-1581
娇喘吁吁	-1582
一红	-1583
不开	-1584
实话	-1585
当中	-1586
我想	-1587
或者	-1588
插得	-1589
散发	-1590
爱液	-1591
目的	-1592
红晕	-1593
了她	-1594
会有	-1595
如玉	-1596
春水	-1597
梦萝	-1598
秀宁	-1599
重的	-1600
飘飘	-1601
也不知	-1602
享受着	-1603
原来是	-1604
的玉体	-1605
不成	-1606
中了	-1607
人心	-1608
剩下	-1609
小妹	-1610
巨大	-1611
放在	-1612
无敌	-1613
暂时	-1614
痉挛	-1615
给她	-1616
绝对	-1617
衣衫	-1618
过的	-1619
还真	-1620
陆涛	-1621
鲜花	-1622
李贵妃	-1623
便是	-1624
变化	-1625
家的	-1626
抚弄	-1627
揉搓	-1628
身心	-1629
昨天晚上	-1630
一同	-1631
你看	-1632
双方	-1633
同样	-1634
夫妻	-1635
抽出	-1636
每一	-1637
留在	-1638
部队	-1639
靠近	-1640
并不是	-1641
风火雷霆	-1642
反而	-1643
密的	-1644
就被	-1645
彼此	-1646
性感	-1647
放弃	-1648
爆发	-1649
磨擦	-1650
三公子	-1651
了自己	-1652
出来了	-1653
沙河郡	-1654
的说道	-1655
站起来	-1656
上身	-1657
刺客	-1658
潘仁	-1659
的淫	-1660
跟前	-1661
难耐	-1662
一定要	-1663
低下头	-1664
着战龙的	-1665
▁白	-1666
一挺	-1667
两腿	-1668
乌黑	-1669
亲亲	-1670
十二	-1671
坏了	-1672
大小	-1673
想了	-1674
放下	-1675
放过	-1676
欺负	-1677
的那	-1678
脸颊	-1679
了她的	-1680
卧牛关	-1681
和六郎	-1682
感受到	-1683
的目光	-1684
要不是	-1685
三嫂	-1686
任由	-1687
全是	-1688
压在	-1689
帮我	-1690
我可	-1691
抵抗	-1692
暴露	-1693
炼狱	-1694
的笑	-1695
艾虎	-1696
起身	-1697
你这样	-1698
张静初	-1699
萧绰的	-1700
程世杰的	-1701
决定	-1702
奇怪	-1703
姐夫	-1704
客栈	-1705
来回	-1706
熟悉	-1707
生怕	-1708
见羞	-1709
集中	-1710
了六郎	-1711
将她的	-1712
没有办法	-1713
味道	-1714
姜菲	-1715
幽幽	-1716
极了	-1717
柔滑	-1718
泪水	-1719
细腻	-1720
说了	-1721
远处	-1722
采儿	-1723
风情	-1724
你们俩	-1725
你现在	-1726
六公子	-1727
姜菲儿	-1728
就可以	-1729
惊讶道	-1730
陆雪珍	-1731
发出一声	-1732
着自己的	-1733
不许	-1734
也在	-1735
几位	-1736
妻子	-1737
抬头	-1738
暗中	-1739
着的	-1740
紫菱	-1741
绝世	-1742
绿华	-1743
对自己	-1744
着龙枪	-1745
▁林熙蕊	-1746
不动	-1747
东阳	-1748
使她	-1749
冲锋	-1750
商议	-1751
奇门	-1752
她是	-1753
安慰	-1754
家伙	-1755
怒道	-1756
投降	-1757
拼命	-1758
热情	-1759
白皙	-1760
矜持	-1761
身形	-1762
快速地	-1763
温柔地	-1764
让自己	-1765
微微一笑	-1766
一会	-1767
位置	-1768
我看	-1769
桌子	-1770
激动	-1771
的雪	-1772
看的	-1773
纤手	-1774
肩膀	-1775
前面的	-1776
心中暗	-1777
柔嫩的	-1778
潘仁美	-1779
秦东阳	-1780
花见羞	-1781
不大	-1782
之事	-1783
了个	-1784
又要	-1785
叛军	-1786
后来	-1787
大郎	-1788
小舟	-1789
得很	-1790
抽搐	-1791
纤细	-1792
耳朵	-1793
至极	-1794
阻止	-1795
了过去	-1796
必须要	-1797
疯狂的	-1798
的美臀	-1799
▁钟皇后	-1800
▁琼花公主	-1801
侵犯	-1802
充实	-1803
太后	-1804
往前	-1805
故意	-1806
每次	-1807
汗水	-1808
的内	-1809
背上	-1810
背后	-1811
芳草	-1812
还能	-1813
一样的	-1814
也不会	-1815
到自己	-1816
▁程世杰	-1817
」、	-1818
一块	-1819
利用	-1820
如火	-1821
娇吟	-1822
攻打	-1823
无论	-1824
欣赏	-1825
的女	-1826
等待	-1827
羡慕	-1828
而又	-1829
谢谢	-1830
阴唇	-1831
停下来	-1832
无力的	-1833
早已经	-1834
▁林雪贞	-1835
产生	-1836
婶婶	-1837
晕红	-1838
玩弄	-1839
经验	-1840
股间	-1841
胸膛	-1842
腰肢	-1843
身材	-1844
香汗	-1845
」、「	-1846
不好意思	-1847
估计	-1848
利的	-1849
对于	-1850
快要	-1851
放松	-1852
明显	-1853
是要	-1854
洞口	-1855
玉茎	-1856
现出	-1857
练功	-1858
肌肉	-1859
都有	-1860
狠狠地	-1861
禁不住	-1862
不觉	-1863
不顾	-1864
互相	-1865
亲兵	-1866
占有	-1867
和我	-1868
害羞	-1869
左手	-1870
心跳	-1871
战场	-1872
打开	-1873
是谁	-1874
最为	-1875
腰间	-1876
辈子	-1877
雅琳	-1878
了一眼	-1879
将六郎	-1880
果然是	-1881
的看着	-1882
马三公子	-1883
▁听	-1884
低声	-1885
何况	-1886
喘着	-1887
外的	-1888
对她	-1889
就听	-1890
师兄	-1891
忍受	-1892
忘记	-1893
找到	-1894
朋薇	-1895
痛快	-1896
粮食	-1897
肆意	-1898
那般	-1899
银子	-1900
体内的	-1901
王夫人	-1902
的东西	-1903
▁温谨梅	-1904
一人	-1905
不在	-1906
乱的	-1907
佳人	-1908
做了	-1909
噗滋	-1910
头的	-1911
展开	-1912
年纪	-1913
幽香	-1914
时刻	-1915
月光	-1916
正经	-1917
点燃	-1918
王泽	-1919
着头	-1920
若无	-1921
走到	-1922
随即	-1923
马匪	-1924
不容易	-1925
宁采儿	-1926
手中的	-1927
真要是	-1928
见六郎	-1929
▁大周后	-1930
++++++++	-1931
原因	-1932
双修	-1933
只怕	-1934
家中	-1935
曾经	-1936
犹豫	-1937
脸红	-1938
螓首	-1939
解塘	-1940
身份	-1941
闭着	-1942
难过	-1943
深深地	-1944
的双腿	-1945
将自己的	-1946
▁司徒清雅	-1947
做的	-1948
前往	-1949
坚持	-1950
强壮	-1951
挺立	-1952
搂着	-1953
有所	-1954
木墙	-1955
润的	-1956
眼看	-1957
神功	-1958
精锐	-1959
视着	-1960
许久	-1961
了口气	-1962
后面的	-1963
娇羞的	-1964
欲仙欲	-1965
的玉乳	-1966
的玉臀	-1967
雪白的	-1968
龙枪的	-1969
这个时候	-1970
乖乖	-1971
剑法	-1972
发射	-1973
后退	-1974
含住	-1975
坐下	-1976
开口	-1977
来得	-1978
消失	-1979
白色	-1980
等到	-1981
薄的	-1982
蜜洞	-1983
通过	-1984
潘夫人	-1985
解塘关	-1986
颤抖着	-1987
东方姨娘	-1988
一颗	-1989
不清	-1990
不说	-1991
丰臀	-1992
兵的	-1993
包围	-1994
又问	-1995
反正	-1996
城门	-1997
年的	-1998
得意	-1999
我在	-2000
手上	-2001
损失	-2002
梦怀	-2003
特别	-2004
要求	-2005
转过	-2006
进出	-2007
那两	-2008
部位	-2009
重新	-2010
长枪	-2011
上面的	-2012
在他的	-2013
太好了	-2014
求求你	-2015
了一口气	-2016
乳头	-2017
了你	-2018
剑光	-2019
含着	-2020
回应	-2021
在下	-2022
娘子	-2023
快点	-2024
撤退	-2025
猛烈	-2026
率领	-2027
由于	-2028
蓓蕾	-2029
一开始	-2030
与六郎	-2031
了一些	-2032
了过来	-2033
却没有	-2034
大龟头	-2035
张静贤	-2036
的肉体	-2037
则是	-2038
到处	-2039
前方	-2040
受伤	-2041
嘤咛	-2042
大事	-2043
好啊	-2044
对你	-2045
最近	-2046
比较	-2047
满是	-2048
玉乳	-2049
瘫软	-2050
的气	-2051
至于	-2052
芬芳	-2053
说是	-2054
躺在	-2055
还未	-2056
遇到	-2057
两个人	-2058
动起来	-2059
有一种	-2060
美丽的	-2061
▁宋皇后	-2062
了一会儿	-2063
临州	-2064
也会	-2065
你在	-2066
力道	-2067
南华	-2068
头顶	-2069
完美	-2070
对待	-2071
年轻	-2072
我都	-2073
泄了	-2074
犹如	-2075
耳垂	-2076
达到	-2077
高贵	-2078
▁孟姜	-2079
为之	-2080
仍然	-2081
勉强	-2082
堂会	-2083
娇柔	-2084
成功	-2085
我这	-2086
手臂	-2087
掩护	-2088
是个	-2089
欲滴	-2090
沿着	-2091
脸色	-2092
莫非	-2093
被她	-2094
趁机	-2095
随时	-2096
七星楼	-2097
低声道	-2098
我们就	-2099
的大手	-2100
你是不是	-2101
在战龙的	-2102
这件事情	-2103
伤亡	-2104
双颊	-2105
安全	-2106
急道	-2107
惊喜	-2108
成为	-2109
我来	-2110
有个	-2111
狼妖	-2112
训练	-2113
一般的	-2114
你不是	-2115
张绿华	-2116
张若霞	-2117
的眼神	-2118
▁战龙说	-2119
▁符皇后	-2120
▁三	-2121
一处	-2122
内的	-2123
南附	-2124
吃了	-2125
名字	-2126
四处	-2127
威力	-2128
客气	-2129
忍耐	-2130
推开	-2131
朱唇	-2132
李璟	-2133
流出	-2134
甜美	-2135
神情	-2136
膨胀	-2137
边的	-2138
附近	-2139
用手指	-2140
眼看着	-2141
着他的	-2142
给六郎	-2143
▁朱玉婵	-2144
▁骊山圣母	-2145
与你	-2146
为你	-2147
伤口	-2148
偏偏	-2149
出手	-2150
北汉	-2151
太师	-2152
往上	-2153
柔情	-2154
激烈	-2155
火辣	-2156
白狼	-2157
的地	-2158
精液	-2159
纤纤	-2160
肥臀	-2161
轻微	-2162
静静	-2163
顶端	-2164
默默	-2165
一定是	-2166
你真是	-2167
微微的	-2168
想办法	-2169
死我了	-2170
看到了	-2171
慕容雪航的	-2172
一百	-2173
了他	-2174
使劲	-2175
列为	-2176
努力	-2177
嘴角	-2178
四肢	-2179
完了	-2180
射出	-2181
心思	-2182
我军	-2183
效果	-2184
泛滥	-2185
温千	-2186
空虚	-2187
红唇	-2188
肩头	-2189
还会	-2190
还没	-2191
饥渴	-2192
动人的	-2193
只不过	-2194
的阴道	-2195
在自己的	-2196
十足	-2197
发觉	-2198
吻上	-2199
唐艳	-2200
喝道	-2201
天生	-2202
实力	-2203
干净	-2204
快了	-2205
拉着	-2206
的热	-2207
肩上	-2208
腰身	-2209
轻抚	-2210
阴精	-2211
骨的	-2212
▁随着	-2213
也不能	-2214
可是我	-2215
地看着	-2216
的幽谷	-2217
美死了	-2218
樱桃小嘴	-2219
一分	-2220
一握	-2221
万分	-2222
万岁	-2223
丽娘	-2224
作战	-2225
几次	-2226
嫣红	-2227
子里	-2228
火炮	-2229
的将	-2230
纠缠	-2231
羞人	-2232
而来	-2233
那只	-2234
了上去	-2235
仁堂会	-2236
地说道	-2237
女人的	-2238
对六郎	-2239
弓弩手	-2240
程千龙	-2241
她的身体	-2242
媚眼如丝	-2243
__	-2244
作为	-2245
你又	-2246
关键	-2247
半天	-2248
听得	-2249
咏琪	-2250
处子	-2251
寂寞	-2252
就把	-2253
岳母	-2254
平坦	-2255
平静	-2256
每个	-2257
沉醉	-2258
的面	-2259
结束	-2260
绯红	-2261
美貌	-2262
腰部	-2263
蓬莱	-2264
表现	-2265
怎么样	-2266
滚烫的	-2267
的表情	-2268
不绝	-2269
丽的	-2270
动静	-2271
匪兵	-2272
口水	-2273
处理	-2274
妙的	-2275
娇声	-2276
很难	-2277
感激	-2278
才是	-2279
暗器	-2280
爱怜	-2281
硬挺	-2282
神色	-2283
粉脸	-2284
考虑	-2285
落在	-2286
蠕动	-2287
要想	-2288
随后	-2289
青娥	-2290
非要	-2291
鼎秋	-2292
两人的	-2293
南附军	-2294
散发着	-2295
淡淡的	-2296
的模样	-2297
绝色丽	-2298
身体的	-2299
...”	-2300
一见	-2301
也没	-2302
出口	-2303
向后	-2304
女将	-2305
宝飞	-2306
尽的	-2307
成的	-2308
更为	-2309
沸腾	-2310
满面	-2311
结合	-2312
绵绵	-2313
缠绕	-2314
老实	-2315
连续	-2316
黑色	-2317
一定会	-2318
心中的	-2319
想了想	-2320
是因为	-2321
沙宝飞	-2322
着她那	-2323
说什么	-2324
****	-2325
的呻吟声	-2326
闭上眼睛	-2327
一支	-2328
一震	-2329
佩服	-2330
升起	-2331
听见	-2332
好棒	-2333
好痒	-2334
娇啼	-2335
它们	-2336
异样	-2337
当时	-2338
微笑	-2339
忍着	-2340
狐狸	-2341
用来	-2342
秋平	-2343
路上	-2344
醒来	-2345
青城	-2346
马车	-2347
一口气	-2348
六郎又	-2349
强大的	-2350
白小姐	-2351
白凤凰的	-2352
一位	-2353
不安	-2354
之声	-2355
再来	-2356
吞吐	-2357
天了	-2358
头龙	-2359
将你	-2360
小巧	-2361
府的	-2362
没事	-2363
淋淋	-2364
猛的	-2365
白嫩	-2366
目标	-2367
着他	-2368
羞耻	-2369
观察	-2370
身躯	-2371
首先	-2372
做什么	-2373
大量的	-2374
她已经	-2375
很快就	-2376
最深处	-2377
赵夫人	-2378
龙秋平	-2379
一半	-2380
不久	-2381
不太	-2382
多么	-2383
夹住	-2384
对了	-2385
尽量	-2386
忘了	-2387
我啊	-2388
抽动	-2389
拉住	-2390
满脸	-2391
狂风	-2392
眉头	-2393
节奏	-2394
认真	-2395
越是	-2396
这小	-2397
迷离	-2398
霹雳	-2399
香唇	-2400
一时间	-2401
会不会	-2402
剧烈的	-2403
岳鼎秋	-2404
蓬莱岛	-2405
不知不觉	-2406
整个人都	-2407
知道自己	-2408
钦差大人	-2409
▁逍遥仙君	-2410
吴越水师的	-2411
不胜	-2412
与他	-2413
周围	-2414
呼呼	-2415
回事	-2416
声声	-2417
委屈	-2418
婉转	-2419
就好	-2420
开的	-2421
彷彿	-2422
才会	-2423
挺起	-2424
湿了	-2425
皇宫	-2426
被人	-2427
送入	-2428
透明	-2429
不住地	-2430
开始了	-2431
男人的	-2432
的乳头	-2433
的神色	-2434
的速度	-2435
一团	-2436
上头	-2437
不怕	-2438
不让	-2439
丰硕	-2440
乌兰	-2441
也好	-2442
升华	-2443
双唇	-2444
发泄	-2445
太过	-2446
工夫	-2447
房中	-2448
旋转	-2449
是你	-2450
淋漓	-2451
清晰	-2452
激荡	-2453
爱死	-2454
眼下	-2455
衣襟	-2456
象归	-2457
颤动	-2458
▁看着	-2459
也不是	-2460
夏梦怀	-2461
好不好	-2462
敏感的	-2463
没有人	-2464
的时间	-2465
还不是	-2466
这些人	-2467
六郎心中	-2468
丝毫	-2469
几下	-2470
同伴	-2471
在我	-2472
将会	-2473
师妹	-2474
拒绝	-2475
支持	-2476
有过	-2477
松林	-2478
点了	-2479
特殊	-2480
百姓	-2481
算是	-2482
自从	-2483
说完	-2484
跟你	-2485
阳精	-2486
▁看到	-2487
了几下	-2488
告诉你	-2489
姐姐的	-2490
微笑道	-2491
▁战龙道	-2492
天山御剑	-2493
一根	-2494
不挂	-2495
世界	-2496
也被	-2497
你先	-2498
十年	-2499
品尝	-2500
地在	-2501
套弄	-2502
总是	-2503
我去	-2504
按摩	-2505
方的	-2506
时的	-2507
暗自	-2508
极力	-2509
炮弹	-2510
登时	-2511
经常	-2512
美得	-2513
羞怯	-2514
记得	-2515
车舟	-2516
逃跑	-2517
风流	-2518
▁沈慈	-2519
出声来	-2520
我不是	-2521
的意思	-2522
的玉手	-2523
看了看	-2524
说不出的	-2525
,「	-2526
京城	-2527
伤势	-2528
住她	-2529
刹那	-2530
又有	-2531
受了	-2532
可见	-2533
大胆	-2534
奋力	-2535
官兵	-2536
密室	-2537
接近	-2538
改变	-2539
方面	-2540
标枪	-2541
欧阳	-2542
洪多	-2543
混乱	-2544
看你	-2545
红花	-2546
背叛	-2547
闻言	-2548
风沙	-2549
不可能	-2550
二十万	-2551
在这儿	-2552
天晚上	-2553
就好像	-2554
来不及	-2555
炼狱门	-2556
的美妙	-2557
耶律洪多	-2558
一层	-2559
个个	-2560
半个	-2561
古天	-2562
吃惊	-2563
吓得	-2564
四十	-2565
大片	-2566
大臣	-2567
娇软	-2568
将他	-2569
小口	-2570
帮忙	-2571
心动	-2572
想法	-2573
攻城	-2574
施展	-2575
服侍	-2576
来说	-2577
汹涌	-2578
火焰	-2579
然而	-2580
用了	-2581
畅快	-2582
细细	-2583
绝伦	-2584
金沙	-2585
香肩	-2586
的呼吸	-2587
真的是	-2588
▁水清影	-2589
一点一点	-2590
一心	-2591
任务	-2592
伤害	-2593
俊虎	-2594
保证	-2595
又羞	-2596
地的	-2597
外边	-2598
将手	-2599
干得	-2600
慈儿	-2601
我家	-2602
我才	-2603
我说	-2604
敌军	-2605
暧昧	-2606
有意	-2607
林东	-2608
桃花	-2609
武器	-2610
清丽	-2611
的高	-2612
示意	-2613
芳香	-2614
蜜壶	-2615
见他	-2616
身为	-2617
透了	-2618
雪衣	-2619
六郎在	-2620
再一次	-2621
变成了	-2622
呻吟着	-2623
喝一声	-2624
就如同	-2625
差不多	-2626
怪不得	-2627
戴青娥	-2628
接下来	-2629
杨家将	-2630
的命令	-2631
的阴户	-2632
自己也	-2633
象归元	-2634
这就是	-2635
金沙滩	-2636
▁苏蒙云若	-2637
风火雷霆阵	-2638
一剑	-2639
一来	-2640
不容	-2641
不然	-2642
不足	-2643
之极	-2644
凝脂	-2645
压抑	-2646
多久	-2647
女神	-2648
如兰	-2649
就能	-2650
就让	-2651
强大	-2652
形容	-2653
很有	-2654
怀抱	-2655
掉了	-2656
放到	-2657
朦胧	-2658
李德	-2659
正月	-2660
江湖	-2661
泛起	-2662
火烫	-2663
空气	-2664
美臀	-2665
菊花	-2666
言语	-2667
轩辕	-2668
这等	-2669
选择	-2670
鲜红	-2671
麻烦	-2672
了一把	-2673
又一次	-2674
欧阳明	-2675
走过来	-2676
那一对	-2677
露出一	-2678
马上就要	-2679
一动	-2680
人间	-2681
冲刺	-2682
前后	-2683
加速	-2684
太子	-2685
抵挡	-2686
日后	-2687
滚滚	-2688
牙齿	-2689
石头	-2690
紫荆	-2691
胸脯	-2692
能力	-2693
跟随	-2694
邪恶	-2695
了上来	-2696
令六郎	-2697
头一次	-2698
完美的	-2699
得六郎	-2700
是一个	-2701
根本就	-2702
的同时	-2703
的情欲	-2704
那就是	-2705
难道你	-2706
六郎已经	-2707
欧阳明慧	-2708
看了一眼	-2709
▁六郎嘿嘿	-2710
不由自主地	-2711
和慕容雪航	-2712
不去	-2713
不等	-2714
与她	-2715
严重	-2716
中央	-2717
体会	-2718
你来	-2719
做出	-2720
光洁	-2721
喉咙	-2722
天远	-2723
好似	-2724
已被	-2725
怀疑	-2726
急速	-2727
摇摆	-2728
月芝	-2729
汪汪	-2730
热气	-2731
熊熊	-2732
狂野	-2733
着了	-2734
腾格	-2735
道理	-2736
那对	-2737
▁第二	-2738
在怀中	-2739
娇声道	-2740
怎么能	-2741
我们俩	-2742
有一些	-2743
杜月芝	-2744
林东虎	-2745
眼前的	-2746
说不定	-2747
身下的	-2748
韩天远	-2749
▁晋王妃	-2750
秀宁公主	-2751
坚挺的龙枪	-2752
与我	-2753
为难	-2754
之势	-2755
五千	-2756
仙子	-2757
前的	-2758
向薇	-2759
吸引	-2760
天电	-2761
小姑	-2762
手的	-2763
本王	-2764
模糊	-2765
涌出	-2766
润滑	-2767
的亲	-2768
研磨	-2769
碧眼	-2770
美眸	-2771
良久	-2772
蜻蜓	-2773
覆盖	-2774
负责	-2775
轻点	-2776
还想	-2777
那儿	-2778
魔君	-2779
不住了	-2780
好六郎	-2781
对战龙	-2782
有力的	-2783
的女子	-2784
硕大的	-2785
红花亭	-2786
身上下	-2787
▁慕容雨秋	-2788
88	-2789
一头	-2790
不必	-2791
丝丝	-2792
丝绸	-2793
习惯	-2794
云雨	-2795
先是	-2796
兵力	-2797
再度	-2798
冷凝	-2799
千年	-2800
即将	-2801
各种	-2802
天的	-2803
契丹	-2804
奶头	-2805
她俩	-2806
好在	-2807
宫女	-2808
山的	-2809
形状	-2810
快意	-2811
抚慰	-2812
星煞	-2813
生活	-2814
移动	-2815
紧贴	-2816
细致	-2817
脸蛋	-2818
衣裳	-2819
趁着	-2820
难得	-2821
颠倒	-2822
之间的	-2823
了一阵	-2824
冷凝香	-2825
到这里	-2826
紫荆关	-2827
若不是	-2828
要不要	-2829
长时间	-2830
星煞魔君	-2831
&&	-2832
不像	-2833
两颗	-2834
之力	-2835
仍是	-2836
优势	-2837
优美	-2838
何时	-2839
侯爷	-2840
冰雪	-2841
到达	-2842
前来	-2843
双目	-2844
喊着	-2845
大门	-2846
如花	-2847
床榻	-2848
延寿	-2849
技巧	-2850
拦住	-2851
拨开	-2852
时机	-2853
期待	-2854
梦兰	-2855
欲念	-2856
死死	-2857
清纯	-2858
游走	-2859
算了	-2860
红了	-2861
翻身	-2862
这边	-2863
金蝉	-2864
银牙	-2865
险些	-2866
陷入	-2867
额头	-2868
▁二人	-2869
不能再	-2870
带来的	-2871
李德明	-2872
柔声道	-2873
没有了	-2874
的就是	-2875
的眼睛	-2876
的美丽	-2877
简直是	-2878
肯定是	-2879
陈延寿	-2880
兰花公主	-2881
南宫雪衣	-2882
狐狸惜惜	-2883
不对	-2884
两手	-2885
中原	-2886
内力	-2887
十几	-2888
却也	-2889
及时	-2890
只想	-2891
各自	-2892
吐出	-2893
四人	-2894
娇挺	-2895
尚未	-2896
惊慌	-2897
战的	-2898
无可	-2899
有种	-2900
来人	-2901
楚照	-2902
白的	-2903
的血	-2904
给了	-2905
而去	-2906
表示	-2907
赶到	-2908
蹂躏	-2909
远远	-2910
长江	-2911
随之	-2912
顺利	-2913
三个人	-2914
感受着	-2915
明白了	-2916
晶莹的	-2917
楚照良	-2918
的机会	-2919
给战龙	-2920
进她的	-2921
绝色丽人	-2922
▁白凤凰道	-2923
碧眼狐狸惜惜	-2924
----------------	-2925
一名	-2926
一寸	-2927
万千	-2928
不止	-2929
丛珊	-2930
丰盈	-2931
半点	-2932
双臂	-2933
嗯嗯	-2934
够了	-2935
天空	-2936
官员	-2937
家人	-2938
将这	-2939
就想	-2940
干脆	-2941
微颤	-2942
恩爱	-2943
我吧	-2944
放肆	-2945
昨夜	-2946
梦莉	-2947
楚国	-2948
每天	-2949
温热	-2950
潺潺	-2951
猜想	-2952
的头	-2953
看出	-2954
答答	-2955
行事	-2956
见了	-2957
解释	-2958
诸位	-2959
运用	-2960
酥痒	-2961
馗罗	-2962
剩下的	-2963
又开始	-2964
吃了一	-2965
吸吮着	-2966
好哥哥	-2967
握住了	-2968
散发出	-2969
爱抚着	-2970
缓缓地	-2971
贪婪的	-2972
赤裸裸	-2973
这个小	-2974
那么多	-2975
都已经	-2976
————	-2977
▁六郎将	-2978
一丝不挂	-2979
欲仙欲死	-2980
不肯	-2981
丰润	-2982
了三	-2983
你呢	-2984
你都	-2985
内裤	-2986
分别	-2987
占领	-2988
向来	-2989
大口	-2990
天豪	-2991
学习	-2992
战争	-2993
春心	-2994
极度	-2995
汗珠	-2996
满满	-2997
灵活	-2998
皮肤	-2999
穴道	-3000
穿越	-3001
箭雨	-3002
织网	-3003
胡说	-3004
脱了	-3005
解决	-3006
辛苦	-3007
黑风	-3008
▁她的	-3009
▁这时	-3010
一股股	-3011
你们的	-3012
六郎却	-3013
六郎就	-3014
六郎那	-3015
到她的	-3016
好相公	-3017
弓箭手	-3018
敌人的	-3019
无力地	-3020
最后的	-3021
段时间	-3022
深深的	-3023
的秀发	-3024
的纤腰	-3025
终于是	-3026
身边的	-3027
软绵绵	-3028
销魂蚀	-3029
▁文素心	-3030
也越来越	-3031
六郎知道	-3032
天电织网	-3033
一生	-3034
乳峰	-3035
五色	-3036
亵衣	-3037
便宜	-3038
元葵	-3039
先锋	-3040
光泽	-3041
全然	-3042
出水	-3043
剔透	-3044
嗔道	-3045
在一	-3046
大大	-3047
将其	-3048
平滑	-3049
想必	-3050
打击	-3051
投石	-3052
揉着	-3053
明日	-3054
星眸	-3055
爱不	-3056
百年	-3057
的绝	-3058
穴口	-3059
笑了	-3060
等人	-3061
索性	-3062
经历	-3063
缓慢	-3064
缺口	-3065
老祖	-3066
裤子	-3067
越发	-3068
闪电	-3069
防线	-3070
阳光	-3071
骄傲	-3072
两个小	-3073
传来的	-3074
你自己	-3075
在手中	-3076
把龙枪	-3077
无限的	-3078
死人了	-3079
激烈的	-3080
狠狠的	-3081
艨战船	-3082
被自己	-3083
要不然	-3084
让他们	-3085
轻声道	-3086
这么快	-3087
▁柴明歌	-3088
▁这时候	-3089
自己的身体	-3090
不懂	-3091
伏在	-3092
似是	-3093
体香	-3094
作用	-3095
光芒	-3096
别的	-3097
名叫	-3098
声响	-3099
大半	-3100
太监	-3101
娇小	-3102
导致	-3103
就有	-3104
感情	-3105
手道	-3106
扩散	-3107
扶着	-3108
提关	-3109
未能	-3110
浪叫	-3111
海天	-3112
温香	-3113
甚是	-3114
百人	-3115
直奔	-3116
稍稍	-3117
紧密	-3118
色手	-3119
莫名	-3120
酸麻	-3121
陪你	-3122
高涨	-3123
鼻子	-3124
▁说话	-3125
你可要	-3126
吓了一	-3127
回来了	-3128
如此的	-3129
娇羞地	-3130
杨六郎	-3131
每一次	-3132
玉提关	-3133
的乳峰	-3134
的小嘴	-3135
的敌人	-3136
的舌头	-3137
笑着说	-3138
绝美的	-3139
羞人的	-3140
舍不得	-3141
起来了	-3142
这两天	-3143
里面的	-3144
万一	-3145
不信	-3146
也很	-3147
八姐	-3148
其余	-3149
再看	-3150
几分	-3151
刺入	-3152
十大	-3153
大开	-3154
大营	-3155
始终	-3156
小手	-3157
少妇	-3158
尖两	-3159
岂能	-3160
志浩	-3161
抖动	-3162
掌握	-3163
无暇	-3164
本事	-3165
条件	-3166
死去	-3167
深情	-3168
游戏	-3169
焦急	-3170
的问	-3171
破了	-3172
穿了	-3173
终究	-3174
胳膊	-3175
色狼	-3176
艳丽	-3177
菲亚	-3178
赵普	-3179
过后	-3180
迷醉	-3181
那你	-3182
下面的	-3183
不愿意	-3184
也只能	-3185
位娇妻	-3186
凤凰楼	-3187
到了极	-3188
普通的	-3189
灼热的	-3190
身子一	-3191
陈志浩	-3192
列为娇妻	-3193
好不容易	-3194
幽谷里头	-3195
心中一阵	-3196
我们姐妹	-3197
金蝉老祖	-3198
▁六郎知道	-3199
一场	-3200
不舍	-3201
专门	-3202
亲手	-3203
他是	-3204
光闪	-3205
刃刀	-3206
哪儿	-3207
喜悦	-3208
喷射	-3209
境界	-3210
增加	-3211
好多	-3212
娇靥	-3213
对他	-3214
弱的	-3215
必然	-3216
意乱	-3217
我真	-3218
抱起	-3219
方式	-3220
朋友	-3221
柔媚	-3222
江山	-3223
泄身	-3224
滋润	-3225
滑落	-3226
灼热	-3227
端庄	-3228
那边	-3229
阳具	-3230
陶斌	-3231
高强	-3232
▁令公	-3233
▁众女	-3234
▁苏姬	-3235
临州城	-3236
其他的	-3237
可不是	-3238
在地上	-3239
有一个	-3240
的冲动	-3241
另一只手	-3242
尖两刃刀	-3243
现在已经	-3244
▁耶律长亭	-3245
」,	-3246
不够	-3247
专心	-3248
两名	-3249
做到	-3250
催促	-3251
又在	-3252
向外	-3253
听了	-3254
呈现	-3255
回过	-3256
在此	-3257
声中	-3258
好生	-3259
属于	-3260
平王	-3261
微闭	-3262
心底	-3263
抓紧	-3264
方便	-3265
晋阳	-3266
曼妙	-3267
最终	-3268
机关	-3269
流水	-3270
浓浓	-3271
父王	-3272
状态	-3273
看我	-3274
秘密	-3275
穴心	-3276
细腰	-3277
罗裙	-3278
肌玉	-3279
般地	-3280
袭击	-3281
试试	-3282
错了	-3283
将龙枪	-3284
沈天豪	-3285
海天富	-3286
渐渐地	-3287
现在的	-3288
白嫩的	-3289
粗大的	-3290
这个人	-3291
黑风寨	-3292
▁六郎又	-3293
▁周雅芙	-3294
孟良焦赞	-3295
修长的玉腿	-3296
丁香	-3297
中午	-3298
几日	-3299
动弹	-3300
听着	-3301
大汉	-3302
小小	-3303
岩浆	-3304
床单	-3305
心兰	-3306
所在	-3307
把你	-3308
招呼	-3309
步兵	-3310
漂亮	-3311
热血	-3312
疼爱	-3313
神经	-3314
细嫩	-3315
脑海	-3316
艳的	-3317
融化	-3318
这下	-3319
送上	-3320
隐约	-3321
香茹	-3322
一辈子	-3323
不可以	-3324
你真的	-3325
入她的	-3326
到现在	-3327
只见她	-3328
告诉我	-3329
恨不得	-3330
是那么	-3331
水汪汪	-3332
沈俊虎	-3333
的武功	-3334
的身躯	-3335
美妙的	-3336
脸一红	-3337
舒服吗	-3338
舒服的	-3339
说出来	-3340
边蜻蜓	-3341
四象归元	-3342
^^^^^^^^	-3343
丝偙	-3344
中凤	-3345
之心	-3346
亲密	-3347
保持	-3348
克丽	-3349
只听	-3350
同门	-3351
商量	-3352
大喜	-3353
娇呼	-3354
尔多	-3355
干娘	-3356
忙道	-3357
所未	-3358
掌心	-3359
掌门	-3360
本书	-3361
来个	-3362
极品	-3363
死亡	-3364
消耗	-3365
的主	-3366
的口	-3367
破坏	-3368
第三	-3369
葡萄	-3370
调戏	-3371
轻颤	-3372
金彤	-3373
门口	-3374
阴核	-3375
高挺	-3376
修罗界	-3377
刀手们	-3378
向六郎	-3379
应该是	-3380
我没有	-3381
沈中凤	-3382
温千秋	-3383
温向薇	-3384
玉门关	-3385
白色的	-3386
的阴精	-3387
的香舌	-3388
秋香茹	-3389
给自己	-3390
脸上的	-3391
这两个	-3392
那样的	-3393
鄂尔多	-3394
重重的	-3395
长长的	-3396
▁六郎见	-3397
两位娘娘	-3398
亲了一口	-3399
住六郎的	-3400
克丽丝偙	-3401
在四小姐	-3402
忍不住了	-3403
★☆★☆★☆★☆★☆★☆★☆★☆	-3404
一回	-3405
一齐	-3406
下手	-3407
你能	-3408
内侧	-3409
厄尔	-3410
可怕	-3411
咬牙	-3412
哎唷	-3413
地带	-3414
大约	-3415
宋雪	-3416
容颜	-3417
平安	-3418
应付	-3419
微张	-3420
心情	-3421
心想	-3422
所谓	-3423
持续	-3424
沐浴	-3425
照顾	-3426
的性	-3427
羞赧	-3428
能量	-3429
脑中	-3430
舔舐	-3431
表妹	-3432
轻薄	-3433
那件	-3434
顶着	-3435
高声	-3436
▁因为	-3437
为自己	-3438
发生了	-3439
大家都	-3440
宋雪怡	-3441
我要你	-3442
更多的	-3443
白松林	-3444
的大军	-3445
脚步声	-3446
这不是	-3447
进入了	-3448
长平王	-3449
▁六郎说	-3450
又是一阵	-3451
晶莹剔透	-3452
没有什么	-3453
鄂尔多旗	-3454
三分	-3455
丹田	-3456
伴着	-3457
先前	-3458
即便	-3459
却被	-3460
口上	-3461
向她	-3462
处的	-3463
大笑	-3464
姿态	-3465
寇准	-3466
寻找	-3467
屋中	-3468
得住	-3469
急着	-3470
拥有	-3471
探索	-3472
撩拨	-3473
易水	-3474
星辰	-3475
是否	-3476
松开	-3477
极其	-3478
洁的	-3479
活着	-3480
清醒	-3481
滑动	-3482
滴滴	-3483
的下	-3484
的后	-3485
笑容	-3486
而入	-3487
脚下	-3488
范围	-3489
触感	-3490
足以	-3491
适应	-3492
镇守	-3493
,	-3494
.	-3495
的	-3496
一	-3497
▁	-3498
。	-3499
了	-3500
不	-3501
是	-3502
六	-3503
“	-3504
”	-3505
郎	-3506
着	-3507
在	-3508
我	-3509
道	-3510
你	-3511
来	-3512
:	-3513
上	-3514
她	-3515
人	-3516
有	-3517
这	-3518
下	-3519
大	-3520
龙	-3521
那	-3522
到	-3523
就	-3524
身	-3525
中	-3526
要	-3527
地	-3528
战	-3529
说	-3530
手	-3531
后	-3532
好	-3533
小	-3534
自	-3535
出	-3536
姐	-3537
也	-3538
心	-3539
他	-3540
个	-3541
?	-3542
得	-3543
子	-3544
将	-3545
们	-3546
起	-3547
之	-3548
然	-3549
看	-3550
时	-3551
头	-3552
己	-3553
过	-3554
还	-3555
白	-3556
都	-3557
雪	-3558
啊	-3559
去	-3560
可	-3561
又	-3562
四	-3563
动	-3564
声	-3565
玉	-3566
只	-3567
天	-3568
住	-3569
么	-3570
!	-3571
已	-3572
轻	-3573
想	-3574
开	-3575
娇	-3576
面	-3577
没	-3578
和	-3579
如	-3580
为	-3581
美	-3582
会	-3583
被	-3584
前	-3585
里	-3586
能	-3587
样	-3588
无	-3589
对	-3590
力	-3591
感	-3592
紧	-3593
两	-3594
让	-3595
经	-3596
花	-3597
用	-3598
情	-3599
女	-3600
、	-3601
而	-3602
口	-3603
体	-3604
发	-3605
以	-3606
军	-3607
双	-3608
快	-3609
眼	-3610
点	-3611
儿	-3612
水	-3613
笑	-3614
明	-3615
真	-3616
神	-3617
些	-3618
见	-3619
知	-3620
兵	-3621
意	-3622
气	-3623
再	-3624
进	-3625
现	-3626
觉	-3627
间	-3628
多	-3629
红	-3630
容	-3631
马	-3632
高	-3633
却	-3634
回	-3635
枪	-3636
入	-3637
但	-3638
更	-3639
家	-3640
阵	-3641
全	-3642
三	-3643
主	-3644
死	-3645
事	-3646
清	-3647
满	-3648
微	-3649
柔	-3650
火	-3651
正	-3652
受	-3653
分	-3654
生	-3655
光	-3656
方	-3657
妃	-3658
长	-3659
边	-3660
色	-3661
把	-3662
处	-3663
给	-3664
越	-3665
此	-3666
什	-3667
若	-3668
慕	-3669
紫	-3670
航	-3671
才	-3672
于	-3673
羞	-3674
云	-3675
与	-3676
成	-3677
凤	-3678
次	-3679
向	-3680
脸	-3681
山	-3682
深	-3683
从	-3684
亲	-3685
十	-3686
妹	-3687
直	-3688
爱	-3689
服	-3690
娘	-3691
所	-3692
当	-3693
听	-3694
香	-3695
热	-3696
难	-3697
师	-3698
皇	-3699
连	-3700
般	-3701
内	-3702
几	-3703
公	-3704
种	-3705
慢	-3706
放	-3707
二	-3708
话	-3709
其	-3710
同	-3711
太	-3712
最	-3713
蕊	-3714
萧	-3715
带	-3716
打	-3717
欲	-3718
城	-3719
周	-3720
王	-3721
滑	-3722
令	-3723
温	-3724
虽	-3725
实	-3726
由	-3727
本	-3728
日	-3729
腿	-3730
强	-3731
候	-3732
外	-3733
挺	-3734
门	-3735
很	-3736
问	-3737
软	-3738
似	-3739
行	-3740
加	-3741
衣	-3742
张	-3743
插	-3744
重	-3745
刚	-3746
怎	-3747
叫	-3748
相	-3749
嫩	-3750
法	-3751
胸	-3752
凰	-3753
定	-3754
吧	-3755
嗯	-3756
绰	-3757
哥	-3758
风	-3759
宝	-3760
罗	-3761
走	-3762
灵	-3763
肉	-3764
老	-3765
像	-3766
弟	-3767
接	-3768
做	-3769
唇	-3770
冲	-3771
命	-3772
关	-3773
世	-3774
今	-3775
作	-3776
部	-3777
位	-3778
司	-3779
合	-3780
夫	-3781
乳	-3782
腰	-3783
穴	-3784
舒	-3785
飞	-3786
吸	-3787
弄	-3788
因	-3789
急	-3790
吗	-3791
等	-3792
激	-3793
元	-3794
望	-3795
功	-3796
比	-3797
第	-3798
使	-3799
嘴	-3800
阴	-3801
细	-3802
流	-3803
何	-3804
剑	-3805
抚	-3806
股	-3807
千	-3808
随	-3809
极	-3810
吻	-3811
目	-3812
指	-3813
尽	-3814
东	-3815
抱	-3816
精	-3817
完	-3818
始	-3819
烈	-3820
绝	-3821
万	-3822
峰	-3823
刺	-3824
击	-3825
性	-3826
痛	-3827
兰	-3828
辽	-3829
攻	-3830
应	-3831
惊	-3832
颤	-3833
幽	-3834
杀	-3835
少	-3836
舌	-3837
干	-3838
转	-3839
年	-3840
淫	-3841
丝	-3842
酥	-3843
倒	-3844
修	-3845
臀	-3846
便	-3847
丽	-3848
半	-3849
抽	-3850
程	-3851
南	-3852
虎	-3853
早	-3854
往	-3855
先	-3856
丰	-3857
嫂	-3858
怕	-3859
落	-3860
石	-3861
英	-3862
突	-3863
忍	-3864
吟	-3865
竟	-3866
摸	-3867
刀	-3868
秀	-3869
血	-3870
姑	-3871
原	-3872
顶	-3873
林	-3874
母	-3875
名	-3876
怀	-3877
西	-3878
跟	-3879
爷	-3880
猛	-3881
断	-3882
-	-3883
射	-3884
停	-3885
呼	-3886
空	-3887
果	-3888
息	-3889
并	-3890
黑	-3891
吃	-3892
渐	-3893
害	-3894
阳	-3895
喜	-3896
梅	-3897
乱	-3898
宋	-3899
男	-3900
片	-3901
呢	-3902
整	-3903
躯	-3904
百	-3905
伤	-3906
忙	-3907
别	-3908
平	-3909
朝	-3910
士	-3911
李	-3912
湿	-3913
立	-3914
足	-3915
缓	-3916
惜	-3917
箭	-3918
床	-3919
喘	-3920
狂	-3921
媚	-3922
房	-3923
终	-3924
春	-3925
解	-3926
哼	-3927
伸	-3928
华	-3929
敌	-3930
变	-3931
交	-3932
压	-3933
迷	-3934
欢	-3935
烟	-3936
浑	-3937
月	-3938
思	-3939
速	-3940
反	-3941
郡	-3942
艳	-3943
润	-3944
兴	-3945
未	-3946
纤	-3947
宫	-3948
路	-3949
势	-3950
领	-3951
影	-3952
父	-3953
即	-3954
近	-3955
送	-3956
摇	-3957
准	-3958
五	-3959
露	-3960
收	-3961
离	-3962
步	-3963
谷	-3964
蒙	-3965
乎	-3966
哎	-3967
至	-3968
哦	-3969
根	-3970
非	-3971
肌	-3972
远	-3973
条	-3974
坚	-3975
荡	-3976
杰	-3977
含	-3978
数	-3979
歌	-3980
粉	-3981
蜜	-3982
刻	-3983
管	-3984
许	-3985
队	-3986
且	-3987
掌	-3988
算	-3989
传	-3990
帮	-3991
仙	-3992
求	-3993
雅	-3994
任	-3995
形	-3996
安	-3997
静	-3998
每	-3999
必	-4000
洞	-4001
背	-4002
揉	-4003
抖	-4004
圆	-4005
低	-4006
呻	-4007
密	-4008
浪	-4009
船	-4010
够	-4011
坏	-4012
该	-4013
及	-4014
金	-4015
结	-4016
失	-4017
潘	-4018
敢	-4019
底	-4020
通	-4021
楚	-4022
暗	-4023
办	-4024
活	-4025
味	-4026
度	-4027
找	-4028
握	-4029
粗	-4030
扭	-4031
武	-4032
备	-4033
潮	-4034
散	-4035
肤	-4036
顺	-4037
圣	-4038
续	-4039
青	-4040
穆	-4041
晚	-4042
物	-4043
苗	-4044
巨	-4045
妙	-4046
赶	-4047
透	-4048
佛	-4049
芳	-4050
雨	-4051
居	-4052
哪	-4053
显	-4054
爽	-4055
硬	-4056
穿	-4057
亮	-4058
狠	-4059
冷	-4060
件	-4061
理	-4062
首	-4063
表	-4064
杨	-4065
破	-4066
乐	-4067
守	-4068
睛	-4069
禁	-4070
沙	-4071
言	-4072
坐	-4073
耳	-4074
诱	-4075
贵	-4076
麻	-4077
脱	-4078
梦	-4079
机	-4080
古	-4081
雁	-4082
尖	-4083
退	-4084
量	-4085
赵	-4086
依	-4087
岳	-4088
海	-4089
河	-4090
狼	-4091
常	-4092
咬	-4093
沉	-4094
闭	-4095
滋	-4096
制	-4097
拉	-4098
桂	-4099
愈	-4100
章	-4101
众	-4102
信	-4103
呀	-4104
跳	-4105
姥	-4106
差	-4107
谁	-4108
待	-4109
留	-4110
怒	-4111
兄	-4112
星	-4113
桃	-4114
抓	-4115
痒	-4116
另	-4117
玩	-4118
顿	-4119
八	-4120
久	-4121
音	-4122
充	-4123
律	-4124
钟	-4125
奇	-4126
挑	-4127
摆	-4128
冰	-4129
脚	-4130
泄	-4131
场	-4132
朱	-4133
苦	-4134
持	-4135
保	-4136
告	-4137
甜	-4138
搂	-4139
触	-4140
按	-4141
秋	-4142
魂	-4143
九	-4144
怪	-4145
液	-4146
洁	-4147
波	-4148
闪	-4149
骨	-4150
七	-4151
夜	-4152
厉	-4153
隐	-4154
异	-4155
喔	-4156
苑	-4157
骑	-4158
则	-4159
酒	-4160
提	-4161
消	-4162
围	-4163
利	-4164
君	-4165
弹	-4166
右	-4167
吮	-4168
尤	-4169
答	-4170
俩	-4171
喝	-4172
记	-4173
叹	-4174
语	-4175
雄	-4176
护	-4177
救	-4178
腻	-4179
妻	-4180
奋	-4181
站	-4182
化	-4183
樱	-4184
缠	-4185
苏	-4186
磨	-4187
贴	-4188
吴	-4189
飘	-4190
孟	-4191
鲜	-4192
认	-4193
支	-4194
宗	-4195
滚	-4196
江	-4197
切	-4198
「	-4199
练	-4200
国	-4201
照	-4202
府	-4203
探	-4204
止	-4205
官	-4206
」	-4207
夹	-4208
掉	-4209
偷	-4210
左	-4211
器	-4212
腹	-4213
继	-4214
肩	-4215
它	-4216
迎	-4217
易	-4218
享	-4219
妖	-4220
熟	-4221
抬	-4222
楼	-4223
煜	-4224
愿	-4225
推	-4226
车	-4227
龟	-4228
洪	-4229
银	-4230
咱	-4231
招	-4232
撞	-4233
线	-4234
良	-4235
松	-4236
御	-4237
徒	-4238
疼	-4239
新	-4240
木	-4241
喊	-4242
盖	-4243
翻	-4244
助	-4245
唔	-4246
沈	-4247
汗	-4248
耶	-4249
决	-4250
伏	-4251
客	-4252
致	-4253
弓	-4254
胜	-4255
姿	-4256
拿	-4257
靠	-4258
端	-4259
陆	-4260
请	-4261
醉	-4262
响	-4263
柳	-4264
湖	-4265
烫	-4266
睡	-4267
文	-4268
赤	-4269
追	-4270
取	-4271
引	-4272
涌	-4273
层	-4274
视	-4275
报	-4276
包	-4277
既	-4278
休	-4279
甲	-4280
醒	-4281
舔	-4282
挥	-4283
暴	-4284
壮	-4285
总	-4286
各	-4287
擦	-4288
臂	-4289
晕	-4290
者	-4291
试	-4292
逃	-4293
嘿	-4294
顾	-4295
凉	-4296
墙	-4297
计	-4298
逗	-4299
淡	-4300
象	-4301
蛋	-4302
黄	-4303
复	-4304
临	-4305
况	-4306
牙	-4307
烧	-4308
晋	-4309
界	-4310
或	-4311
罢	-4312
抗	-4313
错	-4314
鼻	-4315
腾	-4316
调	-4317
乌	-4318
薄	-4319
抵	-4320
棒	-4321
跑	-4322
绵	-4323
占	-4324
吐	-4325
识	-4326
暖	-4327
曲	-4328
堂	-4329
劲	-4330
态	-4331
敏	-4332
装	-4333
捏	-4334
角	-4335
炮	-4336
景	-4337
投	-4338
诉	-4339
眉	-4340
运	-4341
余	-4342
齐	-4343
除	-4344
裤	-4345
;	-4346
需	-4347
喷	-4348
嘛	-4349
单	-4350
盈	-4351
防	-4352
举	-4353
泪	-4354
义	-4355
念	-4356
户	-4357
肚	-4358
胴	-4359
哈	-4360
恶	-4361
掩	-4362
袭	-4363
饱	-4364
扑	-4365
摩	-4366
教	-4367
营	-4368
+	-4369
毒	-4370
仿	-4371
达	-4372
忘	-4373
岛	-4374
铁	-4375
甚	-4376
秘	-4377
脑	-4378
草	-4379
裸	-4380
配	-4381
巧	-4382
唐	-4383
威	-4384
药	-4385
雷	-4386
初	-4387
贝	-4388
悄	-4389
毛	-4390
丢	-4391
升	-4392
熙	-4393
玄	-4394
促	-4395
具	-4396
姬	-4397
颈	-4398
纷	-4399
耸	-4400
躺	-4401
简	-4402
注	-4403
排	-4404
展	-4405
浓	-4406
寒	-4407
屁	-4408
派	-4409
珠	-4410
魔	-4411
斗	-4412
须	-4413
谢	-4414
弱	-4415
代	-4416
颊	-4417
姜	-4418
混	-4419
布	-4420
肯	-4421
险	-4422
拥	-4423
集	-4424
逐	-4425
换	-4426
弩	-4427
毫	-4428
晶	-4429
游	-4430
系	-4431
凝	-4432
特	-4433
缩	-4434
颗	-4435
贼	-4436
眸	-4437
侧	-4438
采	-4439
震	-4440
壁	-4441
电	-4442
皮	-4443
北	-4444
涨	-4445
番	-4446
控	-4447
柴	-4448
陶	-4449
严	-4450
宁	-4451
尚	-4452
幸	-4453
挡	-4454
搓	-4455
移	-4456
亭	-4457
永	-4458
闻	-4459
炼	-4460
挤	-4461
仅	-4462
寸	-4463
牛	-4464
群	-4465
莹	-4466
妇	-4467
慈	-4468
丈	-4469
勾	-4470
泛	-4471
约	-4472
赞	-4473
团	-4474
段	-4475
肥	-4476
恨	-4477
限	-4478
匪	-4479
屋	-4480
躲	-4481
败	-4482
遥	-4483
模	-4484
素	-4485
吁	-4486
故	-4487
旗	-4488
术	-4489
畅	-4490
贞	-4491
仍	-4492
俏	-4493
划	-4494
谨	-4495
学	-4496
臣	-4497
藏	-4498
负	-4499
婆	-4500
略	-4501
胀	-4502
座	-4503
格	-4504
稍	-4505
剧	-4506
疯	-4507
耐	-4508
凑	-4509
尝	-4510
毕	-4511
滴	-4512
骊	-4513
吞	-4514
扎	-4515
偏	-4516
恐	-4517
慌	-4518
渴	-4519
拒	-4520
昨	-4521
鼓	-4522
呵	-4523
盘	-4524
舞	-4525
句	-4526
棠	-4527
横	-4528
秦	-4529
符	-4530
索	-4531
阻	-4532
陪	-4533
恩	-4534
丹	-4535
趁	-4536
互	-4537
犹	-4538
珍	-4539
盾	-4540
裙	-4541
号	-4542
婶	-4543
☆	-4544
仇	-4545
忽	-4546
燃	-4547
确	-4548
邪	-4549
字	-4550
拼	-4551
块	-4552
示	-4553
源	-4554
锋	-4555
承	-4556
树	-4557
仰	-4558
担	-4559
旋	-4560
汉	-4561
琼	-4562
垂	-4563
姨	-4564
沟	-4565
泽	-4566
菱	-4567
副	-4568
岁	-4569
帝	-4570
拍	-4571
怜	-4572
彻	-4573
疑	-4574
著	-4575
乃	-4576
付	-4577
昏	-4578
逍	-4579
隔	-4580
巴	-4581
舟	-4582
蛇	-4583
讲	-4584
食	-4585
扶	-4586
旁	-4587
碰	-4588
窄	-4589
哭	-4590
私	-4591
乖	-4592
骚	-4593
★	-4594
品	-4595
否	-4596
淋	-4597
胆	-4598
骂	-4599
亡	-4600
套	-4601
鬼	-4602
挣	-4603
硕	-4604
遍	-4605
默	-4606
卧	-4607
睁	-4608
惑	-4609
胡	-4610
貌	-4611
洗	-4612
节	-4613
遇	-4614
绕	-4615
亵	-4616
优	-4617
悬	-4618
独	-4619
绿	-4620
鱼	-4621
戏	-4622
浅	-4623
灭	-4624
观	-4625
赏	-4626
芙	-4627
1	-4628
—	-4629
撑	-4630
牌	-4631
状	-4632
凶	-4633
志	-4634
野	-4635
阿	-4636
征	-4637
置	-4638
脉	-4639
2	-4640
希	-4641
降	-4642
厚	-4643
叛	-4644
书	-4645
礼	-4646
轮	-4647
卫	-4648
州	-4649
酸	-4650
曾	-4651
涩	-4652
肆	-4653
境	-4654
朵	-4655
琳	-4656
莫	-4657
奔	-4658
5	-4659
旦	-4660
桥	-4661
短	-4662
埋	-4663
庞	-4664
附	-4665
爆	-4666
颜	-4667
寨	-4668
束	-4669
3	-4670
习	-4671
仁	-4672
侍	-4673
土	-4674
堪	-4675
架	-4676
兽	-4677
列	-4678
料	-4679
瓣	-4680
虚	-4681
勇	-4682
慰	-4683
^	-4684
份	-4685
台	-4686
挂	-4687
粮	-4688
危	-4689
侵	-4690
婵	-4691
伴	-4692
迫	-4693
嘻	-4694
环	-4695
陈	-4696
奸	-4697
尔	-4698
称	-4699
议	-4700
托	-4701
油	-4702
糊	-4703
适	-4704
争	-4705
销	-4706
焦	-4707
纱	-4708
蓝	-4709
蕾	-4710
际	-4711
吓	-4712
归	-4713
拨	-4714
浮	-4715
熊	-4716
庭	-4717
灼	-4718
存	-4719
翘	-4720
撒	-4721
燕	-4722
莲	-4723
兜	-4724
6	-4725
剩	-4726
犯	-4727
灯	-4728
图	-4729
寻	-4730
佳	-4731
登	-4732
钻	-4733
孩	-4734
溜	-4735
瑶	-4736
尸	-4737
隆	-4738
4	-4739
免	-4740
哀	-4741
肢	-4742
扬	-4743
福	-4744
陷	-4745
拔	-4746
避	-4747
彩	-4748
施	-4749
泉	-4750
齿	-4751
共	-4752
怯	-4753
质	-4754
圈	-4755
虫	-4756
距	-4757
延	-4758
效	-4759
纯	-4760
舍	-4761
式	-4762
改	-4763
汁	-4764
贤	-4765
傲	-4766
卷	-4767
吹	-4768
工	-4769
跃	-4770
论	-4771
院	-4772
彷	-4773
漾	-4774
甘	-4775
碎	-4776
袋	-4777
翼	-4778
薇	-4779
匡	-4780
讶	-4781
缝	-4782
题	-4783
弃	-4784
标	-4785
饭	-4786
晃	-4787
*	-4788
务	-4789
封	-4790
辰	-4791
8	-4792
午	-4793
溢	-4794
猜	-4795
艘	-4796
迅	-4797
镇	-4798
局	-4799
养	-4800
妩	-4801
拦	-4802
率	-4803
裹	-4804
室	-4805
倾	-4806
旧	-4807
普	-4808
胯	-4809
脂	-4810
导	-4811
涛	-4812
霞	-4813
魄	-4814
伙	-4815
辣	-4816
痴	-4817
胤	-4818
覆	-4819
敬	-4820
残	-4821
究	-4822
专	-4823
期	-4824
桌	-4825
商	-4826
增	-4827
岸	-4828
贪	-4829
(	-4830
奶	-4831
朋	-4832
啦	-4833
富	-4834
盛	-4835
夺	-4836
暂	-4837
替	-4838
爬	-4839
迟	-4840
侯	-4841
妾	-4842
沿	-4843
裂	-4844
辈	-4845
俊	-4846
欣	-4847
漫	-4848
唷	-4849
喉	-4850
困	-4851
宽	-4852
徐	-4853
智	-4854
遭	-4855
郑	-4856
)	-4857
冒	-4858
夏	-4859
婉	-4860
嫁	-4861
欺	-4862
殿	-4863
聚	-4864
较	-4865
轰	-4866
释	-4867
噗	-4868
累	-4869
衫	-4870
惨	-4871
杂	-4872
豹	-4873
选	-4874
凌	-4875
善	-4876
尺	-4877
建	-4878
径	-4879
撩	-4880
狗	-4881
饶	-4882
奏	-4883
斯	-4884
纵	-4885
鸾	-4886
丫	-4887
岂	-4888
怨	-4889
斩	-4890
喂	-4891
抹	-4892
壶	-4893
德	-4894
抢	-4895
遮	-4896
杯	-4897
檀	-4898
舰	-4899
净	-4900
焰	-4901
豪	-4902
俯	-4903
脖	-4904
跪	-4905
假	-4906
呜	-4907
悦	-4908
皱	-4909
逼	-4910
瘫	-4911
仔	-4912
仗	-4913
奈	-4914
尊	-4915
抑	-4916
统	-4917
造	-4918
霆	-4919
融	-4920
祖	-4921
织	-4922
联	-4923
菲	-4924
撤	-4925
材	-4926
炸	-4927
画	-4928
折	-4929
於	-4930
甬	-4931
费	-4932
京	-4933
瞬	-4934
萝	-4935
呈	-4936
咐	-4937
权	-4938
玲	-4939
技	-4940
援	-4941
搞	-4942
映	-4943
沾	-4944
补	-4945
珑	-4946
砍	-4947
卖	-4948
腴	-4949
懂	-4950
悠	-4951
浴	-4952
球	-4953
罪	-4954
葛	-4955
尘	-4956
斜	-4957
狱	-4958
督	-4959
积	-4960
诸	-4961
超	-4962
伦	-4963
凸	-4964
粒	-4965
荆	-4966
塞	-4967
闷	-4968
靥	-4969
额	-4970
浸	-4971
网	-4972
钱	-4973
喃	-4974
茫	-4975
鹘	-4976
历	-4977
叶	-4978
察	-4979
榻	-4980
病	-4981
锐	-4982
闹	-4983
验	-4984
瓦	-4985
瞧	-4986
哟	-4987
膀	-4988
据	-4989
治	-4990
属	-4991
披	-4992
借	-4993
唤	-4994
帐	-4995
戴	-4996
捧	-4997
铭	-4998
屈	-4999
扣	-5000
汪	-5001
责	-5002
刃	-5003
扫	-5004
帅	-5005
损	-5006
洒	-5007
茎	-5008
呆	-5009
型	-5010
忠	-5011
板	-5012
绸	-5013
艾	-5014
趣	-5015
丛	-5016
廷	-5017
查	-5018
羊	-5019
嘤	-5020
奉	-5021
煞	-5022
讨	-5023
雾	-5024
婚	-5025
嫣	-5026
幻	-5027
恼	-5028
霸	-5029
产	-5030
固	-5031
弯	-5032
伍	-5033
暄	-5034
缘	-5035
缺	-5036
证	-5037
鼎	-5038
匹	-5039
启	-5040
莉	-5041
驾	-5042
佩	-5043
牢	-5044
膛	-5045
韩	-5046
0	-5047
僧	-5048
惹	-5049
津	-5050
针	-5051
钦	-5052
悉	-5053
参	-5054
吩	-5055
啼	-5056
婪	-5057
孔	-5058
梁	-5059
爹	-5060
辉	-5061
劳	-5062
区	-5063
叔	-5064
恋	-5065
窗	-5066
7	-5067
凡	-5068
惧	-5069
耻	-5070
训	-5071
霜	-5072
亚	-5073
枫	-5074
民	-5075
奴	-5076
舐	-5077
镜	-5078
姓	-5079
彼	-5080
朕	-5081
琴	-5082
虑	-5083
催	-5084
恢	-5085
获	-5086
9	-5087
烦	-5088
瞪	-5089
纪	-5090
韵	-5091
疲	-5092
寂	-5093
攀	-5094
砸	-5095
纳	-5096
侠	-5097
傻	-5098
勉	-5099
唯	-5100
蠕	-5101
颇	-5102
丁	-5103
均	-5104
弦	-5105
搅	-5106
染	-5107
池	-5108
汤	-5109
演	-5110
考	-5111
输	-5112
潺	-5113
蓬	-5114
词	-5115
愤	-5116
菊	-5117
菜	-5118
园	-5119
拾	-5120
捉	-5121
芝	-5122
误	-5123
谈	-5124
饮	-5125
鸟	-5126
操	-5127
监	-5128
茶	-5129
诗	-5130
黏	-5131
咽	-5132
愧	-5133
稳	-5134
趴	-5135
辱	-5136
驰	-5137
骗	-5138
允	-5139
痕	-5140
碧	-5141
脯	-5142
铺	-5143
印	-5144
撕	-5145
值	-5146
枝	-5147
涂	-5148
绷	-5149
扔	-5150
洋	-5151
狐	-5152
琪	-5153
痉	-5154
袍	-5155
裳	-5156
搭	-5157
研	-5158
翠	-5159
芒	-5160
铜	-5161
执	-5162
核	-5163
牲	-5164
珊	-5165
脆	-5166
项	-5167
倍	-5168
滩	-5169
级	-5170
蛮	-5171
规	-5172
估	-5173
俗	-5174
员	-5175
宜	-5176
焚	-5177
牺	-5178
稀	-5179
腮	-5180
蜀	-5181
锦	-5182
闲	-5183
雕	-5184
鞭	-5185
亏	-5186
咯	-5187
啪	-5188
屏	-5189
亦	-5190
塘	-5191
慧	-5192
扰	-5193
抛	-5194
添	-5195
笔	-5196
遗	-5197
克	-5198
友	-5199
吼	-5200
截	-5201
旨	-5202
昂	-5203
森	-5204
浩	-5205
腔	-5206
庄	-5207
扯	-5208
挛	-5209
冯	-5210
凭	-5211
劝	-5212
基	-5213
拖	-5214
谓	-5215
颠	-5216
忧	-5217
政	-5218
狭	-5219
皙	-5220
羡	-5221
频	-5222
坦	-5223
筋	-5224
膝	-5225
衬	-5226
噢	-5227
堆	-5228
娥	-5229
愉	-5230
矜	-5231
组	-5232
耀	-5233
设	-5234
摔	-5235
栈	-5236
梯	-5237
禀	-5238
减	-5239
嗔	-5240
忌	-5241
奖	-5242
委	-5243
拜	-5244
笼	-5245
贯	-5246
辞	-5247
丧	-5248
勃	-5249
挨	-5250
灰	-5251
绑	-5252
迹	-5253
拢	-5254
漂	-5255
盯	-5256
纠	-5257
苍	-5258
饥	-5259
麽	-5260
劫	-5261
席	-5262
扩	-5263
饿	-5264
搐	-5265
浆	-5266
鸣	-5267
後	-5268
批	-5269
罩	-5270
锁	-5271
族	-5272
瓜	-5273
袖	-5274
陵	-5275
劈	-5276
店	-5277
沸	-5278
炽	-5279
田	-5280
类	-5281
蠢	-5282
豫	-5283
溃	-5284
灌	-5285
牵	-5286
茹	-5287
鸡	-5288
努	-5289
悟	-5290
罚	-5291
废	-5292
悲	-5293
曼	-5294
绯	-5295
绳	-5296
刹	-5297
厮	-5298
咛	-5299
崖	-5300
怡	-5301
恍	-5302
惯	-5303
晰	-5304
溪	-5305
膨	-5306
鲨	-5307
厅	-5308
契	-5309
殊	-5310
泣	-5311
眩	-5312
蓓	-5313
螓	-5314
褪	-5315
闯	-5316
～	-5317
啜	-5318
堡	-5319
眨	-5320
碗	-5321
芬	-5322
蚀	-5323
谋	-5324
崩	-5325
襟	-5326
巡	-5327
滥	-5328
虹	-5329
骇	-5330
甩	-5331
粘	-5332
绽	-5333
缎	-5334
缕	-5335
域	-5336
柱	-5337
胧	-5338
蝉	-5339
蝶	-5340
愣	-5341
枕	-5342
毁	-5343
艺	-5344
‘	-5345
夸	-5346
寿	-5347
捣	-5348
款	-5349
献	-5350
盆	-5351
窝	-5352
艨	-5353
返	-5354
驻	-5355
囊	-5356
孤	-5357
寺	-5358
搔	-5359
竹	-5360
绣	-5361
范	-5362
郁	-5363
预	-5364
尾	-5365
恭	-5366
泡	-5367
班	-5368
璟	-5369
策	-5370
誓	-5371
咏	-5372
哗	-5373
暇	-5374
杜	-5375
柄	-5376
汹	-5377
腥	-5378
荒	-5379
赛	-5380
仪	-5381
宾	-5382
慾	-5383
渡	-5384
瞒	-5385
阔	-5386
_	-5387
买	-5388
医	-5389
央	-5390
巾	-5391
幅	-5392
振	-5393
肿	-5394
脏	-5395
萍	-5396
隙	-5397
俱	-5398
健	-5399
写	-5400
割	-5401
寇	-5402
寞	-5403
川	-5404
择	-5405
汇	-5406
泥	-5407
炉	-5408
绪	-5409
诚	-5410
踏	-5411
途	-5412
坡	-5413
宴	-5414
拱	-5415
挽	-5416
末	-5417
淑	-5418
渗	-5419
盔	-5420
莱	-5421
键	-5422
嗅	-5423
疾	-5424
碍	-5425
祝	-5426
膜	-5427
葱	-5428
辛	-5429
’	-5430
乾	-5431
坠	-5432
婷	-5433
掀	-5434
掠	-5435
措	-5436
昧	-5437
潜	-5438
穷	-5439
剔	-5440
哧	-5441
填	-5442
宣	-5443
岩	-5444
巅	-5445
朦	-5446
狸	-5447
辕	-5448
霄	-5449
霹	-5450
魅	-5451
叠	-5452
宿	-5453
巍	-5454
彤	-5455
浇	-5456
耗	-5457
诀	-5458
价	-5459
刮	-5460
县	-5461
史	-5462
娜	-5463
幕	-5464
烂	-5465
逆	-5466
雳	-5467
骤	-5468
《	-5469
伐	-5470
啸	-5471
岗	-5472
彿	-5473
烛	-5474
脊	-5475
街	-5476
轩	-5477
骄	-5478
》	-5479
捂	-5480
漓	-5481
皆	-5482
赴	-5483
凛	-5484
删	-5485
匀	-5486
唉	-5487
弧	-5488
掏	-5489
晓	-5490
疗	-5491
邓	-5492
丘	-5493
案	-5494
漠	-5495
稚	-5496
葵	-5497
业	-5498
介	-5499
偶	-5500
嘶	-5501
暧	-5502
棋	-5503
棍	-5504
欧	-5505
溅	-5506
腕	-5507
冤	-5508
凹	-5509
婿	-5510
幼	-5511
忆	-5512
瑕	-5513
畏	-5514
虐	-5515
饰	-5516
削	-5517
唱	-5518
爪	-5519
米	-5520
逢	-5521
钢	-5522
亢	-5523
帘	-5524
彬	-5525
拂	-5526
拳	-5527
搜	-5528
荷	-5529
蜻	-5530
贲	-5531
跨	-5532
黎	-5533
咙	-5534
媳	-5535
广	-5536
椅	-5537
荣	-5538
予	-5539
俘	-5540
职	-5541
懒	-5542
搬	-5543
淮	-5544
漉	-5545
繁	-5546
蓉	-5547
蜓	-5548
踢	-5549
&	-5550
凄	-5551
召	-5552
益	-5553
躏	-5554
扇	-5555
昭	-5556
曹	-5557
盼	-5558
眯	-5559
矛	-5560
窜	-5561
竖	-5562
舫	-5563
苞	-5564
详	-5565
哨	-5566
垒	-5567
挪	-5568
瀑	-5569
燥	-5570
糟	-5571
纸	-5572
编	-5573
膊	-5574
蹂	-5575
乘	-5576
乡	-5577
弥	-5578
戒	-5579
检	-5580
翅	-5581
肠	-5582
萋	-5583
蒂	-5584
赧	-5585
馗	-5586
供	-5587
厄	-5588
婢	-5589
宏	-5590
悍	-5591
拭	-5592
授	-5593
摘	-5594
敲	-5595
澄	-5596
胳	-5597
警	-5598
豆	-5599
贱	-5600
资	-5601
乏	-5602
卸	-5603
妄	-5604
宠	-5605
朗	-5606
赖	-5607
钩	-5608
僵	-5609
嗤	-5610
悔	-5611
污	-5612
瑰	-5613
稠	-5614
维	-5615
臻	-5616
蒸	-5617
靡	-5618
串	-5619
卿	-5620
娶	-5621
宛	-5622
斌	-5623
泻	-5624
漏	-5625
澡	-5626
省	-5627
蔽	-5628
赐	-5629
桶	-5630
淹	-5631
踪	-5632
鳞	-5633
丑	-5634
刷	-5635
剥	-5636
壑	-5637
愕	-5638
捻	-5639
搏	-5640
摧	-5641
杆	-5642
某	-5643
琢	-5644
育	-5645
藉	-5646
蹄	-5647
递	-5648
兀	-5649
刑	-5650
呐	-5651
哄	-5652
怦	-5653
歇	-5654
殷	-5655
氛	-5656
烁	-5657
鄂	-5658
伯	-5659
偙	-5660
协	-5661
哩	-5662
夕	-5663
栗	-5664
漆	-5665
羽	-5666
萄	-5667
葡	-5668
藤	-5669
阅	-5670
偎	-5671
匆	-5672
嚎	-5673
妥	-5674
嫌	-5675
孙	-5676
构	-5677
沐	-5678
辜	-5679
餐	-5680
驱	-5681
井	-5682
兔	-5683
嘘	-5684
堵	-5685
戳	-5686
晨	-5687
蓄	-5688
蹲	-5689
鲁	-5690
刘	-5691
擅	-5692
测	-5693
疏	-5694
瘦	-5695
祸	-5696
耍	-5697
诡	-5698
蹙	-5699
陌	-5700
馨	-5701
鹰	-5702
"	-5703
娃	-5704
岭	-5705
恰	-5706
挲	-5707
揽	-5708
擒	-5709
旷	-5710
概	-5711
矩	-5712
窃	-5713
翩	-5714
藕	-5715
褥	-5716
赢	-5717
唾	-5718
愁	-5719
枯	-5720
窒	-5721
脾	-5722
违	-5723
阁	-5724
陡	-5725
零	-5726
仓	-5727
伟	-5728
例	-5729
创	-5730
哇	-5731
扮	-5732
斥	-5733
杏	-5734
汝	-5735
瘾	-5736
笨	-5737
诧	-5738
闺	-5739
鳌	-5740
鹅	-5741
典	-5742
勒	-5743
啧	-5744
壕	-5745
憾	-5746
灾	-5747
童	-5748
绍	-5749
聪	-5750
跌	-5751
醋	-5752
叉	-5753
吱	-5754
噬	-5755
宰	-5756
挟	-5757
斧	-5758
歪	-5759
烤	-5760
绞	-5761
缚	-5762
蜂	-5763
蹭	-5764
辆	-5765
逞	-5766
厌	-5767
塌	-5768
押	-5769
椒	-5770
猫	-5771
纹	-5772
账	-5773
Q	-5774
丸	-5775
励	-5776
咕	-5777
嘲	-5778
审	-5779
帜	-5780
挖	-5781
晌	-5782
瞄	-5783
竭	-5784
箍	-5785
逸	-5786
骷	-5787
髅	-5788
龄	-5789
勤	-5790
吕	-5791
喇	-5792
怔	-5793
惫	-5794
扈	-5795
拧	-5796
昆	-5797
歼	-5798
澎	-5799
盒	-5800
瞳	-5801
码	-5802
茂	-5803
踩	-5804
M	-5805
乍	-5806
倩	-5807
墨	-5808
娟	-5809
旺	-5810
秃	-5811
蛤	-5812
倏	-5813
冠	-5814
妈	-5815
恣	-5816
捅	-5817
聊	-5818
财	-5819
鼠	-5820
嘟	-5821
嘱	-5822
拽	-5823
掐	-5824
敞	-5825
梨	-5826
毙	-5827
沦	-5828
濡	-5829
烽	-5830
瓷	-5831
砰	-5832
述	-5833
馆	-5834
侄	-5835
倚	-5836
冀	-5837
呓	-5838
唧	-5839
啮	-5840
喀	-5841
喻	-5842
宇	-5843
攒	-5844
曰	-5845
淌	-5846
灿	-5847
烘	-5848
猎	-5849
眠	-5850
脐	-5851
蔓	-5852
衷	-5853
赌	-5854
郭	-5855
寝	-5856
括	-5857
泌	-5858
狞	-5859
睫	-5860
舱	-5861
贺	-5862
躬	-5863
逝	-5864
吾	-5865
扳	-5866
拚	-5867
摄	-5868
梳	-5869
泊	-5870
湃	-5871
熬	-5872
狡	-5873
狮	-5874
羚	-5875
肃	-5876
踝	-5877
铠	-5878
韧	-5879
叮	-5880
咻	-5881
堤	-5882
妨	-5883
巫	-5884
序	-5885
廊	-5886
慵	-5887
抄	-5888
枉	-5889
汴	-5890
济	-5891
炙	-5892
矶	-5893
耽	-5894
臭	-5895
蓦	-5896
载	-5897
障	-5898
骸	-5899
鬓	-5900
w	-5901
倦	-5902
冥	-5903
婀	-5904
孕	-5905
尬	-5906
尴	-5907
庆	-5908
患	-5909
撼	-5910
浊	-5911
涎	-5912
订	-5913
谅	-5914
遐	-5915
颅	-5916
麝	-5917
冻	-5918
咒	-5919
塔	-5920
悸	-5921
惩	-5922
捕	-5923
携	-5924
涡	-5925
狰	-5926
盗	-5927
窍	-5928
偿	-5929
剿	-5930
吊	-5931
啥	-5932
嗦	-5933
屠	-5934
惦	-5935
拐	-5936
敦	-5937
斑	-5938
梢	-5939
牡	-5940
瞅	-5941
瞎	-5942
瞟	-5943
虏	-5944
询	-5945
趟	-5946
遣	-5947
铃	-5948
髻	-5949
卒	-5950
坤	-5951
妒	-5952
扒	-5953
描	-5954
泼	-5955
溺	-5956
秽	-5957
耿	-5958
芊	-5959
茸	-5960
蚌	-5961
遵	-5962
酡	-5963
驶	-5964
宵	-5965
峦	-5966
巳	-5967
搁	-5968
洲	-5969
皓	-5970
盏	-5971
碌	-5972
胎	-5973
裘	-5974
览	-5975
趾	-5976
躁	-5977
酷	-5978
钉	-5979
阜	-5980
顽	-5981
鹫	-5982
鹿	-5983
※	-5984
仆	-5985
咦	-5986
壳	-5987
帽	-5988
怠	-5989
慎	-5990
挠	-5991
捆	-5992
昵	-5993
汨	-5994
汩	-5995
澈	-5996
瓶	-5997
疤	-5998
瘟	-5999
绒	-6000
驴	-6001
─	-6002
凯	-6003
卡	-6004
撇	-6005
甸	-6006
疆	-6007
窥	-6008
缀	-6009
蜕	-6010
酋	-6011
霎	-6012
顷	-6013
吵	-6014
嗜	-6015
嬉	-6016
库	-6017
捷	-6018
斤	-6019
昶	-6020
沁	-6021
猪	-6022
瑜	-6023
畔	-6024
睹	-6025
祭	-6026
舅	-6027
读	-6028
迈	-6029
邃	-6030
阱	-6031
~	-6032
咳	-6033
媾	-6034
嫉	-6035
循	-6036
戮	-6037
曳	-6038
毯	-6039
溶	-6040
玫	-6041
眶	-6042
矫	-6043
祥	-6044
竞	-6045
篷	-6046
董	-6047
蕴	-6048
诺	-6049
谐	-6050
逻	-6051
鞋	-6052
鹤	-6053
兼	-6054
募	-6055
匣	-6056
咚	-6057
哆	-6058
哑	-6059
惚	-6060
枚	-6061
矢	-6062
筹	-6063
豁	-6064
锤	-6065
黛	-6066
判	-6067
剪	-6068
咿	-6069
坑	-6070
嵌	-6071
廓	-6072
旭	-6073
村	-6074
棉	-6075
欠	-6076
渔	-6077
渺	-6078
皎	-6079
罕	-6080
肺	-6081
膳	-6082
艰	-6083
薛	-6084
蜡	-6085
诛	-6086
货	-6087
鬟	-6088
博	-6089
咧	-6090
嗽	-6091
娴	-6092
拌	-6093
擂	-6094
柜	-6095
校	-6096
歉	-6097
筒	-6098
籍	-6099
络	-6100
署	-6101
肝	-6102
胁	-6103
胞	-6104
胶	-6105
莺	-6106
蚁	-6107
酿	-6108
雀	-6109
鸿	-6110
佯	-6111
厥	-6112
呦	-6113
寡	-6114
尿	-6115
帆	-6116
帕	-6117
徘	-6118
杭	-6119
桩	-6120
梆	-6121
沫	-6122
禧	-6123
腑	-6124
褶	-6125
蹦	-6126
蹬	-6127
遂	-6128
铲	-6129
髓	-6130
┅	-6131
佑	-6132
兢	-6133
咪	-6134
囤	-6135
坎	-6136
妆	-6137
妮	-6138
媛	-6139
孝	-6140
屯	-6141
崽	-6142
巢	-6143
庙	-6144
徊	-6145
慨	-6146
憋	-6147
戚	-6148
拇	-6149
拘	-6150
渊	-6151
熄	-6152
签	-6153
芯	-6154
衡	-6155
赘	-6156
遽	-6157
链	-6158
阶	-6159
鸭	-6160
企	-6161
伺	-6162
党	-6163
冬	-6164
剌	-6165
吉	-6166
坛	-6167
婴	-6168
惶	-6169
抿	-6170
烙	-6171
煮	-6172
猿	-6173
禽	-6174
糙	-6175
肖	-6176
贾	-6177
饼	-6178
骋	-6179
冉	-6180
嗲	-6181
役	-6182
惮	-6183
搀	-6184
摊	-6185
晴	-6186
涓	-6187
疵	-6188
瞥	-6189
蝎	-6190
谦	-6191
贫	-6192
赋	-6193
迸	-6194
靴	-6195
鞘	-6196
驿	-6197
c	-6198
匠	-6199
厨	-6200
哮	-6201
嗓	-6202
嚷	-6203
孽	-6204
岔	-6205
挚	-6206
斟	-6207
棺	-6208
瀚	-6209
猾	-6210
稻	-6211
莽	-6212
萌	-6213
蚣	-6214
蜈	-6215
课	-6216
辩	-6217
钗	-6218
鸳	-6219
黯	-6220
卜	-6221
垦	-6222
戈	-6223
扛	-6224
拆	-6225
氏	-6226
泞	-6227
牧	-6228
痪	-6229
眷	-6230
禄	-6231
窈	-6232
筝	-6233
簇	-6234
翔	-6235
腐	-6236
膣	-6237
茗	-6238
荇	-6239
荑	-6240
衰	-6241
裕	-6242
评	-6243
诈	-6244
赫	-6245
践	-6246
遏	-6247
邀	-6248
锅	-6249
鸯	-6250
兆	-6251
兮	-6252
剠	-6253
呛	-6254
娆	-6255
弛	-6256
恕	-6257
恳	-6258
捡	-6259
捶	-6260
档	-6261
械	-6262
潇	-6263
潭	-6264
痊	-6265
筑	-6266
筛	-6267
箫	-6268
绘	-6269
绮	-6270
羔	-6271
胃	-6272
腋	-6273
舷	-6274
裁	-6275
遁	-6276
钳	-6277
霍	-6278
颌	-6279
N	-6280
傍	-6281
叩	-6282
吆	-6283
咋	-6284
啃	-6285
啐	-6286
垫	-6287
峭	-6288
幔	-6289
惭	-6290
挫	-6291
捺	-6292
暮	-6293
歹	-6294
涉	-6295
涔	-6296
溉	-6297
漩	-6298
煌	-6299
犬	-6300
申	-6301
瘙	-6302
簪	-6303
紊	-6304
辗	-6305
邻	-6306
O	-6307
储	-6308
奥	-6309
帖	-6310
怖	-6311
恬	-6312
懈	-6313
抠	-6314
抡	-6315
昇	-6316
昔	-6317
毅	-6318
淘	-6319
焉	-6320
煎	-6321
畜	-6322
磁	-6323
磕	-6324
绩	-6325
谎	-6326
迭	-6327
陋	-6328
飒	-6329
馥	-6330
驯	-6331
i	-6332
侦	-6333
卓	-6334
厢	-6335
垮	-6336
寰	-6337
怏	-6338
您	-6339
扉	-6340
掳	-6341
播	-6342
栩	-6343
植	-6344
沛	-6345
澜	-6346
煽	-6347
熔	-6348
猥	-6349
翕	-6350
胖	-6351
蝗	-6352
赔	-6353
蹈	-6354
辨	-6355
钓	-6356
伊	-6357
匕	-6358
咆	-6359
啄	-6360
喧	-6361
奢	-6362
姣	-6363
康	-6364
惟	-6365
旅	-6366
枢	-6367
栏	-6368
桑	-6369
沼	-6370
渍	-6371
滁	-6372
狈	-6373
痹	-6374
笈	-6375
翎	-6376
茁	-6377
荐	-6378
蛛	-6379
袅	-6380
钧	-6381
u	-6382
仲	-6383
僻	-6384
函	-6385
吭	-6386
嚐	-6387
季	-6388
寥	-6389
庸	-6390
懦	-6391
掷	-6392
揭	-6393
擎	-6394
敛	-6395
旱	-6396
棱	-6397
棵	-6398
泰	-6399
涟	-6400
炎	-6401
熏	-6402
熠	-6403
璧	-6404
绫	-6405
缰	-6406
芽	-6407
苟	-6408
葬	-6409
蚕	-6410
蜷	-6411
蝴	-6412
裆	-6413
讯	-6414
趋	-6415
踞	-6416
辅	-6417
逊	-6418
酣	-6419
铸	-6420
陀	-6421
m	-6422
儒	-6423
冶	-6424
刁	-6425
叱	-6426
呸	-6427
喽	-6428
姻	-6429
峡	-6430
憧	-6431
憬	-6432
戍	-6433
旌	-6434
株	-6435
栽	-6436
涧	-6437
滞	-6438
琅	-6439
窕	-6440
笋	-6441
缭	-6442
缴	-6443
褐	-6444
谜	-6445
趐	-6446
轨	-6447
逾	-6448
邦	-6449
镶	-6450
陛	-6451
魁	-6452
鸽	-6453
丞	-6454
伞	-6455
俸	-6456
俺	-6457
卑	-6458
呃	-6459
噩	-6460
嚼	-6461
堕	-6462
奠	-6463
妓	-6464
姊	-6465
宙	-6466
寐	-6467
屡	-6468
惬	-6469
慑	-6470
拟	-6471
析	-6472
湛	-6473
炯	-6474
焕	-6475
琶	-6476
瑟	-6477
盟	-6478
睿	-6479
矣	-6480
矮	-6481
秤	-6482
窘	-6483
竿	-6484
笛	-6485
罡	-6486
蛾	-6487
衙	-6488
觅	-6489
诵	-6490
谱	-6491
赦	-6492
跺	-6493
辖	-6494
鉴	-6495
闸	-6496
驳	-6497
驼	-6498
鹏	-6499
仑	-6500
侃	-6501
咸	-6502
哽	-6503
嗖	-6504
嚣	-6505
娑	-6506
寄	-6507
峻	-6508
惺	-6509
椎	-6510
沱	-6511
涵	-6512
渎	-6513
炫	-6514
炷	-6515
熨	-6516
犀	-6517
琵	-6518
瞩	-6519
砂	-6520
秒	-6521
糕	-6522
糜	-6523
绚	-6524
缉	-6525
翁	-6526
肴	-6527
芦	-6528
贡	-6529
醺	-6530
锣	-6531
霓	-6532
饷	-6533
黝	-6534
侮	-6535
凳	-6536
勿	-6537
卵	-6538
嗳	-6539
娱	-6540
媒	-6541
宅	-6542
忖	-6543
忡	-6544
恙	-6545
拙	-6546
挞	-6547
捞	-6548
旎	-6549
朴	-6550
桨	-6551
殃	-6552
涣	-6553
盎	-6554
眺	-6555
箱	-6556
粹	-6557
糖	-6558
蔑	-6559
蚊	-6560
袒	-6561
谑	-6562
隘	-6563
隶	-6564
霉	-6565
鞍	-6566
馒	-6567
佐	-6568
倘	-6569
刨	-6570
唬	-6571
嗷	-6572
噫	-6573
墓	-6574
夷	-6575
屑	-6576
彭	-6577
悴	-6578
扁	-6579
拯	-6580
捋	-6581
撬	-6582
攥	-6583
敷	-6584
旖	-6585
棚	-6586
沧	-6587
滔	-6588
燎	-6589
版	-6590
盐	-6591
祈	-6592
窦	-6593
筷	-6594
纲	-6595
绊	-6596
胭	-6597
舵	-6598
茵	-6599
葫	-6600
蛊	-6601
誉	-6602
辟	-6603
邸	-6604
鄙	-6605
雍	-6606
雏	-6607
鸥	-6608
e	-6609
―	-6610
乞	-6611
偌	-6612
凿	-6613
呗	-6614
噜	-6615
履	-6616
屹	-6617
岌	-6618
巷	-6619
市	-6620
录	-6621
惠	-6622
愚	-6623
憔	-6624
揩	-6625
梭	-6626
猝	-6627
疙	-6628
瘩	-6629
皑	-6630
眈	-6631
睐	-6632
睽	-6633
碉	-6634
秉	-6635
秩	-6636
蔼	-6637
蜒	-6638
蟒	-6639
讽	-6640
诏	-6641
赎	-6642
蹋	-6643
酱	-6644
靶	-6645
鸠	-6646
o	-6647
乙	-6648
伎	-6649
佻	-6650
侥	-6651
劣	-6652
勺	-6653
匈	-6654
卦	-6655
叽	-6656
呕	-6657
咂	-6658
嗡	-6659
噹	-6660
培	-6661
嫔	-6662
嫡	-6663
彦	-6664
忐	-6665
忸	-6666
怩	-6667
恒	-6668
懊	-6669
戎	-6670
撅	-6671
朽	-6672
栅	-6673
樵	-6674
淤	-6675
炖	-6676
炭	-6677
琊	-6678
甫	-6679
砖	-6680
社	-6681
祠	-6682
票	-6683
税	-6684
篓	-6685
纣	-6686
缨	-6687
肘	-6688
肪	-6689
臊	-6690
蕉	-6691
虾	-6692
蚂	-6693
螺	-6694
蟹	-6695
衔	-6696
讳	-6697
诅	-6698
踹	-6699
蹿	-6700
迁	-6701
镖	-6702
阖	-6703
雎	-6704
颦	-6705
驭	-6706
剐	-6707
叙	-6708
咫	-6709
嗒	-6710
奄	-6711
帼	-6712
忑	-6713
惘	-6714
掣	-6715
昼	-6716
棂	-6717
漪	-6718
漱	-6719
猖	-6720
猩	-6721
疚	-6722
疮	-6723
症	-6724
砌	-6725
磋	-6726
罐	-6727
莓	-6728
菇	-6729
蔻	-6730
蕃	-6731
蛆	-6732
诫	-6733
谊	-6734
贩	-6735
赳	-6736
郊	-6737
铮	-6738
骁	-6739
『	-6740
』	-6741
亩	-6742
侬	-6743
册	-6744
刎	-6745
嘎	-6746
噼	-6747
坟	-6748
幌	-6749
廉	-6750
拈	-6751
掬	-6752
晦	-6753
杵	-6754
樊	-6755
氓	-6756
洛	-6757
滟	-6758
濛	-6759
猴	-6760
睬	-6761
禅	-6762
纺	-6763
羹	-6764
萱	-6765
袱	-6766
贸	-6767
赠	-6768
铅	-6769
雌	-6770
鞠	-6771
飕	-6772
饵	-6773
驹	-6774
鲤	-6775
麟	-6776
j	-6777
∶	-6778
倔	-6779
傀	-6780
农	-6781
匙	-6782
匿	-6783
吒	-6784
呤	-6785
哉	-6786
嚓	-6787
孪	-6788
峨	-6789
崇	-6790
弊	-6791
弑	-6792
惋	-6793
拣	-6794
掘	-6795
栋	-6796
栘	-6797
橹	-6798
檐	-6799
殉	-6800
泯	-6801
泳	-6802
涕	-6803
涯	-6804
渠	-6805
渲	-6806
犊	-6807
犒	-6808
瑚	-6809
璀	-6810
璨	-6811
瓮	-6812
睑	-6813
瞋	-6814
瞌	-6815
绛	-6816
绢	-6817
耕	-6818
聆	-6819
茅	-6820
萦	-6821
蛟	-6822
蜿	-6823
袜	-6824
讪	-6825
访	-6826
诞	-6827
踵	-6828
轿	-6829
辎	-6830
迂	-6831
醇	-6832
钮	-6833
锢	-6834
锥	-6835
镔	-6836
馋	-6837
髯	-6838
鹄	-6839
鹭	-6840
伪	-6841
佗	-6842
侣	-6843
债	-6844
儡	-6845
冈	-6846
冽	-6847
剂	-6848
叨	-6849
叼	-6850
呶	-6851
咎	-6852
唆	-6853
啰	-6854
啲	-6855
啵	-6856
啾	-6857
嘀	-6858
噔	-6859
噤	-6860
坍	-6861
妞	-6862
娉	-6863
庐	-6864
惕	-6865
揪	-6866
撷	-6867
晖	-6868
柩	-6869
桅	-6870
梗	-6871
棘	-6872
殛	-6873
氲	-6874
泓	-6875
渚	-6876
爵	-6877
玛	-6878
璃	-6879
瘸	-6880
盅	-6881
睦	-6882
睨	-6883
瞻	-6884
矾	-6885
碾	-6886
笫	-6887
粥	-6888
绻	-6889
羁	-6890
蟠	-6891
衍	-6892
讥	-6893
谕	-6894
谙	-6895
谩	-6896
贻	-6897
酝	-6898
酬	-6899
钝	-6900
铿	-6901
阙	-6902
颔	-6903
馀	-6904
驸	-6905
麒	-6906
麾	-6907
t	-6908
伶	-6909
佬	-6910
佼	-6911
偃	-6912
剃	-6913
匝	-6914
吝	-6915
呲	-6916
咀	-6917
咔	-6918
喏	-6919
喳	-6920
垛	-6921
壤	-6922
夭	-6923
奕	-6924
娈	-6925
屎	-6926
巩	-6927
币	-6928
帛	-6929
帷	-6930
弋	-6931
彪	-6932
怅	-6933
惆	-6934
慷	-6935
拴	-6936
採	-6937
旬	-6938
杖	-6939
柏	-6940
栖	-6941
殆	-6942
氤	-6943
沃	-6944
沌	-6945
洽	-6946
涤	-6947
狩	-6948
獠	-6949
琐	-6950
癫	-6951
硝	-6952
硫	-6953
碟	-6954
磺	-6955
祀	-6956
祷	-6957
篝	-6958
籁	-6959
粼	-6960
缤	-6961
翟	-6962
肋	-6963
肏	-6964
肮	-6965
艇	-6966
苹	-6967
茧	-6968
荼	-6969
萃	-6970
蘸	-6971
袄	-6972
襄	-6973
觑	-6974
诊	-6975
谆	-6976
谣	-6977
赚	-6978
踉	-6979
鄱	-6980
酌	-6981
锵	-6982
锻	-6983
镰	-6984
阂	-6985
阎	-6986
霏	-6987
飙	-6988
驮	-6989
骏	-6990
乔	-6991
佈	-6992
侏	-6993
券	-6994
啬	-6995
嘉	-6996
噘	-6997
噙	-6998
垢	-6999
塑	-7000
奎	-7001
姗	-7002
尉	-7003
屉	-7004
嶂	-7005
徽	-7006
恃	-7007
恪	-7008
悯	-7009
戟	-7010
戾	-7011
扼	-7012
拎	-7013
拓	-7014
拗	-7015
揖	-7016
斋	-7017
暑	-7018
梧	-7019
楞	-7020
榜	-7021
汲	-7022
沥	-7023
泱	-7024
洼	-7025
浏	-7026
淅	-7027
湘	-7028
潸	-7029
炬	-7030
猬	-7031
玷	-7032
皂	-7033
瞑	-7034
矗	-7035
础	-7036
礁	-7037
窑	-7038
绎	-7039
绥	-7040
缱	-7041
耘	-7042
聘	-7043
腼	-7044
芸	-7045
荫	-7046
菩	-7047
萨	-7048
蒲	-7049
薰	-7050
蘑	-7051
虞	-7052
蟆	-7053
跄	-7054
銮	-7055
霖	-7056
饲	-7057
骡	-7058
鸦	-7059
黠	-7060
/	-7061
⊙	-7062
□	-7063
亘	-7064
伫	-7065
來	-7066
傅	-7067
勋	-7068
叵	-7069
唏	-7070
嗨	-7071
嘈	-7072
囔	-7073
坞	-7074
娓	-7075
嫦	-7076
徵	-7077
憨	-7078
捎	-7079
掰	-7080
掹	-7081
揣	-7082
搡	-7083
摞	-7084
撮	-7085
擞	-7086
晒	-7087
晾	-7088
柿	-7089
桀	-7090
棕	-7091
橘	-7092
毡	-7093
汰	-7094
沓	-7095
湍	-7096
湟	-7097
濒	-7098
燄	-7099
爸	-7100
瘁	-7101
癞	-7102
睾	-7103
矿	-7104
祟	-7105
科	-7106
稽	-7107
笆	-7108
篱	-7109
簸	-7110
絮	-7111
缈	-7112
缥	-7113
胄	-7114
腆	-7115
舂	-7116
荤	-7117
蔷	-7118
薪	-7119
蚋	-7120
蛙	-7121
蜘	-7122
衅	-7123
衮	-7124
褂	-7125
谧	-7126
谴	-7127
赃	-7128
跷	-7129
轴	-7130
逡	-7131
钥	-7132
锭	-7133
锯	-7134
阑	-7135
韬	-7136
颁	-7137
颐	-7138
饽	-7139
骜	-7140
骠	-7141
魏	-7142
鸪	-7143
x	-7144
丐	-7145
仕	-7146
俐	-7147
俞	-7148
倜	-7149
傥	-7150
兹	-7151
剜	-7152
剽	-7153
匍	-7154
咣	-7155
售	-7156
囚	-7157
墩	-7158
妍	-7159
孵	-7160
宸	-7161
尹	-7162
岖	-7163
峙	-7164
崎	-7165
嶽	-7166
庇	-7167
弘	-7168
恤	-7169
悚	-7170
捐	-7171
掸	-7172
攫	-7173
曝	-7174
曦	-7175
枣	-7176
柯	-7177
栓	-7178
桦	-7179
殴	-7180
汽	-7181
涮	-7182
港	-7183
炒	-7184
烬	-7185
爲	-7186
玻	-7187
瑭	-7188
瓢	-7189
瞠	-7190
砣	-7191
砾	-7192
磐	-7193
磷	-7194
租	-7195
穹	-7196
窟	-7197
篇	-7198
篡	-7199
纬	-7200
纶	-7201
纽	-7202
综	-7203
缪	-7204
翡	-7205
翱	-7206
聋	-7207
脔	-7208
茬	-7209
荧	-7210
萎	-7211
萤	-7212
蔚	-7213
蛰	-7214
褟	-7215
谪	-7216
购	-7217
跋	-7218
踱	-7219
蹊	-7220
辙	-7221
逛	-7222
锚	-7223
镀	-7224
隧	-7225
霪	-7226
革	-7227
颓	-7228
颚	-7229
骼	-7230
鲫	-7231
a	-7232
丙	-7233
侈	-7234
俨	-7235
凋	-7236
匐	-7237
匾	-7238
吏	-7239
哺	-7240
嗣	-7241
圃	-7242
坪	-7243
坷	-7244
奂	-7245
姆	-7246
孜	-7247
宕	-7248
宦	-7249
岚	-7250
幡	-7251
幺	-7252
庶	-7253
廝	-7254
彰	-7255
徨	-7256
忒	-7257
恻	-7258
愛	-7259
憎	-7260
懿	-7261
抒	-7262
掂	-7263
掖	-7264
揍	-7265
攘	-7266
敝	-7267
斛	-7268
昌	-7269
杉	-7270
棹	-7271
榨	-7272
槌	-7273
泵	-7274
泾	-7275
浃	-7276
涑	-7277
淀	-7278
淬	-7279
湾	-7280
烜	-7281
牟	-7282
獭	-7283
琉	-7284
瑙	-7285
瑞	-7286
瘪	-7287
盲	-7288
瞭	-7289
矟	-7290
砦	-7291
磊	-7292
磬	-7293
禢	-7294
稷	-7295
笠	-7296
篮	-7297
簌	-7298
簿	-7299
糠	-7300
纾	-7301
绦	-7302
翌	-7303
肇	-7304
肛	-7305
肾	-7306
胛	-7307
膏	-7308
膘	-7309
芭	-7310
茉	-7311
蒜	-7312
蕤	-7313
藐	-7314
藩	-7315
虬	-7316
蛀	-7317
螃	-7318
襦	-7319
诣	-7320
诩	-7321
诲	-7322
诶	-7323
谗	-7324
赓	-7325
踮	-7326
蹑	-7327
辇	-7328
辐	-7329
辘	-7330
辫	-7331
迥	-7332
邮	-7333
酉	-7334
鎚	-7335
鏖	-7336
锈	-7337
锏	-7338
镂	-7339
阀	-7340
阡	-7341
陇	-7342
陕	-7343
霰	-7344
靓	-7345
韭	-7346
颖	-7347
饴	-7348
馍	-7349
驷	-7350
鲸	-7351
鸢	-7352
鸨	-7353
鹧	-7354
'	-7355
A	-7356
F	-7357
V	-7358
X	-7359
h	-7360
p	-7361
v	-7362
【	-7363
】	-7364
亳	-7365
倪	-7366
偕	-7367
兑	-7368
剁	-7369
勘	-7370
匮	-7371
卢	-7372
叭	-7373
呧	-7374
咤	-7375
哐	-7376
哓	-7377
唰	-7378
唳	-7379
喟	-7380
嗥	-7381
嗫	-7382
嗵	-7383
嘹	-7384
噪	-7385
嚅	-7386
嚏	-7387
囗	-7388
坊	-7389
垠	-7390
埃	-7391
奚	-7392
妯	-7393
娌	-7394
媲	-7395
孬	-7396
孺	-7397
寅	-7398
届	-7399
峪	-7400
崛	-7401
嶙	-7402
帔	-7403
幄	-7404
弈	-7405
徇	-7406
忱	-7407
忿	-7408
怼	-7409
悖	-7410
愎	-7411
愫	-7412
憩	-7413
懵	-7414
拷	-7415
捍	-7416
掴	-7417
掺	-7418
搠	-7419
搽	-7420
摁	-7421
摺	-7422
撂	-7423
撵	-7424
撸	-7425
斓	-7426
曩	-7427
杞	-7428
杠	-7429
杳	-7430
栢	-7431
楔	-7432
楣	-7433
楷	-7434
榆	-7435
榴	-7436
歧	-7437
氧	-7438
氾	-7439
沏	-7440
沮	-7441
洌	-7442
浔	-7443
渣	-7444
渭	-7445
湮	-7446
溽	-7447
煦	-7448
犁	-7449
犟	-7450
犷	-7451
狲	-7452
猢	-7453
獗	-7454
玥	-7455
瓯	-7456
産	-7457
畴	-7458
疫	-7459
痂	-7460
痣	-7461
痰	-7462
痿	-7463
瘤	-7464
癸	-7465
矍	-7466
碑	-7467
碳	-7468
礴	-7469
秧	-7470
稜	-7471
稿	-7472
窖	-7473
窠	-7474
笙	-7475
簧	-7476
粟	-7477
糗	-7478
纨	-7479
绉	-7480
绡	-7481
绺	-7482
缟	-7483
胚	-7484
芜	-7485
苛	-7486
荟	-7487
菠	-7488
蓑	-7489
蚰	-7490
衾	-7491
袂	-7492
袈	-7493
裎	-7494
裟	-7495
裨	-7496
褓	-7497
襁	-7498
讵	-7499
讹	-7500
诋	-7501
译	-7502
诓	-7503
谛	-7504
谤	-7505
贿	-7506
赡	-7507
跚	-7508
踌	-7509
蹒	-7510
蹴	-7511
蹶	-7512
躇	-7513
辑	-7514
迤	-7515
逮	-7516
郓	-7517
釜	-7518
錾	-7519
钜	-7520
铄	-7521
铉	-7522
锉	-7523
镯	-7524
陲	-7525
隅	-7526
隽	-7527
颀	-7528
颂	-7529
饯	-7530
馅	-7531
骆	-7532
鲲	-7533
鳅	-7534
鹉	-7535
鹦	-7536
麓	-7537
	-7538
I	-7539
K	-7540
P	-7541
T	-7542
Y	-7543
`	-7544
f	-7545
k	-7546
n	-7547
r	-7548
z	-7549
|	-7550
亟	-7551
亨	-7552
亿	-7553
仃	-7554
伹	-7555
伽	-7556
佔	-7557
佣	-7558
俭	-7559
倡	-7560
僭	-7561
冗	-7562
刊	-7563
卤	-7564
厘	-7565
吔	-7566
呷	-7567
哏	-7568
哝	-7569
唠	-7570
喙	-7571
嗑	-7572
嘣	-7573
噌	-7574
噎	-7575
噶	-7576
囡	-7577
坨	-7578
垣	-7579
墟	-7580
壬	-7581
妊	-7582
姘	-7583
姚	-7584
姹	-7585
娠	-7586
嫖	-7587
宪	-7588
寤	-7589
峥	-7590
崭	-7591
嵘	-7592
嵬	-7593
庚	-7594
庠	-7595
庵	-7596
忏	-7597
忻	-7598
怂	-7599
恿	-7600
悻	-7601
惰	-7602
愠	-7603
慭	-7604
扨	-7605
抂	-7606
抻	-7607
挎	-7608
揄	-7609
揶	-7610
攸	-7611
晏	-7612
晤	-7613
曙	-7614
朔	-7615
枭	-7616
柑	-7617
栀	-7618
桁	-7619
桐	-7620
桔	-7621
槽	-7622
橙	-7623
殖	-7624
浣	-7625
涝	-7626
涸	-7627
淆	-7628
淙	-7629
淼	-7630
溟	-7631
漡	-7632
潁	-7633
潋	-7634
澶	-7635
瀰	-7636
炊	-7637
牖	-7638
牦	-7639
牯	-7640
犄	-7641
狙	-7642
獐	-7643
瑄	-7644
痞	-7645
痺	-7646
瘴	-7647
皿	-7648
眀	-7649
眦	-7650
睚	-7651
睥	-7652
砝	-7653
砥	-7654
砹	-7655
砺	-7656
磅	-7657
礌	-7658
祛	-7659
秣	-7660
秾	-7661
穗	-7662
窅	-7663
窿	-7664
筵	-7665
箕	-7666
箸	-7667
篦	-7668
篾	-7669
簟	-7670
粪	-7671
糯	-7672
绔	-7673
绾	-7674
缅	-7675
缇	-7676
缢	-7677
羿	-7678
翆	-7679
翰	-7680
翳	-7681
耷	-7682
胰	-7683
腊	-7684
腚	-7685
臃	-7686
臆	-7687
臧	-7688
臾	-7689
芋	-7690
芍	-7691
芷	-7692
苎	-7693
苔	-7694
苕	-7695
茱	-7696
荔	-7697
菌	-7698
萸	-7699
萼	-7700
蓊	-7701
蔫	-7702
蕙	-7703
薯	-7704
虔	-7705
蚱	-7706
蛎	-7707
蛹	-7708
蝇	-7709
蝼	-7710
螯	-7711
衽	-7712
裔	-7713
裣	-7714
裾	-7715
褒	-7716
诰	-7717
谀	-7718
谬	-7719
谭	-7720
豕	-7721
贬	-7722
赂	-7723
躜	-7724
轲	-7725
迢	-7726
迳	-7727
逑	-7728
邢	-7729
邺	-7730
酪	-7731
鏦	-7732
钎	-7733
钺	-7734
钿	-7735
铐	-7736
铛	-7737
锄	-7738
锴	-7739
镐	-7740
镞	-7741
镫	-7742
镳	-7743
隋	-7744
雇	-7745
霁	-7746
霈	-7747
靖	-7748
鞑	-7749
韦	-7750
颉	-7751
飚	-7752
饺	-7753
馁	-7754
馈	-7755
骝	-7756
髋	-7757
鬃	-7758
鬈	-7759
鲍	-7760
鲛	-7761
鳃	-7762
鳖	-7763
鸱	-7764
鹂	-7765
鹃	-7766
鹊	-7767
黪	-7768
龇	-7769
龈	-7770
龊	-7771
龌	-7772
	-7773
#	-7774
G	-7775
H	-7776
J	-7777
S	-7778
U	-7779
g	-7780
s	-7781
y	-7782
¥	-7783
·	-7784
Λ	-7785
乓	-7786
仄	-7787
仞	-7788
仨	-7789
伥	-7790
侗	-7791
俅	-7792
俚	-7793
俛	-7794
俦	-7795
俳	-7796
倌	-7797
倨	-7798
偾	-7799
傕	-7800
僚	-7801
厂	-7802
厓	-7803
厕	-7804
厦	-7805
叁	-7806
叟	-7807
吠	-7808
呱	-7809
咖	-7810
哂	-7811
哲	-7812
哳	-7813
唿	-7814
啓	-7815
啕	-7816
啖	-7817
啡	-7818
啭	-7819
啷	-7820
啻	-7821
喵	-7822
嗝	-7823
嘌	-7824
嘬	-7825
嘭	-7826
囧	-7827
囫	-7828
囵	-7829
圉	-7830
圧	-7831
圪	-7832
圬	-7833
圮	-7834
圾	-7835
址	-7836
坝	-7837
坳	-7838
垃	-7839
埠	-7840
埭	-7841
堑	-7842
堰	-7843
墀	-7844
墉	-7845
壈	-7846
夔	-7847
夥	-7848
奼	-7849
妳	-7850
姝	-7851
娄	-7852
娅	-7853
娲	-7854
娼	-7855
婊	-7856
婕	-7857
嬴	-7858
孀	-7859
孰	-7860
孱	-7861
宥	-7862
寓	-7863
寔	-7864
尼	-7865
屿	-7866
岿	-7867
峋	-7868
崔	-7869
崴	-7870
嵋	-7871
嵩	-7872
嵫	-7873
巖	-7874
巽	-7875
帏	-7876
幂	-7877
廿	-7878
弭	-7879
徜	-7880
忤	-7881
忪	-7882
忾	-7883
怄	-7884
怛	-7885
恁	-7886
恫	-7887
悱	-7888
悼	-7889
懑	-7890
戊	-7891
戽	-7892
扥	-7893
扪	-7894
抉	-7895
抔	-7896
拄	-7897
挈	-7898
挝	-7899
捭	-7900
捱	-7901
搊	-7902
搥	-7903
搧	-7904
摒	-7905
摹	-7906
撘	-7907
擘	-7908
擢	-7909
擤	-7910
斡	-7911
旯	-7912
暠	-7913
暱	-7914
曜	-7915
朅	-7916
枷	-7917
柠	-7918
栾	-7919
框	-7920
桓	-7921
桧	-7922
梓	-7923
梵	-7924
椁	-7925
椭	-7926
椽	-7927
楠	-7928
榔	-7929
榛	-7930
榭	-7931
槊	-7932
槐	-7933
槛	-7934
樗	-7935
樨	-7936
橛	-7937
橡	-7938
橱	-7939
橼	-7940
檬	-7941
櫺	-7942
欹	-7943
歆	-7944
歙	-7945
殍	-7946
殓	-7947
殡	-7948
殮	-7949
氅	-7950
氢	-7951
汐	-7952
汜	-7953
沖	-7954
沽	-7955
泫	-7956
浙	-7957
淇	-7958
渝	-7959
湓	-7960
溧	-7961
滂	-7962
滤	-7963
滦	-7964
潞	-7965
潼	-7966
濮	-7967
濶	-7968
瀮	-7969
灶	-7970
炔	-7971
炕	-7972
焖	-7973
煅	-7974
燉	-7975
爿	-7976
牝	-7977
牠	-7978
狄	-7979
狎	-7980
玼	-7981
珀	-7982
琥	-7983
琯	-7984
瑛	-7985
璋	-7986
甥	-7987
甭	-7988
畸	-7989
畿	-7990
痔	-7991
痫	-7992
痱	-7993
瘀	-7994
瘈	-7995
癌	-7996
盹	-7997
眮	-7998
瞰	-7999
瞿	-8000
砚	-8001
砧	-8002
硌	-8003
磹	-8004
礅	-8005
祁	-8006
祡	-8007
禦	-8008
禳	-8009
禹	-8010
稔	-8011
稗	-8012
稣	-8013
穼	-8014
竣	-8015
笞	-8016
笺	-8017
箜	-8018
箬	-8019
篆	-8020
篌	-8021
篑	-8022
粜	-8023
粤	-8024
粱	-8025
給	-8026
緻	-8027
纒	-8028
纡	-8029
绅	-8030
缦	-8031
罄	-8032
罅	-8033
罴	-8034
羌	-8035
羨	-8036
羯	-8037
翥	-8038
翦	-8039
耆	-8040
耙	-8041
肓	-8042
肱	-8043
腩	-8044
腭	-8045
腺	-8046
膑	-8047
膻	-8048
臼	-8049
舀	-8050
舢	-8051
艋	-8052
艮	-8053
芥	-8054
芮	-8055
芼	-8056
苇	-8057
苋	-8058
茄	-8059
荚	-8060
荠	-8061
荻	-8062
莎	-8063
莞	-8064
菅	-8065
菡	-8066
菸	-8067
萏	-8068
蒿	-8069
蓁	-8070
蓮	-8071
蔗	-8072
蔡	-8073
蕨	-8074
藻	-8075
蘼	-8076
虱	-8077
蚓	-8078
蚬	-8079
蛱	-8080
蜚	-8081
蝠	-8082
螂	-8083
螭	-8084
螳	-8085
蟥	-8086
蟾	-8087
衲	-8088
衿	-8089
袢	-8090
裏	-8091
褫	-8092
襃	-8093
觊	-8094
觎	-8095
觐	-8096
觞	-8097
觥	-8098
詈	-8099
讧	-8100
诌	-8101
诙	-8102
谍	-8103
谒	-8104
谝	-8105
谲	-8106
谵	-8107
豺	-8108
贰	-8109
赈	-8110
赊	-8111
赝	-8112
趄	-8113
趔	-8114
跤	-8115
跽	-8116
踊	-8117
蹩	-8118
轧	-8119
轱	-8120
轳	-8121
轶	-8122
辍	-8123
迴	-8124
逖	-8125
遑	-8126
遛	-8127
鄢	-8128
酊	-8129
酩	-8130
酵	-8131
醍	-8132
醐	-8133
醮	-8134
釉	-8135
鉃	-8136
鑑	-8137
钵	-8138
钹	-8139
铩	-8140
锃	-8141
锞	-8142
锡	-8143
锲	-8144
镌	-8145
镪	-8146
闩	-8147
闱	-8148
闶	-8149
阄	-8150
阆	-8151
阉	-8152
阊	-8153
阕	-8154
雹	-8155
霾	-8156
靨	-8157
韶	-8158
颢	-8159
飓	-8160
馊	-8161
馏	-8162
馐	-8163
馔	-8164
驽	-8165
骅	-8166
骢	-8167
骥	-8168
髒	-8169
髮	-8170
鲢	-8171
鳆	-8172
鳗	-8173
鳜	-8174
鴒	-8175
鹜	-8176
鹞	-8177
鹳	-8178
麋	-8179
麦	-8180
黔	-8181
鼾	-8182
	-8183
	-8184
	-8185
