<unk>	0
<s>	0
</s>	0

	0
蒋	0
鹤	0
..	-0
....	-1
六郎	-2
......	-3
:“	-4
。”	-5
战龙	-6
自己	-7
▁六郎	-8
?”	-9
没有	-10
▁“	-11
她的	-12
已经	-13
......”	-14
了一	-15
我们	-16
!”	-17
小姐	-18
起来	-19
龙枪	-20
▁战龙	-21
四小姐	-22
什么	-23
知道	-24
六郎的	-25
慕容	-26
雪航	-27
一个	-28
慕容雪航	-29
这样	-30
现在	-31
不是	-32
姐姐	-33
自己的	-34
凤凰	-35
,“	-36
不住	-37
时候	-38
花蕊	-39
萧绰	-40
就是	-41
人的	-42
出来	-43
不要	-44
感觉	-45
但是	-46
你们	-47
一下	-48
心中	-49
一阵	-50
轻轻	-51
可是	-52
白凤凰	-53
身上	-54
一声	-55
到了	-56
你的	-57
笑道	-58
怎么	-59
身体	-60
他的	-61
虽然	-62
这个	-63
皇后	-64
也不	-65
开始	-66
之后	-67
他们	-68
我的	-69
还是	-70
的玉	-71
周后	-72
过来	-73
不能	-74
身子	-75
都是	-76
因为	-77
可以	-78
--	-79
下来	-80
双手	-81
还有	-82
舒服	-83
看着	-84
一次	-85
紧紧	-86
的小	-87
不由	-88
说道	-89
不过	-90
四娘	-91
有些	-92
的大	-93
这么	-94
若儿	-95
▁慕容雪航	-96
看到	-97
上的	-98
▁说	-99
一边	-100
真是	-101
用力	-102
点头	-103
慢慢	-104
只是	-105
四姐	-106
▁四小姐	-107
一点	-108
雪妃	-109
这些	-110
程世	-111
程世杰	-112
一起	-113
紫若儿	-114
大周后	-115
战龙的	-116
娇躯	-117
也是	-118
将军	-119
微微	-120
着她	-121
公主	-122
明歌	-123
然后	-124
呻吟	-125
郡主	-126
两个	-127
全身	-128
突然	-129
大的	-130
云妃	-131
幽谷	-132
如此	-133
更是	-134
发出	-135
真的	-136
事情	-137
觉得	-138
六爷	-139
要是	-140
今天	-141
里面	-142
中的	-143
水师	-144
马上	-145
雪白	-146
不断	-147
白雪妃	-148
在她	-149
之间	-150
不了	-151
的一	-152
▁第	-153
紫烟	-154
白云妃	-155
不会	-156
动作	-157
眼睛	-158
柔软	-159
的时候	-160
时间	-161
于是	-162
一样	-163
这种	-164
云罗	-165
士兵	-166
这里	-167
的美	-168
雪雁	-169
快感	-170
女人	-171
日明	-172
宝日明	-173
宝日明梅	-174
辽军	-175
苗雪雁	-176
的话	-177
不知道	-178
桂英	-179
这一	-180
随着	-181
同时	-182
一般	-183
穆桂英	-184
来的	-185
所以	-186
妹妹	-187
居然	-188
有一	-189
不到	-190
的感觉	-191
刺激	-192
下去	-193
人家	-194
刚才	-195
忍不住	-196
过去	-197
终于	-198
好了	-199
死了	-200
清苑	-201
十分	-202
小穴	-203
肌肤	-204
大嫂	-205
整个	-206
浑身	-207
准备	-208
却是	-209
强烈	-210
她们	-211
下的	-212
钟皇后	-213
看看	-214
一股	-215
那么	-216
司清苑	-217
之中	-218
元神	-219
嫩的	-220
想到	-221
那些	-222
声道	-223
不得	-224
上来	-225
衣服	-226
吴越	-227
尤其	-228
感到	-229
手指	-230
口中	-231
龙兰	-232
夫人	-233
娇羞	-234
住了	-235
灵灵	-236
美的	-237
体内	-238
了一下	-239
着她的	-240
司马	-241
李煜	-242
一定	-243
温柔	-244
不停	-245
脸上	-246
更加	-247
▁萧绰	-248
舌头	-249
来了	-250
耶律	-251
▁白凤凰	-252
元罗	-253
只有	-254
颤抖	-255
丰满	-256
厉害	-257
之下	-258
姐妹	-259
公子	-260
面的	-261
二人	-262
让她	-263
动着	-264
抚摸	-265
那一	-266
不知	-267
----	-268
司马紫烟	-269
口气	-270
的双	-271
能够	-272
出一	-273
酥胸	-274
咱们	-275
明歌郡主	-276
实在	-277
来到	-278
女子	-279
笑着	-280
会儿	-281
大家	-282
东西	-283
火热	-284
进去	-285
清影	-286
无比	-287
所有	-288
是一	-289
胸前	-290
身边	-291
东方	-292
不可	-293
的手	-294
顿时	-295
享受	-296
问道	-297
如何	-298
继续	-299
越来	-300
喜欢	-301
上去	-302
色的	-303
声音	-304
那个	-305
越来越	-306
正在	-307
就要	-308
那种	-309
高潮	-310
▁六郎道	-311
抽插	-312
办法	-313
的是	-314
的人	-315
最后	-316
深处	-317
在六郎	-318
不好	-319
回来	-320
一直	-321
男人	-322
的龙枪	-323
玉娇	-324
眼前	-325
将她	-326
不敢	-327
蒙古	-328
▁她	-329
一笑	-330
为了	-331
无法	-332
一些	-333
南阳	-334
一只	-335
完全	-336
欲火	-337
是不是	-338
上了	-339
的乳	-340
只觉	-341
在一起	-342
着六郎	-343
紫玉	-344
大人	-345
而且	-346
感受	-347
出了	-348
晚上	-349
样子	-350
手中	-351
发现	-352
这是	-353
应该	-354
还不	-355
姑姑	-356
床上	-357
贵妃	-358
++	-359
胴体	-360
的阴	-361
弟弟	-362
朱玉	-363
六哥	-364
怀中	-365
还要	-366
缓缓	-367
去了	-368
连忙	-369
了一声	-370
进入	-371
地方	-372
我就	-373
般的	-374
两人	-375
▁说着	-376
力的	-377
那样	-378
...	-379
给你	-380
被六郎	-381
似乎	-382
哥哥	-383
上面	-384
潘凤	-385
的情	-386
渐渐	-387
就在	-388
林熙	-389
加上	-390
原来	-391
若是	-392
全部	-393
林熙蕊	-394
司徒	-395
告诉	-396
吴越水师	-397
兴奋	-398
带着	-399
点点头	-400
不行	-401
一片	-402
红的	-403
美丽	-404
龟头	-405
了起来	-406
下身	-407
又是	-408
着那	-409
还没有	-410
娇喘	-411
着六郎的	-412
岳灵灵	-413
敏感	-414
洪玉娇	-415
似的	-416
意思	-417
东方紫玉	-418
仿佛	-419
只能	-420
圣母	-421
呼吸	-422
好好	-423
如果	-424
抱住	-425
修长	-426
出的	-427
花心	-428
几乎	-429
好像	-430
给我	-431
这儿	-432
只要	-433
她那	-434
一双	-435
清雅	-436
此时	-437
敌人	-438
深深	-439
哪里	-440
当然	-441
自然	-442
进来	-443
难道	-444
我要	-445
屁股	-446
开了	-447
想要	-448
晋王	-449
充满	-450
几个	-451
赶紧	-452
的快感	-453
你了	-454
让我	-455
说话	-456
少女	-457
惜惜	-458
成了	-459
英雄	-460
大军	-461
令人	-462
双腿	-463
难以	-464
攻击	-465
让你	-466
明白	-467
姥姥	-468
师父	-469
快速	-470
进攻	-471
两位	-472
宝贝	-473
飞虎	-474
跟着	-475
伸手	-476
你就	-477
需要	-478
高兴	-479
的娇	-480
看来	-481
芳心	-482
滋味	-483
玉手	-484
也没有	-485
武功	-486
满足	-487
前面	-488
兄弟	-489
只见	-490
父亲	-491
阵阵	-492
的事情	-493
必须	-494
飞虎城	-495
女儿	-496
根本	-497
的香	-498
骊山	-499
▁花蕊	-500
的身体	-501
让六郎	-502
目光	-503
一面	-504
坚挺	-505
命令	-506
爱抚	-507
轻轻的	-508
听到	-509
再次	-510
▁这	-511
尽管	-512
有了	-513
上下	-514
人都	-515
直接	-516
纤腰	-517
一种	-518
清楚	-519
那里	-520
母后	-521
好舒服	-522
的呻吟	-523
果然	-524
的肉	-525
过了	-526
早就	-527
身后	-528
有什么	-529
刚刚	-530
下面	-531
面前	-532
说不	-533
谨梅	-534
接着	-535
摇头	-536
玉棠	-537
一丝	-538
的神	-539
逍遥	-540
修神	-541
就算	-542
浑圆	-543
离开	-544
苏蒙	-545
想不到	-546
可能	-547
而是	-548
石玉棠	-549
一手	-550
后面	-551
樱唇	-552
★☆	-553
心里	-554
一下子	-555
说的	-556
不由得	-557
一把	-558
三个	-559
不想	-560
就会	-561
任何	-562
喘息	-563
花公主	-564
挑逗	-565
晶莹	-566
滑的	-567
骑兵	-568
一会儿	-569
▁白云妃	-570
地说	-571
好的	-572
温谨梅	-573
温暖	-574
愿意	-575
之上	-576
云若	-577
正好	-578
宋皇后	-579
上前	-580
以后	-581
休息	-582
分开	-583
天下	-584
有人	-585
疯狂	-586
立即	-587
吸吮	-588
露出	-589
蒙古兵	-590
弄得	-591
饱满	-592
了出来	-593
力气	-594
苏蒙云若	-595
关系	-596
放心	-597
的道	-598
▁宝日明梅	-599
嘴唇	-600
握住	-601
战船	-602
玉腿	-603
另外	-604
地上	-605
你是	-606
希望	-607
抱着	-608
狠狠	-609
酥麻	-610
小周后	-611
林雪	-612
而出	-613
身下	-614
在她的	-615
林雪贞	-616
★☆★☆	-617
大手	-618
大辽	-619
孟姜	-620
让人	-621
伸出	-622
淫水	-623
像是	-624
回去	-625
一道	-626
小嘴	-627
花蕊的	-628
老婆	-629
见她	-630
看了	-631
见到	-632
起了	-633
其实	-634
很快	-635
九天	-636
樱桃	-637
受不了	-638
皇上	-639
在自己	-640
在六郎的	-641
不禁	-642
心道	-643
我也	-644
插入	-645
高手	-646
大宋	-647
本来	-648
皇帝	-649
了几	-650
^^	-651
一条	-652
就将	-653
强烈的	-654
一眼	-655
你要	-656
怎样	-657
我不	-658
用手	-659
就这样	-660
容易	-661
朱玉婵	-662
出去	-663
多少	-664
娇妻	-665
彻底	-666
控制	-667
诱人	-668
逐渐	-669
在了	-670
快乐	-671
让他	-672
感觉到	-673
▁白雪妃	-674
扭动	-675
姑娘	-676
湿润	-677
着脸	-678
结果	-679
倒是	-680
小心	-681
配合	-682
的样子	-683
兵马	-684
再也	-685
左右	-686
我是	-687
抓住	-688
这才	-689
里的	-690
非常	-691
▁四娘	-692
九天玄	-693
机会	-694
美妙	-695
这样的	-696
你可	-697
宋军	-698
无限	-699
在床上	-700
▁苗雪雁	-701
得到	-702
烈的	-703
被他	-704
这件	-705
慢慢的	-706
▁一	-707
刀手	-708
眼神	-709
肯定	-710
嘿嘿	-711
热的	-712
这次	-713
龙头	-714
深入	-715
简直	-716
柔软的	-717
符皇后	-718
一旦	-719
功力	-720
既然	-721
乃是	-722
之前	-723
滑腻	-724
那是	-725
到底	-726
无力	-727
沙河	-728
▁元罗	-729
不及	-730
如同	-731
粗大	-732
苏姬	-733
即使	-734
秀发	-735
并且	-736
害怕	-737
情的	-738
舌尖	-739
阴道	-740
九天玄佛	-741
。“	-742
主动	-743
的肌肤	-744
▁紫若儿	-745
以为	-746
朝着	-747
爱的	-748
了一个	-749
不自	-750
再说	-751
沈慈	-752
亲吻	-753
向前	-754
帮助	-755
御剑	-756
顺着	-757
已经是	-758
坏蛋	-759
司徒清雅	-760
你不	-761
此刻	-762
长亭	-763
为什么	-764
骊山圣母	-765
洁白	-766
答应	-767
▁司马紫烟	-768
担心	-769
杨家	-770
的身	-771
素心	-772
越秀	-773
下了	-774
的声音	-775
琼花公主	-776
仙君	-777
成熟	-778
的一声	-779
逍遥仙君	-780
你这	-781
多了	-782
抬起	-783
二嫂	-784
其中	-785
绝色	-786
肚兜	-787
高耸	-788
令她	-789
耶律长亭	-790
下体	-791
令公	-792
孟良	-793
小的	-794
--------	-795
一步	-796
对方	-797
急促	-798
赵匡	-799
紧紧地	-800
功夫	-801
十万	-802
回头	-803
手下	-804
的脸	-805
速度	-806
销魂	-807
你不要	-808
妩媚	-809
意的	-810
有的	-811
眼中	-812
荡漾	-813
进了	-814
长的	-815
诱人的	-816
甚至	-817
▁说罢	-818
身上的	-819
望着	-820
了下来	-821
你怎么	-822
晋王妃	-823
水清影	-824
的玉峰	-825
也要	-826
挣扎	-827
有点	-828
还在	-829
美人	-830
连连	-831
娇嫩的	-832
赵匡胤	-833
指挥	-834
模样	-835
花瓣	-836
紧紧的	-837
++++	-838
在那	-839
悬空	-840
昨天	-841
的心	-842
盖天	-843
尤其是	-844
——	-845
张静	-846
惊讶	-847
早已	-848
显得	-849
欲望	-850
实在是	-851
军队	-852
竟然	-853
羞涩	-854
上一	-855
摩擦	-856
母亲	-857
白玉	-858
起伏	-859
不管	-860
今日	-861
只好	-862
盾牌	-863
着一	-864
只觉得	-865
▁司清苑	-866
乳房	-867
含羞	-868
弄着	-869
抽送	-870
相信	-871
距离	-872
悬空岛	-873
轻轻地	-874
不起	-875
玉峰	-876
阴户	-877
不停的	-878
的士兵	-879
的胴体	-880
哈哈	-881
大腿	-882
正是	-883
满了	-884
不断地	-885
慢慢地	-886
传来	-887
发生	-888
回到	-889
外面	-890
大力	-891
就不	-892
许多	-893
之处	-894
从来	-895
在他	-896
子宫	-897
我和	-898
竟是	-899
老公	-900
臀部	-901
这般	-902
不堪	-903
不已	-904
丽华	-905
坚硬	-906
才能	-907
以前	-908
修炼	-909
娇艳	-910
房间	-911
赤裸	-912
保护	-913
南唐	-914
太宗	-915
急忙	-916
的动作	-917
**	-918
▁他	-919
光滑	-920
这时	-921
的地方	-922
的娇躯	-923
这一次	-924
叹道	-925
弟子	-926
我了	-927
▁那	-928
不同	-929
的玉腿	-930
被战龙	-931
低头	-932
你还	-933
永远	-934
重重	-935
第一次	-936
双峰	-937
小腹	-938
怀里	-939
洞庭	-940
冲击	-941
出声	-942
姿势	-943
带领	-944
小坏蛋	-945
一波	-946
之人	-947
娇嫩	-948
巨龙	-949
都不	-950
除了	-951
难受	-952
粗大龙枪	-953
▁六郎笑道	-954
七星	-955
动了	-956
处女	-957
差点	-958
痛苦	-959
相公	-960
柴明歌	-961
洞庭湖	-962
就像	-963
性命	-964
滚烫	-965
雅芙	-966
了一口	-967
六将军	-968
的身子	-969
城墙	-970
媚眼	-971
心的	-972
悄悄	-973
战斗	-974
然大	-975
都要	-976
让战龙	-977
一看	-978
中间	-979
了吗	-980
张开	-981
男女	-982
表情	-983
雷霆	-984
香舌	-985
的大腿	-986
都没有	-987
三人	-988
原本	-989
叫着	-990
注意	-991
一个人	-992
人马	-993
众人	-994
▁穆桂英	-995
三春	-996
你啊	-997
气的	-998
的蜜	-999
看得	-1000
纷纷	-1001
迅速	-1002
没想到	-1003
两只	-1004
吮吸	-1005
诱惑	-1006
我们的	-1007
盖天娇	-1008
一切	-1009
一口	-1010
俏脸	-1011
变得	-1012
娘娘	-1013
子的	-1014
师姐	-1015
弓弩	-1016
了进去	-1017
天山	-1018
搂住	-1019
消息	-1020
淫荡	-1021
红色	-1022
细的	-1023
心中一	-1024
陶三春	-1025
动人	-1026
动的	-1027
很多	-1028
意识	-1029
战马	-1030
以及	-1031
你好	-1032
你真	-1033
山西	-1034
并不	-1035
日子	-1036
甜蜜	-1037
修神界	-1038
并没有	-1039
红着脸	-1040
一件	-1041
玲珑	-1042
甬道	-1043
经过	-1044
在战龙	-1045
我现在	-1046
着自己	-1047
两片	-1048
的胸	-1049
看见	-1050
着急	-1051
美女	-1052
美目	-1053
部分	-1054
在这里	-1055
知道了	-1056
一路	-1057
不如	-1058
你想	-1059
其他	-1060
多的	-1061
得了	-1062
快些	-1063
的小穴	-1064
今后	-1065
全都	-1066
对手	-1067
已是	-1068
我会	-1069
直到	-1070
西凉	-1071
所有的	-1072
反应	-1073
啊啊	-1074
显然	-1075
玉门	-1076
第二	-1077
▁龙兰	-1078
巨大的	-1079
出现	-1080
卧牛	-1081
身的	-1082
一时	-1083
丈夫	-1084
不错	-1085
否则	-1086
说着	-1087
一只手	-1088
一番	-1089
宝剑	-1090
思菱	-1091
明明	-1092
里头	-1093
▁东方紫玉	-1094
又道	-1095
恐怕	-1096
紧闭	-1097
兰柳	-1098
回鹘	-1099
好美	-1100
将那	-1101
想起	-1102
紧张	-1103
的酥胸	-1104
气息	-1105
精华	-1106
面对	-1107
不行了	-1108
将自己	-1109
耶律撒	-1110
陆思菱	-1111
为何	-1112
了吧	-1113
分明	-1114
嘴里	-1115
无极	-1116
转身	-1117
迎合	-1118
龙姬	-1119
周雅芙	-1120
朱玉鸾	-1121
王贵妃	-1122
耶律撒葛	-1123
不仅	-1124
不时	-1125
丰腴	-1126
吁吁	-1127
疼痛	-1128
酥软	-1129
重要	-1130
石清影	-1131
一对	-1132
不用	-1133
大了	-1134
性的	-1135
情况	-1136
揉捏	-1137
自主	-1138
▁说完	-1139
干什么	-1140
你说	-1141
儿子	-1142
危险	-1143
喊道	-1144
太原	-1145
忽然	-1146
杀了	-1147
的水	-1148
计划	-1149
这位	-1150
问题	-1151
文素心	-1152
温柔的	-1153
▁岳灵灵	-1154
光义	-1155
因此	-1156
嫩肉	-1157
孩子	-1158
安排	-1159
尽情	-1160
弓箭	-1161
收缩	-1162
欲仙	-1163
耳边	-1164
舒畅	-1165
辽兵	-1166
骂道	-1167
无比的	-1168
哎呀	-1169
男子	-1170
行动	-1171
白姐姐	-1172
的双峰	-1173
洞庭湖水师	-1174
入了	-1175
冲动	-1176
回答	-1177
娇媚	-1178
得她	-1179
无数	-1180
曲线	-1181
高高	-1182
黑山	-1183
的女人	-1184
赵光义	-1185
我还	-1186
桃源	-1187
淡淡	-1188
肉棒	-1189
毕竟	-1190
缠绵	-1191
都被	-1192
幽谷甬道	-1193
一身	-1194
下头	-1195
两条	-1196
叫道	-1197
命的	-1198
往下	-1199
手掌	-1200
明天	-1201
死的	-1202
潘豹	-1203
神秘	-1204
解开	-1205
六郎和	-1206
怎么办	-1207
抚摸着	-1208
这时候	-1209
从未	-1210
血妖	-1211
丢了	-1212
咬着	-1213
我好	-1214
有如	-1215
走了	-1216
叹口气	-1217
黑山血妖	-1218
不上	-1219
不再	-1220
等着	-1221
虽说	-1222
充满了	-1223
凤凰城	-1224
依然	-1225
向上	-1226
圣洁	-1227
大量	-1228
焦赞	-1229
燃烧	-1230
痛楚	-1231
▁慕容雪航道	-1232
不少	-1233
依旧	-1234
大声	-1235
粗壮	-1236
他们的	-1237
这么多	-1238
使用	-1239
对着	-1240
异常	-1241
情欲	-1242
的好	-1243
认识	-1244
雨秋	-1245
宋太宗	-1246
右手	-1247
头上	-1248
时辰	-1249
到时候	-1250
什么时候	-1251
不见	-1252
丫头	-1253
妃暄	-1254
对付	-1255
心神	-1256
方向	-1257
玉体	-1258
要不	-1259
不自禁	-1260
的小腹	-1261
迷人的	-1262
亮的	-1263
愈来	-1264
撞击	-1265
明神	-1266
的粉	-1267
盈盈	-1268
真气	-1269
结实	-1270
愈来愈	-1271
点头道	-1272
二女	-1273
吩咐	-1274
站在	-1275
贪婪	-1276
师妃暄	-1277
和你	-1278
帮你	-1279
打算	-1280
接触	-1281
极为	-1282
王妃	-1283
虽是	-1284
闭上	-1285
的乳房	-1286
不由自主	-1287
幸福	-1288
按照	-1289
玉臀	-1290
▁南阳	-1291
一阵阵	-1292
能不能	-1293
慕容雨秋	-1294
你也	-1295
到她	-1296
或许	-1297
桥关	-1298
进行	-1299
不断的	-1300
瓦桥关	-1301
今天晚上	-1302
▁当	-1303
九妹	-1304
众女	-1305
却不	-1306
可惜	-1307
承受	-1308
渴望	-1309
瞬间	-1310
不停地	-1311
司徒明	-1312
▁在	-1313
一颤	-1314
人了	-1315
叫声	-1316
想着	-1317
生的	-1318
相互	-1319
穆宗	-1320
简单	-1321
见过	-1322
▁六郎的	-1323
▁明歌郡主	-1324
也就	-1325
亲自	-1326
倒在	-1327
偷偷	-1328
力量	-1329
大王	-1330
挺动	-1331
放开	-1332
铭儿	-1333
阿姨	-1334
我已经	-1335
从来没有	-1336
哼了一声	-1337
不多	-1338
也有	-1339
却道	-1340
嫂子	-1341
心头	-1342
愈发	-1343
本能	-1344
立刻	-1345
轻声	-1346
方丽华	-1347
▁洪玉娇	-1348
南宫	-1349
反抗	-1350
可爱	-1351
方才	-1352
程千	-1353
肉体	-1354
跟我	-1355
都在	-1356
队伍	-1357
防御	-1358
司徒明枫	-1359
六郎的龙枪	-1360
坐在	-1361
如今	-1362
把她	-1363
激情	-1364
你要是	-1365
萧铭儿	-1366
二十	-1367
使得	-1368
受到	-1369
彷佛	-1370
紧了	-1371
紧窄	-1372
都会	-1373
出来的	-1374
扭动着	-1375
火雷霆	-1376
之际	-1377
前进	-1378
地道	-1379
好爽	-1380
抗拒	-1381
接受	-1382
时而	-1383
求你	-1384
湿滑	-1385
的火	-1386
睁开	-1387
被你	-1388
辽穆宗	-1389
情不自禁	-1390
不但	-1391
传令	-1392
几天	-1393
听说	-1394
吻着	-1395
嘴巴	-1396
地将	-1397
恢复	-1398
普通	-1399
柔嫩	-1400
水中	-1401
的花	-1402
的说	-1403
六郎也	-1404
好弟弟	-1405
也不知道	-1406
亵裤	-1407
就连	-1408
尸体	-1409
得更	-1410
檀口	-1411
的她	-1412
真正	-1413
鲜血	-1414
▁李煜	-1415
已经被	-1416
偷袭	-1417
大哥	-1418
是我	-1419
毫无	-1420
燕子	-1421
王爷	-1422
的事	-1423
舒爽	-1424
隐隐	-1425
住她的	-1426
的六郎	-1427
主意	-1428
内心	-1429
却又	-1430
是啊	-1431
朝廷	-1432
眼泪	-1433
私处	-1434
胸口	-1435
脖子	-1436
迷人	-1437
那双	-1438
怎么会	-1439
一听	-1440
包裹	-1441
向下	-1442
对准	-1443
将领	-1444
生命	-1445
秀影	-1446
轻柔	-1447
不住的	-1448
一张	-1449
全力	-1450
变成	-1451
四个	-1452
四周	-1453
圆润	-1454
如丝	-1455
征服	-1456
雪珍	-1457
▁于是	-1458
摇摇头	-1459
是什么	-1460
郑秀影	-1461
六郎的手	-1462
世宗	-1463
乌龟	-1464
交合	-1465
仔细	-1466
城的	-1467
弹性	-1468
柳腰	-1469
瑶烟	-1470
第一	-1471
羞红	-1472
胯下	-1473
赤虎	-1474
隔着	-1475
▁云罗	-1476
六郎道	-1477
的刺激	-1478
的滋味	-1479
越秀公主	-1480
三十	-1481
之外	-1482
之时	-1483
快活	-1484
美艳	-1485
起的	-1486
我知道	-1487
军的	-1488
同意	-1489
挤压	-1490
搓揉	-1491
无奈	-1492
最好	-1493
脚步	-1494
面上	-1495
六郎将	-1496
到六郎	-1497
两天	-1498
姨娘	-1499
精神	-1500
钦差	-1501
辽军的	-1502
道元神	-1503
▁见	-1504
了两	-1505
了我	-1506
嘻嘻	-1507
毫不	-1508
满意	-1509
琳儿	-1510
生气	-1511
的情况	-1512
红色的	-1513
这件事	-1514
^^^^	-1515
四小姐的	-1516
停止	-1517
千万	-1518
名器	-1519
呵呵	-1520
形成	-1521
空中	-1522
羞得	-1523
而已	-1524
肚子	-1525
师小姐	-1526
整个人	-1527
航姐姐	-1528
三千	-1529
了好	-1530
剧烈	-1531
周身	-1532
摆动	-1533
春情	-1534
通红	-1535
火热的	-1536
用力的	-1537
一副	-1538
你和	-1539
别人	-1540
又说	-1541
双眼	-1542
后的	-1543
对我	-1544
开来	-1545
片刻	-1546
用的	-1547
的长	-1548
脑袋	-1549
了下去	-1550
★☆★☆★☆★☆	-1551
不出	-1552
之内	-1553
修罗	-1554
又将	-1555
报仇	-1556
收拾	-1557
是在	-1558
爱你	-1559
牺牲	-1560
猛然	-1561
留下	-1562
确实	-1563
给他	-1564
▁潘凤	-1565
庞然大	-1566
有没有	-1567
着战龙	-1568
庞然大物	-1569
兵器	-1570
动手	-1571
句话	-1572
和尚	-1573
在这	-1574
头来	-1575
张若	-1576
快的	-1577
有着	-1578
猛地	-1579
认为	-1580
那就	-1581
娇喘吁吁	-1582
一红	-1583
不开	-1584
实话	-1585
当中	-1586
我想	-1587
或者	-1588
插得	-1589
散发	-1590
爱液	-1591
目的	-1592
红晕	-1593
了她	-1594
会有	-1595
如玉	-1596
春水	-1597
梦萝	-1598
秀宁	-1599
重的	-1600
飘飘	-1601
也不知	-1602
享受着	-1603
原来是	-1604
的玉体	-1605
不成	-1606
中了	-1607
人心	-1608
剩下	-1609
小妹	-1610
巨大	-1611
放在	-1612
无敌	-1613
暂时	-1614
痉挛	-1615
给她	-1616
绝对	-1617
衣衫	-1618
过的	-1619
还真	-1620
陆涛	-1621
鲜花	-1622
李贵妃	-1623
便是	-1624
变化	-1625
家的	-1626
抚弄	-1627
揉搓	-1628
身心	-1629
昨天晚上	-1630
一同	-1631
你看	-1632
双方	-1633
同样	-1634
夫妻	-1635
抽出	-1636
每一	-1637
留在	-1638
部队	-1639
靠近	-1640
并不是	-1641
风火雷霆	-1642
反而	-1643
密的	-1644
就被	-1645
彼此	-1646
性感	-1647
放弃	-1648
爆发	-1649
磨擦	-1650
三公子	-1651
了自己	-1652
出来了	-1653
沙河郡	-1654
的说道	-1655
站起来	-1656
上身	-1657
刺客	-1658
潘仁	-1659
的淫	-1660
跟前	-1661
难耐	-1662
一定要	-1663
低下头	-1664
着战龙的	-1665
▁白	-1666
一挺	-1667
两腿	-1668
乌黑	-1669
亲亲	-1670
十二	-1671
坏了	-1672
大小	-1673
想了	-1674
放下	-1675
放过	-1676
欺负	-1677
的那	-1678
脸颊	-1679
了她的	-1680
卧牛关	-1681
和六郎	-1682
感受到	-1683
的目光	-1684
要不是	-1685
三嫂	-1686
任由	-1687
全是	-1688
压在	-1689
帮我	-1690
我可	-1691
抵抗	-1692
暴露	-1693
炼狱	-1694
的笑	-1695
艾虎	-1696
起身	-1697
你这样	-1698
张静初	-1699
萧绰的	-1700
程世杰的	-1701
决定	-1702
奇怪	-1703
姐夫	-1704
客栈	-1705
来回	-1706
熟悉	-1707
生怕	-1708
见羞	-1709
集中	-1710
了六郎	-1711
将她的	-1712
没有办法	-1713
味道	-1714
姜菲	-1715
幽幽	-1716
极了	-1717
柔滑	-1718
泪水	-1719
细腻	-1720
说了	-1721
远处	-1722
采儿	-1723
风情	-1724
你们俩	-1725
你现在	-1726
六公子	-1727
姜菲儿	-1728
就可以	-1729
惊讶道	-1730
陆雪珍	-1731
发出一声	-1732
着自己的	-1733
不许	-1734
也在	-1735
几位	-1736
妻子	-1737
抬头	-1738
暗中	-1739
着的	-1740
紫菱	-1741
绝世	-1742
绿华	-1743
对自己	-1744
着龙枪	-1745
▁林熙蕊	-1746
不动	-1747
东阳	-1748
使她	-1749
冲锋	-1750
商议	-1751
奇门	-1752
她是	-1753
安慰	-1754
家伙	-1755
怒道	-1756
投降	-1757
拼命	-1758
热情	-1759
白皙	-1760
矜持	-1761
身形	-1762
快速地	-1763
温柔地	-1764
让自己	-1765
微微一笑	-1766
一会	-1767
位置	-1768
我看	-1769
桌子	-1770
激动	-1771
的雪	-1772
看的	-1773
纤手	-1774
肩膀	-1775
前面的	-1776
心中暗	-1777
柔嫩的	-1778
潘仁美	-1779
秦东阳	-1780
花见羞	-1781
不大	-1782
之事	-1783
了个	-1784
又要	-1785
叛军	-1786
后来	-1787
大郎	-1788
小舟	-1789
得很	-1790
抽搐	-1791
纤细	-1792
耳朵	-1793
至极	-1794
阻止	-1795
了过去	-1796
必须要	-1797
疯狂的	-1798
的美臀	-1799
▁钟皇后	-1800
▁琼花公主	-1801
侵犯	-1802
充实	-1803
太后	-1804
往前	-1805
故意	-1806
每次	-1807
汗水	-1808
的内	-1809
背上	-1810
背后	-1811
芳草	-1812
还能	-1813
一样的	-1814
也不会	-1815
到自己	-1816
▁程世杰	-1817
」、	-1818
一块	-1819
利用	-1820
如火	-1821
娇吟	-1822
攻打	-1823
无论	-1824
欣赏	-1825
的女	-1826
等待	-1827
羡慕	-1828
而又	-1829
谢谢	-1830
阴唇	-1831
停下来	-1832
无力的	-1833
早已经	-1834
▁林雪贞	-1835
产生	-1836
婶婶	-1837
晕红	-1838
玩弄	-1839
经验	-1840
股间	-1841
胸膛	-1842
腰肢	-1843
身材	-1844
香汗	-1845
」、「	-1846
不好意思	-1847
估计	-1848
利的	-1849
对于	-1850
快要	-1851
放松	-1852
明显	-1853
是要	-1854
洞口	-1855
玉茎	-1856
现出	-1857
练功	-1858
肌肉	-1859
都有	-1860
狠狠地	-1861
禁不住	-1862
不觉	-1863
不顾	-1864
互相	-1865
亲兵	-1866
占有	-1867
和我	-1868
害羞	-1869
左手	-1870
心跳	-1871
战场	-1872
打开	-1873
是谁	-1874
最为	-1875
腰间	-1876
辈子	-1877
雅琳	-1878
了一眼	-1879
将六郎	-1880
果然是	-1881
的看着	-1882
马三公子	-1883
▁听	-1884
低声	-1885
何况	-1886
喘着	-1887
外的	-1888
对她	-1889
就听	-1890
师兄	-1891
忍受	-1892
忘记	-1893
找到	-1894
朋薇	-1895
痛快	-1896
粮食	-1897
肆意	-1898
那般	-1899
银子	-1900
体内的	-1901
王夫人	-1902
的东西	-1903
▁温谨梅	-1904
一人	-1905
不在	-1906
乱的	-1907
佳人	-1908
做了	-1909
噗滋	-1910
头的	-1911
展开	-1912
年纪	-1913
幽香	-1914
时刻	-1915
月光	-1916
正经	-1917
点燃	-1918
王泽	-1919
着头	-1920
若无	-1921
走到	-1922
随即	-1923
马匪	-1924
不容易	-1925
宁采儿	-1926
手中的	-1927
真要是	-1928
见六郎	-1929
▁大周后	-1930
++++++++	-1931
原因	-1932
双修	-1933
只怕	-1934
家中	-1935
曾经	-1936
犹豫	-1937
脸红	-1938
螓首	-1939
解塘	-1940
身份	-1941
闭着	-1942
难过	-1943
深深地	-1944
的双腿	-1945
将自己的	-1946
▁司徒清雅	-1947
做的	-1948
前往	-1949
坚持	-1950
强壮	-1951
挺立	-1952
搂着	-1953
有所	-1954
木墙	-1955
润的	-1956
眼看	-1957
神功	-1958
精锐	-1959
视着	-1960
许久	-1961
了口气	-1962
后面的	-1963
娇羞的	-1964
欲仙欲	-1965
的玉乳	-1966
的玉臀	-1967
雪白的	-1968
龙枪的	-1969
这个时候	-1970
乖乖	-1971
剑法	-1972
发射	-1973
后退	-1974
含住	-1975
坐下	-1976
开口	-1977
来得	-1978
消失	-1979
白色	-1980
等到	-1981
薄的	-1982
蜜洞	-1983
通过	-1984
潘夫人	-1985
解塘关	-1986
颤抖着	-1987
东方姨娘	-1988
一颗	-1989
不清	-1990
不说	-1991
丰臀	-1992
兵的	-1993
包围	-1994
又问	-1995
反正	-1996
城门	-1997
年的	-1998
得意	-1999
我在	-2000
手上	-2001
损失	-2002
梦怀	-2003
特别	-2004
要求	-2005
转过	-2006
进出	-2007
那两	-2008
部位	-2009
重新	-2010
长枪	-2011
上面的	-2012
在他的	-2013
太好了	-2014
求求你	-2015
了一口气	-2016
乳头	-2017
了你	-2018
剑光	-2019
含着	-2020
回应	-2021
在下	-2022
娘子	-2023
快点	-2024
撤退	-2025
猛烈	-2026
率领	-2027
由于	-2028
蓓蕾	-2029
一开始	-2030
与六郎	-2031
了一些	-2032
了过来	-2033
却没有	-2034
大龟头	-2035
张静贤	-2036
的肉体	-2037
则是	-2038
到处	-2039
前方	-2040
受伤	-2041
嘤咛	-2042
大事	-2043
好啊	-2044
对你	-2045
最近	-2046
比较	-2047
满是	-2048
玉乳	-2049
瘫软	-2050
的气	-2051
至于	-2052
芬芳	-2053
说是	-2054
躺在	-2055
还未	-2056
遇到	-2057
两个人	-2058
动起来	-2059
有一种	-2060
美丽的	-2061
▁宋皇后	-2062
了一会儿	-2063
临州	-2064
也会	-2065
你在	-2066
力道	-2067
南华	-2068
头顶	-2069
完美	-2070
对待	-2071
年轻	-2072
我都	-2073
泄了	-2074
犹如	-2075
耳垂	-2076
达到	-2077
高贵	-2078
▁孟姜	-2079
为之	-2080
仍然	-2081
勉强	-2082
堂会	-2083
娇柔	-2084
成功	-2085
我这	-2086
手臂	-2087
掩护	-2088
是个	-2089
欲滴	-2090
沿着	-2091
脸色	-2092
莫非	-2093
被她	-2094
趁机	-2095
随时	-2096
七星楼	-2097
低声道	-2098
我们就	-2099
的大手	-2100
你是不是	-2101
在战龙的	-2102
这件事情	-2103
伤亡	-2104
双颊	-2105
安全	-2106
急道	-2107
惊喜	-2108
成为	-2109
我来	-2110
有个	-2111
狼妖	-2112
训练	-2113
一般的	-2114
你不是	-2115
张绿华	-2116
张若霞	-2117
的眼神	-2118
▁战龙说	-2119
▁符皇后	-2120
▁三	-2121
一处	-2122
内的	-2123
南附	-2124
吃了	-2125
名字	-2126
四处	-2127
威力	-2128
客气	-2129
忍耐	-2130
推开	-2131
朱唇	-2132
李璟	-2133
流出	-2134
甜美	-2135
神情	-2136
膨胀	-2137
边的	-2138
附近	-2139
用手指	-2140
眼看着	-2141
着他的	-2142
给六郎	-2143
▁朱玉婵	-2144
▁骊山圣母	-2145
与你	-2146
为你	-2147
伤口	-2148
偏偏	-2149
出手	-2150
北汉	-2151
太师	-2152
往上	-2153
柔情	-2154
激烈	-2155
火辣	-2156
白狼	-2157
的地	-2158
精液	-2159
纤纤	-2160
肥臀	-2161
轻微	-2162
静静	-2163
顶端	-2164
默默	-2165
一定是	-2166
你真是	-2167
微微的	-2168
想办法	-2169
死我了	-2170
看到了	-2171
慕容雪航的	-2172
一百	-2173
了他	-2174
使劲	-2175
列为	-2176
努力	-2177
嘴角	-2178
四肢	-2179
完了	-2180
射出	-2181
心思	-2182
我军	-2183
效果	-2184
泛滥	-2185
温千	-2186
空虚	-2187
红唇	-2188
肩头	-2189
还会	-2190
还没	-2191
饥渴	-2192
动人的	-2193
只不过	-2194
的阴道	-2195
在自己的	-2196
十足	-2197
发觉	-2198
吻上	-2199
唐艳	-2200
喝道	-2201
天生	-2202
实力	-2203
干净	-2204
快了	-2205
拉着	-2206
的热	-2207
肩上	-2208
腰身	-2209
轻抚	-2210
阴精	-2211
骨的	-2212
▁随着	-2213
也不能	-2214
可是我	-2215
地看着	-2216
的幽谷	-2217
美死了	-2218
樱桃小嘴	-2219
一分	-2220
一握	-2221
万分	-2222
万岁	-2223
丽娘	-2224
作战	-2225
几次	-2226
嫣红	-2227
子里	-2228
火炮	-2229
的将	-2230
纠缠	-2231
羞人	-2232
而来	-2233
那只	-2234
了上去	-2235
仁堂会	-2236
地说道	-2237
女人的	-2238
对六郎	-2239
弓弩手	-2240
程千龙	-2241
她的身体	-2242
媚眼如丝	-2243
__	-2244
作为	-2245
你又	-2246
关键	-2247
半天	-2248
听得	-2249
咏琪	-2250
处子	-2251
寂寞	-2252
就把	-2253
岳母	-2254
平坦	-2255
平静	-2256
每个	-2257
沉醉	-2258
的面	-2259
结束	-2260
绯红	-2261
美貌	-2262
腰部	-2263
蓬莱	-2264
表现	-2265
怎么样	-2266
滚烫的	-2267
的表情	-2268
不绝	-2269
丽的	-2270
动静	-2271
匪兵	-2272
口水	-2273
处理	-2274
妙的	-2275
娇声	-2276
很难	-2277
感激	-2278
才是	-2279
暗器	-2280
爱怜	-2281
硬挺	-2282
神色	-2283
粉脸	-2284
考虑	-2285
落在	-2286
蠕动	-2287
要想	-2288
随后	-2289
青娥	-2290
非要	-2291
鼎秋	-2292
两人的	-2293
南附军	-2294
散发着	-2295
淡淡的	-2296
的模样	-2297
绝色丽	-2298
身体的	-2299
...”	-2300
一见	-2301
也没	-2302
出口	-2303
向后	-2304
女将	-2305
宝飞	-2306
尽的	-2307
成的	-2308
更为	-2309
沸腾	-2310
满面	-2311
结合	-2312
绵绵	-2313
缠绕	-2314
老实	-2315
连续	-2316
黑色	-2317
一定会	-2318
心中的	-2319
想了想	-2320
是因为	-2321
沙宝飞	-2322
着她那	-2323
说什么	-2324
****	-2325
的呻吟声	-2326
闭上眼睛	-2327
一支	-2328
一震	-2329
佩服	-2330
升起	-2331
听见	-2332
好棒	-2333
好痒	-2334
娇啼	-2335
它们	-2336
异样	-2337
当时	-2338
微笑	-2339
忍着	-2340
狐狸	-2341
用来	-2342
秋平	-2343
路上	-2344
醒来	-2345
青城	-2346
马车	-2347
一口气	-2348
六郎又	-2349
强大的	-2350
白小姐	-2351
白凤凰的	-2352
一位	-2353
不安	-2354
之声	-2355
再来	-2356
吞吐	-2357
天了	-2358
头龙	-2359
将你	-2360
小巧	-2361
府的	-2362
没事	-2363
淋淋	-2364
猛的	-2365
白嫩	-2366
目标	-2367
着他	-2368
羞耻	-2369
观察	-2370
身躯	-2371
首先	-2372
做什么	-2373
大量的	-2374
她已经	-2375
很快就	-2376
最深处	-2377
赵夫人	-2378
龙秋平	-2379
一半	-2380
不久	-2381
不太	-2382
多么	-2383
夹住	-2384
对了	-2385
尽量	-2386
忘了	-2387
我啊	-2388
抽动	-2389
拉住	-2390
满脸	-2391
狂风	-2392
眉头	-2393
节奏	-2394
认真	-2395
越是	-2396
这小	-2397
迷离	-2398
霹雳	-2399
香唇	-2400
一时间	-2401
会不会	-2402
剧烈的	-2403
岳鼎秋	-2404
蓬莱岛	-2405
不知不觉	-2406
整个人都	-2407
知道自己	-2408
钦差大人	-2409
▁逍遥仙君	-2410
吴越水师的	-2411
不胜	-2412
与他	-2413
周围	-2414
呼呼	-2415
回事	-2416
声声	-2417
委屈	-2418
婉转	-2419
就好	-2420
开的	-2421
彷彿	-2422
才会	-2423
挺起	-2424
湿了	-2425
皇宫	-2426
被人	-2427
送入	-2428
透明	-2429
不住地	-2430
开始了	-2431
男人的	-2432
的乳头	-2433
的神色	-2434
的速度	-2435
一团	-2436
上头	-2437
不怕	-2438
不让	-2439
丰硕	-2440
乌兰	-2441
也好	-2442
升华	-2443
双唇	-2444
发泄	-2445
太过	-2446
工夫	-2447
房中	-2448
旋转	-2449
是你	-2450
淋漓	-2451
清晰	-2452
激荡	-2453
爱死	-2454
眼下	-2455
衣襟	-2456
象归	-2457
颤动	-2458
▁看着	-2459
也不是	-2460
夏梦怀	-2461
好不好	-2462
敏感的	-2463
没有人	-2464
的时间	-2465
还不是	-2466
这些人	-2467
六郎心中	-2468
丝毫	-2469
几下	-2470
同伴	-2471
在我	-2472
将会	-2473
师妹	-2474
拒绝	-2475
支持	-2476
有过	-2477
松林	-2478
点了	-2479
特殊	-2480
百姓	-2481
算是	-2482
自从	-2483
说完	-2484
跟你	-2485
阳精	-2486
▁看到	-2487
了几下	-2488
告诉你	-2489
姐姐的	-2490
微笑道	-2491
▁战龙道	-2492
天山御剑	-2493
一根	-2494
不挂	-2495
世界	-2496
也被	-2497
你先	-2498
十年	-2499
品尝	-2500
地在	-2501
套弄	-2502
总是	-2503
我去	-2504
按摩	-2505
方的	-2506
时的	-2507
暗自	-2508
极力	-2509
炮弹	-2510
登时	-2511
经常	-2512
美得	-2513
羞怯	-2514
记得	-2515
车舟	-2516
逃跑	-2517
风流	-2518
▁沈慈	-2519
出声来	-2520
我不是	-2521
的意思	-2522
的玉手	-2523
看了看	-2524
说不出的	-2525
,「	-2526
京城	-2527
伤势	-2528
住她	-2529
刹那	-2530
又有	-2531
受了	-2532
可见	-2533
大胆	-2534
奋力	-2535
官兵	-2536
密室	-2537
接近	-2538
改变	-2539
方面	-2540
标枪	-2541
欧阳	-2542
洪多	-2543
混乱	-2544
看你	-2545
红花	-2546
背叛	-2547
闻言	-2548
风沙	-2549
不可能	-2550
二十万	-2551
在这儿	-2552
天晚上	-2553
就好像	-2554
来不及	-2555
炼狱门	-2556
的美妙	-2557
耶律洪多	-2558
一层	-2559
个个	-2560
半个	-2561
古天	-2562
吃惊	-2563
吓得	-2564
四十	-2565
大片	-2566
大臣	-2567
娇软	-2568
将他	-2569
小口	-2570
帮忙	-2571
心动	-2572
想法	-2573
攻城	-2574
施展	-2575
服侍	-2576
来说	-2577
汹涌	-2578
火焰	-2579
然而	-2580
用了	-2581
畅快	-2582
细细	-2583
绝伦	-2584
金沙	-2585
香肩	-2586
的呼吸	-2587
真的是	-2588
▁水清影	-2589
一点一点	-2590
一心	-2591
任务	-2592
伤害	-2593
俊虎	-2594
保证	-2595
又羞	-2596
地的	-2597
外边	-2598
将手	-2599
干得	-2600
慈儿	-2601
我家	-2602
我才	-2603
我说	-2604
敌军	-2605
暧昧	-2606
有意	-2607
林东	-2608
桃花	-2609
武器	-2610
清丽	-2611
的高	-2612
示意	-2613
芳香	-2614
蜜壶	-2615
见他	-2616
身为	-2617
透了	-2618
雪衣	-2619
六郎在	-2620
再一次	-2621
变成了	-2622
呻吟着	-2623
喝一声	-2624
就如同	-2625
差不多	-2626
怪不得	-2627
戴青娥	-2628
接下来	-2629
杨家将	-2630
的命令	-2631
的阴户	-2632
自己也	-2633
象归元	-2634
这就是	-2635
金沙滩	-2636
▁苏蒙云若	-2637
风火雷霆阵	-2638
一剑	-2639
一来	-2640
不容	-2641
不然	-2642
不足	-2643
之极	-2644
凝脂	-2645
压抑	-2646
多久	-2647
女神	-2648
如兰	-2649
就能	-2650
就让	-2651
强大	-2652
形容	-2653
很有	-2654
怀抱	-2655
掉了	-2656
放到	-2657
朦胧	-2658
李德	-2659
正月	-2660
江湖	-2661
泛起	-2662
火烫	-2663
空气	-2664
美臀	-2665
菊花	-2666
言语	-2667
轩辕	-2668
这等	-2669
选择	-2670
鲜红	-2671
麻烦	-2672
了一把	-2673
又一次	-2674
欧阳明	-2675
走过来	-2676
那一对	-2677
露出一	-2678
马上就要	-2679
一动	-2680
人间	-2681
冲刺	-2682
前后	-2683
加速	-2684
太子	-2685
抵挡	-2686
日后	-2687
滚滚	-2688
牙齿	-2689
石头	-2690
紫荆	-2691
胸脯	-2692
能力	-2693
跟随	-2694
邪恶	-2695
了上来	-2696
令六郎	-2697
头一次	-2698
完美的	-2699
得六郎	-2700
是一个	-2701
根本就	-2702
的同时	-2703
的情欲	-2704
那就是	-2705
难道你	-2706
六郎已经	-2707
欧阳明慧	-2708
看了一眼	-2709
▁六郎嘿嘿	-2710
不由自主地	-2711
和慕容雪航	-2712
不去	-2713
不等	-2714
与她	-2715
严重	-2716
中央	-2717
体会	-2718
你来	-2719
做出	-2720
光洁	-2721
喉咙	-2722
天远	-2723
好似	-2724
已被	-2725
怀疑	-2726
急速	-2727
摇摆	-2728
月芝	-2729
汪汪	-2730
热气	-2731
熊熊	-2732
狂野	-2733
着了	-2734
腾格	-2735
道理	-2736
那对	-2737
▁第二	-2738
在怀中	-2739
娇声道	-2740
怎么能	-2741
我们俩	-2742
有一些	-2743
杜月芝	-2744
林东虎	-2745
眼前的	-2746
说不定	-2747
身下的	-2748
韩天远	-2749
▁晋王妃	-2750
秀宁公主	-2751
坚挺的龙枪	-2752
与我	-2753
为难	-2754
之势	-2755
五千	-2756
仙子	-2757
前的	-2758
向薇	-2759
吸引	-2760
天电	-2761
小姑	-2762
手的	-2763
本王	-2764
模糊	-2765
涌出	-2766
润滑	-2767
的亲	-2768
研磨	-2769
碧眼	-2770
美眸	-2771
良久	-2772
蜻蜓	-2773
覆盖	-2774
负责	-2775
轻点	-2776
还想	-2777
那儿	-2778
魔君	-2779
不住了	-2780
好六郎	-2781
对战龙	-2782
有力的	-2783
的女子	-2784
硕大的	-2785
红花亭	-2786
身上下	-2787
▁慕容雨秋	-2788
88	-2789
一头	-2790
不必	-2791
丝丝	-2792
丝绸	-2793
习惯	-2794
云雨	-2795
先是	-2796
兵力	-2797
再度	-2798
冷凝	-2799
千年	-2800
即将	-2801
各种	-2802
天的	-2803
契丹	-2804
奶头	-2805
她俩	-2806
好在	-2807
宫女	-2808
山的	-2809
形状	-2810
快意	-2811
抚慰	-2812
星煞	-2813
生活	-2814
移动	-2815
紧贴	-2816
细致	-2817
脸蛋	-2818
衣裳	-2819
趁着	-2820
难得	-2821
颠倒	-2822
之间的	-2823
了一阵	-2824
冷凝香	-2825
到这里	-2826
紫荆关	-2827
若不是	-2828
要不要	-2829
长时间	-2830
星煞魔君	-2831
&&	-2832
不像	-2833
两颗	-2834
之力	-2835
仍是	-2836
优势	-2837
优美	-2838
何时	-2839
侯爷	-2840
冰雪	-2841
到达	-2842
前来	-2843
双目	-2844
喊着	-2845
大门	-2846
如花	-2847
床榻	-2848
延寿	-2849
技巧	-2850
拦住	-2851
拨开	-2852
时机	-2853
期待	-2854
梦兰	-2855
欲念	-2856
死死	-2857
清纯	-2858
游走	-2859
算了	-2860
红了	-2861
翻身	-2862
这边	-2863
金蝉	-2864
银牙	-2865
险些	-2866
陷入	-2867
额头	-2868
▁二人	-2869
不能再	-2870
带来的	-2871
李德明	-2872
柔声道	-2873
没有了	-2874
的就是	-2875
的眼睛	-2876
的美丽	-2877
简直是	-2878
肯定是	-2879
陈延寿	-2880
兰花公主	-2881
南宫雪衣	-2882
狐狸惜惜	-2883
不对	-2884
两手	-2885
中原	-2886
内力	-2887
十几	-2888
却也	-2889
及时	-2890
只想	-2891
各自	-2892
吐出	-2893
四人	-2894
娇挺	-2895
尚未	-2896
惊慌	-2897
战的	-2898
无可	-2899
有种	-2900
来人	-2901
楚照	-2902
白的	-2903
的血	-2904
给了	-2905
而去	-2906
表示	-2907
赶到	-2908
蹂躏	-2909
远远	-2910
长江	-2911
随之	-2912
顺利	-2913
三个人	-2914
感受着	-2915
明白了	-2916
晶莹的	-2917
楚照良	-2918
的机会	-2919
给战龙	-2920
进她的	-2921
绝色丽人	-2922
▁白凤凰道	-2923
碧眼狐狸惜惜	-2924
----------------	-2925
一名	-2926
一寸	-2927
万千	-2928
不止	-2929
丛珊	-2930
丰盈	-2931
半点	-2932
双臂	-2933
嗯嗯	-2934
够了	-2935
天空	-2936
官员	-2937
家人	-2938
将这	-2939
就想	-2940
干脆	-2941
微颤	-2942
恩爱	-2943
我吧	-2944
放肆	-2945
昨夜	-2946
梦莉	-2947
楚国	-2948
每天	-2949
温热	-2950
潺潺	-2951
猜想	-2952
的头	-2953
看出	-2954
答答	-2955
行事	-2956
见了	-2957
解释	-2958
诸位	-2959
运用	-2960
酥痒	-2961
馗罗	-2962
剩下的	-2963
又开始	-2964
吃了一	-2965
吸吮着	-2966
好哥哥	-2967
握住了	-2968
散发出	-2969
爱抚着	-2970
缓缓地	-2971
贪婪的	-2972
赤裸裸	-2973
这个小	-2974
那么多	-2975
都已经	-2976
————	-2977
▁六郎将	-2978
一丝不挂	-2979
欲仙欲死	-2980
不肯	-2981
丰润	-2982
了三	-2983
你呢	-2984
你都	-2985
内裤	-2986
分别	-2987
占领	-2988
向来	-2989
大口	-2990
天豪	-2991
学习	-2992
战争	-2993
春心	-2994
极度	-2995
汗珠	-2996
满满	-2997
灵活	-2998
皮肤	-2999
穴道	-3000
穿越	-3001
箭雨	-3002
织网	-3003
胡说	-3004
脱了	-3005
解决	-3006
辛苦	-3007
黑风	-3008
▁她的	-3009
▁这时	-3010
一股股	-3011
你们的	-3012
六郎却	-3013
六郎就	-3014
六郎那	-3015
到她的	-3016
好相公	-3017
弓箭手	-3018
敌人的	-3019
无力地	-3020
最后的	-3021
段时间	-3022
深深的	-3023
的秀发	-3024
的纤腰	-3025
终于是	-3026
身边的	-3027
软绵绵	-3028
销魂蚀	-3029
▁文素心	-3030
也越来越	-3031
六郎知道	-3032
天电织网	-3033
一生	-3034
乳峰	-3035
五色	-3036
亵衣	-3037
便宜	-3038
元葵	-3039
先锋	-3040
光泽	-3041
全然	-3042
出水	-3043
剔透	-3044
嗔道	-3045
在一	-3046
大大	-3047
将其	-3048
平滑	-3049
想必	-3050
打击	-3051
投石	-3052
揉着	-3053
明日	-3054
星眸	-3055
爱不	-3056
百年	-3057
的绝	-3058
穴口	-3059
笑了	-3060
等人	-3061
索性	-3062
经历	-3063
缓慢	-3064
缺口	-3065
老祖	-3066
裤子	-3067
越发	-3068
闪电	-3069
防线	-3070
阳光	-3071
骄傲	-3072
两个小	-3073
传来的	-3074
你自己	-3075
在手中	-3076
把龙枪	-3077
无限的	-3078
死人了	-3079
激烈的	-3080
狠狠的	-3081
艨战船	-3082
被自己	-3083
要不然	-3084
让他们	-3085
轻声道	-3086
这么快	-3087
▁柴明歌	-3088
▁这时候	-3089
自己的身体	-3090
不懂	-3091
伏在	-3092
似是	-3093
体香	-3094
作用	-3095
光芒	-3096
别的	-3097
名叫	-3098
声响	-3099
大半	-3100
太监	-3101
娇小	-3102
导致	-3103
就有	-3104
感情	-3105
手道	-3106
扩散	-3107
扶着	-3108
提关	-3109
未能	-3110
浪叫	-3111
海天	-3112
温香	-3113
甚是	-3114
百人	-3115
直奔	-3116
稍稍	-3117
紧密	-3118
色手	-3119
莫名	-3120
酸麻	-3121
陪你	-3122
高涨	-3123
鼻子	-3124
▁说话	-3125
你可要	-3126
吓了一	-3127
回来了	-3128
如此的	-3129
娇羞地	-3130
杨六郎	-3131
每一次	-3132
玉提关	-3133
的乳峰	-3134
的小嘴	-3135
的敌人	-3136
的舌头	-3137
笑着说	-3138
绝美的	-3139
羞人的	-3140
舍不得	-3141
起来了	-3142
这两天	-3143
里面的	-3144
万一	-3145
不信	-3146
也很	-3147
八姐	-3148
其余	-3149
再看	-3150
几分	-3151
刺入	-3152
十大	-3153
大开	-3154
大营	-3155
始终	-3156
小手	-3157
少妇	-3158
尖两	-3159
岂能	-3160
志浩	-3161
抖动	-3162
掌握	-3163
无暇	-3164
本事	-3165
条件	-3166
死去	-3167
深情	-3168
游戏	-3169
焦急	-3170
的问	-3171
破了	-3172
穿了	-3173
终究	-3174
胳膊	-3175
色狼	-3176
艳丽	-3177
菲亚	-3178
赵普	-3179
过后	-3180
迷醉	-3181
那你	-3182
下面的	-3183
不愿意	-3184
也只能	-3185
位娇妻	-3186
凤凰楼	-3187
到了极	-3188
普通的	-3189
灼热的	-3190
身子一	-3191
陈志浩	-3192
列为娇妻	-3193
好不容易	-3194
幽谷里头	-3195
心中一阵	-3196
我们姐妹	-3197
金蝉老祖	-3198
▁六郎知道	-3199
一场	-3200
不舍	-3201
专门	-3202
亲手	-3203
他是	-3204
光闪	-3205
刃刀	-3206
哪儿	-3207
喜悦	-3208
喷射	-3209
境界	-3210
增加	-3211
好多	-3212
娇靥	-3213
对他	-3214
弱的	-3215
必然	-3216
意乱	-3217
我真	-3218
抱起	-3219
方式	-3220
朋友	-3221
柔媚	-3222
江山	-3223
泄身	-3224
滋润	-3225
滑落	-3226
灼热	-3227
端庄	-3228
那边	-3229
阳具	-3230
陶斌	-3231
高强	-3232
▁令公	-3233
▁众女	-3234
▁苏姬	-3235
临州城	-3236
其他的	-3237
可不是	-3238
在地上	-3239
有一个	-3240
的冲动	-3241
另一只手	-3242
尖两刃刀	-3243
现在已经	-3244
▁耶律长亭	-3245
」,	-3246
不够	-3247
专心	-3248
两名	-3249
做到	-3250
催促	-3251
又在	-3252
向外	-3253
听了	-3254
呈现	-3255
回过	-3256
在此	-3257
声中	-3258
好生	-3259
属于	-3260
平王	-3261
微闭	-3262
心底	-3263
抓紧	-3264
方便	-3265
晋阳	-3266
曼妙	-3267
最终	-3268
机关	-3269
流水	-3270
浓浓	-3271
父王	-3272
状态	-3273
看我	-3274
秘密	-3275
穴心	-3276
细腰	-3277
罗裙	-3278
肌玉	-3279
般地	-3280
袭击	-3281
试试	-3282
错了	-3283
将龙枪	-3284
沈天豪	-3285
海天富	-3286
渐渐地	-3287
现在的	-3288
白嫩的	-3289
粗大的	-3290
这个人	-3291
黑风寨	-3292
▁六郎又	-3293
▁周雅芙	-3294
孟良焦赞	-3295
修长的玉腿	-3296
丁香	-3297
中午	-3298
几日	-3299
动弹	-3300
听着	-3301
大汉	-3302
小小	-3303
岩浆	-3304
床单	-3305
心兰	-3306
所在	-3307
把你	-3308
招呼	-3309
步兵	-3310
漂亮	-3311
热血	-3312
疼爱	-3313
神经	-3314
细嫩	-3315
脑海	-3316
艳的	-3317
融化	-3318
这下	-3319
送上	-3320
隐约	-3321
香茹	-3322
一辈子	-3323
不可以	-3324
你真的	-3325
入她的	-3326
到现在	-3327
只见她	-3328
告诉我	-3329
恨不得	-3330
是那么	-3331
水汪汪	-3332
沈俊虎	-3333
的武功	-3334
的身躯	-3335
美妙的	-3336
脸一红	-3337
舒服吗	-3338
舒服的	-3339
说出来	-3340
边蜻蜓	-3341
四象归元	-3342
^^^^^^^^	-3343
丝偙	-3344
中凤	-3345
之心	-3346
亲密	-3347
保持	-3348
克丽	-3349
只听	-3350
同门	-3351
商量	-3352
大喜	-3353
娇呼	-3354
尔多	-3355
干娘	-3356
忙道	-3357
所未	-3358
掌心	-3359
掌门	-3360
本书	-3361
来个	-3362
极品	-3363
死亡	-3364
消耗	-3365
的主	-3366
的口	-3367
破坏	-3368
第三	-3369
葡萄	-3370
调戏	-3371
轻颤	-3372
金彤	-3373
门口	-3374
阴核	-3375
高挺	-3376
修罗界	-3377
刀手们	-3378
向六郎	-3379
应该是	-3380
我没有	-3381
沈中凤	-3382
温千秋	-3383
温向薇	-3384
玉门关	-3385
白色的	-3386
的阴精	-3387
的香舌	-3388
秋香茹	-3389
给自己	-3390
脸上的	-3391
这两个	-3392
那样的	-3393
鄂尔多	-3394
重重的	-3395
长长的	-3396
▁六郎见	-3397
两位娘娘	-3398
亲了一口	-3399
住六郎的	-3400
克丽丝偙	-3401
在四小姐	-3402
忍不住了	-3403
★☆★☆★☆★☆★☆★☆★☆★☆	-3404
一回	-3405
一齐	-3406
下手	-3407
你能	-3408
内侧	-3409
厄尔	-3410
可怕	-3411
咬牙	-3412
哎唷	-3413
地带	-3414
大约	-3415
宋雪	-3416
容颜	-3417
平安	-3418
应付	-3419
微张	-3420
心情	-3421
心想	-3422
所谓	-3423
持续	-3424
沐浴	-3425
照顾	-3426
的性	-3427
羞赧	-3428
能量	-3429
脑中	-3430
舔舐	-3431
表妹	-3432
轻薄	-3433
那件	-3434
顶着	-3435
高声	-3436
▁因为	-3437
为自己	-3438
发生了	-3439
大家都	-3440
宋雪怡	-3441
我要你	-3442
更多的	-3443
白松林	-3444
的大军	-3445
脚步声	-3446
这不是	-3447
进入了	-3448
长平王	-3449
▁六郎说	-3450
又是一阵	-3451
晶莹剔透	-3452
没有什么	-3453
鄂尔多旗	-3454
三分	-3455
丹田	-3456
伴着	-3457
先前	-3458
即便	-3459
却被	-3460
口上	-3461
向她	-3462
处的	-3463
大笑	-3464
姿态	-3465
寇准	-3466
寻找	-3467
屋中	-3468
得住	-3469
急着	-3470
拥有	-3471
探索	-3472
撩拨	-3473
易水	-3474
星辰	-3475
是否	-3476
松开	-3477
极其	-3478
洁的	-3479
活着	-3480
清醒	-3481
滑动	-3482
滴滴	-3483
的下	-3484
的后	-3485
笑容	-3486
而入	-3487
脚下	-3488
范围	-3489
触感	-3490
足以	-3491
适应	-3492
镇守	-3493
陶醉	-3494
黄沙	-3495
你还是	-3496
再加上	-3497
分明是	-3498
双头龙	-3499
含羞带	-3500
士兵们	-3501
太原侯	-3502
点头说	-3503
的抽插	-3504
的消息	-3505
看上去	-3506
薄薄的	-3507
鲜红的	-3508
这些日子	-3509
三尖两刃刀	-3510
一连	-3511
三女	-3512
你俩	-3513
你快	-3514
使出	-3515
八道	-3516
兴趣	-3517
双乳	-3518
在场	-3519
士气	-3520
多年	-3521
天地	-3522
好事	-3523
媚态	-3524
存在	-3525
实的	-3526
宽衣	-3527
尝试	-3528
就见	-3529
带来	-3530
弩箭	-3531
强行	-3532
战车	-3533
扶住	-3534
把玩	-3535
拿起	-3536
换了	-3537
昏迷	-3538
本想	-3539
柳眉	-3540
柳青	-3541
液体	-3542
淫欲	-3543
父母	-3544
狼群	-3545
的老	-3546
看去	-3547
眼光	-3548
眼见	-3549
睡觉	-3550
稍微	-3551
粉嫩	-3552
胆子	-3553
脸庞	-3554
腰带	-3555
蜜穴	-3556
记住	-3557
赵王	-3558
那股	-3559
都督	-3560
间的	-3561
难当	-3562
颜色	-3563
鼻中	-3564
▁姥姥	-3565
也不敢	-3566
些什么	-3567
又羞又	-3568
另一个	-3569
可爱的	-3570
哼一声	-3571
小穴里	-3572
投石车	-3573
晋阳县	-3574
爱不释	-3575
的情景	-3576
的欲火	-3577
看样子	-3578
轻轻一	-3579
八姐九妹	-3580
八道元神	-3581
六郎六郎	-3582
吓了一跳	-3583
一万	-3584
一天	-3585
一脸	-3586
不下	-3587
不愿	-3588
举起	-3589
从她	-3590
军官	-3591
华彬	-3592
只管	-3593
可就	-3594
哀求	-3595
哎哟	-3596
唇上	-3597
喷出	-3598
国家	-3599
外衣	-3600
大厅	-3601
失去	-3602
引起	-3603
弟兄	-3604
当即	-3605
很好	-3606
徐徐	-3607
惊呼	-3608
打扰	-3609
把我	-3610
挡箭	-3611
提前	-3612
斯兰	-3613
无双	-3614
明月	-3615
最高	-3616
未必	-3617
正要	-3618
洗澡	-3619
热吻	-3620
热流	-3621
熟练	-3622
父皇	-3623
猛插	-3624
碰到	-3625
种种	-3626
紧夹	-3627
红润	-3628
老夫	-3629
胜利	-3630
脱下	-3631
臻首	-3632
跳动	-3633
轻易	-3634
轻骑	-3635
过程	-3636
近前	-3637
进宫	-3638
遭受	-3639
阻挡	-3640
隐藏	-3641
也开始	-3642
了一层	-3643
前所未	-3644
只剩下	-3645
在空中	-3646
夫人的	-3647
姐妹们	-3648
娇羞道	-3649
忘记了	-3650
显然是	-3651
甜美的	-3652
的神情	-3653
的美腿	-3654
的胸脯	-3655
看着她	-3656
露出来	-3657
世宗皇帝	-3658
望着六郎	-3659
爱死你了	-3660
一座	-3661
一轮	-3662
两座	-3663
两边	-3664
今生	-3665
信号	-3666
冰山	-3667
国师	-3668
土匪	-3669
在你	-3670
在水	-3671
奴家	-3672
山寨	-3673
差不	-3674
布置	-3675
心下	-3676
情迷	-3677
想象	-3678
挺着	-3679
插死	-3680
旁边	-3681
月姿	-3682
李宏	-3683
根部	-3684
格外	-3685
楼兰	-3686
殿下	-3687
百变	-3688
的了	-3689
眨眼	-3690
石壁	-3691
肥美	-3692
荆州	-3693
表姐	-3694
还请	-3695
逃走	-3696
透出	-3697
难为	-3698
▁此时	-3699
不要再	-3700
也跟着	-3701
了一会	-3702
你这个	-3703
全身的	-3704
凑上来	-3705
卧牛岗	-3706
好姐姐	-3707
把御剑	-3708
抬起头	-3709
是一种	-3710
杨将军	-3711
柔若无	-3712
每一个	-3713
湿润的	-3714
的一双	-3715
的军队	-3716
的娇嫩	-3717
的攻击	-3718
的阴毛	-3719
羞答答	-3720
阿斯兰	-3721
▁小周后	-3722
▁朱玉鸾	-3723
吃了一惊	-3724
吻着她的	-3725
想到自己	-3726
纤纤玉手	-3727
不由自主的	-3728
▁司马紫烟道	-3729
▁被	-3730
两女	-3731
乳尖	-3732
交欢	-3733
允许	-3734
军中	-3735
冷笑	-3736
又似	-3737
发挥	-3738
发烫	-3739
叹息	-3740
各位	-3741
呜呜	-3742
困难	-3743
土城	-3744
天气	-3745
她也	-3746
把手	-3747
摇晃	-3748
撕裂	-3749
收了	-3750
攻势	-3751
数十	-3752
无瑕	-3753
春潮	-3754
未曾	-3755
本领	-3756
杨门	-3757
树林	-3758
桃腮	-3759
欣喜	-3760
气喘	-3761
没了	-3762
滋滋	-3763
玩笑	-3764
甜的	-3765
秀美	-3766
糊涂	-3767
经脉	-3768
花园	-3769
身穿	-3770
软的	-3771
这条	-3772
遮掩	-3773
那张	-3774
都能	-3775
银霄	-3776
陪着	-3777
▁然后	-3778
▁这一	-3779
个不停	-3780
了战龙	-3781
了许多	-3782
他的手	-3783
你就是	-3784
你若是	-3785
光滑的	-3786
入怀中	-3787
几乎要	-3788
叫一声	-3789
坐下来	-3790
大辽的	-3791
大部分	-3792
对不起	-3793
最好的	-3794
温素心	-3795
的辽军	-3796
的高潮	-3797
纤细的	-3798
该如何	-3799
▁盖天娇	-3800
不要这样	-3801
和四小姐	-3802
太师王泽	-3803
已经到了	-3804
▁六郎点点头	-3805
上次	-3806
不消	-3807
个人	-3808
为我	-3809
之色	-3810
二哥	-3811
五百	-3812
交缠	-3813
介绍	-3814
优雅	-3815
兵权	-3816
击中	-3817
别说	-3818
千山	-3819
咯咯	-3820
哼道	-3821
太平	-3822
头发	-3823
奈何	-3824
女体	-3825
如云	-3826
带兵	-3827
幽径	-3828
当初	-3829
当真	-3830
必要	-3831
情动	-3832
情景	-3833
感动	-3834
拉开	-3835
整根	-3836
杂着	-3837
汝南	-3838
清香	-3839
爆炸	-3840
狭窄	-3841
的巨	-3842
的意	-3843
神魂	-3844
神鳌	-3845
秋寒	-3846
精致	-3847
舔着	-3848
那颗	-3849
阻拦	-3850
面色	-3851
～～	-3852
▁两人	-3853
不说话	-3854
也只有	-3855
什么事	-3856
你说的	-3857
到战龙	-3858
刺激得	-3859
发出了	-3860
大力的	-3861
就是要	-3862
洁白的	-3863
程千虎	-3864
轻一点	-3865
铁心兰	-3866
陶王妃	-3867
黎月姿	-3868
躺在床上	-3869
一举	-3870
一千	-3871
三台	-3872
上她	-3873
之地	-3874
之意	-3875
亲热	-3876
你再	-3877
停住	-3878
况且	-3879
刚要	-3880
十数	-3881
吃的	-3882
呢喃	-3883
哼着	-3884
喉间	-3885
埋伏	-3886
好大	-3887
少年	-3888
干死	-3889
我先	-3890
所欲	-3891
推进	-3892
收回	-3893
斯罗	-3894
无声	-3895
沟壑	-3896
泛着	-3897
溢出	-3898
百花	-3899
盯着	-3900
看不	-3901
眸子	-3902
硕大	-3903
精关	-3904
美了	-3905
船上	-3906
萝莉	-3907
蜜汁	-3908
调整	-3909
贴着	-3910
躲避	-3911
躲闪	-3912
透过	-3913
魔手	-3914
▁突然	-3915
▁龙枪	-3916
一边说	-3917
三台关	-3918
心爱的	-3919
快乐的	-3920
最大的	-3921
汝南王	-3922
江秋寒	-3923
湿滑的	-3924
火辣辣	-3925
的少女	-3926
的雪白	-3927
粉嫩的	-3928
细细的	-3929
说实话	-3930
起来的	-3931
这可是	-3932
队人马	-3933
▁师妃暄	-3934
▁第二天	-3935
你的龙枪	-3936
在大周后	-3937
的大周后	-3938
▁六郎见她	-3939
战龙的龙枪	-3940
▁萧	-3941
一亮	-3942
七八	-3943
上衣	-3944
不休	-3945
五万	-3946
交给	-3947
令他	-3948
传遍	-3949
你去	-3950
反击	-3951
喃喃	-3952
四下	-3953
多多	-3954
子上	-3955
就此	-3956
往后	-3957
怜惜	-3958
支撑	-3959
春药	-3960
江陵	-3961
湿的	-3962
溜溜	-3963
珍珠	-3964
眼里	-3965
离去	-3966
秀眉	-3967
穿过	-3968
等候	-3969
粉红	-3970
羞意	-3971
羞愧	-3972
翼翼	-3973
聪明	-3974
至少	-3975
英俊	-3976
落下	-3977
蛮腰	-3978
蜀军	-3979
衣裙	-3980
贵的	-3981
阴毛	-3982
香臀	-3983
一波波	-3984
他知道	-3985
六爷的	-3986
喘息着	-3987
意识到	-3988
我可是	-3989
每一下	-3990
然后再	-3991
的双手	-3992
的身上	-3993
虽然是	-3994
转过身	-3995
进攻的	-3996
一个时辰	-3997
娇艳欲滴	-3998
将六郎的	-3999
小心翼翼	-4000
飘飘欲仙	-4001
一共	-4002
一惊	-4003
一日	-4004
下达	-4005
不料	-4006
也能	-4007
亢奋	-4008
偶尔	-4009
刀枪	-4010
分的	-4011
加快	-4012
劲的	-4013
占据	-4014
口舌	-4015
叫我	-4016
咬住	-4017
小声	-4018
引得	-4019
弧线	-4020
手持	-4021
抑制	-4022
拍拍	-4023
挺拔	-4024
整齐	-4025
文武	-4026
新的	-4027
方法	-4028
无穷	-4029
是她	-4030
是好	-4031
本元	-4032
正面	-4033
温念	-4034
火箭	-4035
王子	-4036
真心	-4037
秦莲	-4038
笑话	-4039
老子	-4040
莲花	-4041
获得	-4042
被我	-4043
躲在	-4044
迎接	-4045
这场	-4046
退出	-4047
那道	-4048
都没	-4049
颈项	-4050
飘荡	-4051
骷髅	-4052
一点点	-4053
不行啊	-4054
与自己	-4055
之所以	-4056
从后面	-4057
你放心	-4058
六郎见	-4059
对方的	-4060
得到了	-4061
我也不	-4062
我可以	-4063
放开我	-4064
有些不	-4065
本就是	-4066
湿淋淋	-4067
用力地	-4068
用舌尖	-4069
白玉芝	-4070
的绝色	-4071
的阴唇	-4072
真正的	-4073
而来的	-4074
舒服了	-4075
那一双	-4076
那时候	-4077
▁赵光义	-4078
受不了了	-4079
和白雪妃	-4080
差不多了	-4081
战龙心中	-4082
看到六郎	-4083
在六郎身上	-4084
情不自禁的	-4085
一刀	-4086
三尺	-4087
下午	-4088
不来	-4089
书房	-4090
伤心	-4091
伸入	-4092
但见	-4093
加强	-4094
千岁	-4095
可怜	-4096
响起	-4097
圣地	-4098
城下	-4099
大周	-4100
太多	-4101
夹紧	-4102
嫁给	-4103
完毕	-4104
将它	-4105
带给	-4106
平日	-4107
我再	-4108
才行	-4109
抱紧	-4110
握着	-4111
攀上	-4112
景王	-4113
有时	-4114
本就	-4115
来吧	-4116
死伤	-4117
温泉	-4118
疲惫	-4119
的三	-4120
的白	-4121
究竟	-4122
空间	-4123
突破	-4124
立马	-4125
而起	-4126
至此	-4127
血液	-4128
试探	-4129
说服	-4130
贝齿	-4131
走后	-4132
躯体	-4133
轻扭	-4134
透着	-4135
雄壮	-4136
风吹	-4137
魅力	-4138
▁但是	-4139
▁虽然	-4140
不及待	-4141
五色城	-4142
任何人	-4143
你居然	-4144
全都是	-4145
冲上去	-4146
口中的	-4147
好好的	-4148
岂不是	-4149
张百年	-4150
形百变	-4151
我不会	-4152
我只是	-4153
我真的	-4154
我要是	-4155
易千山	-4156
温念霜	-4157
的一切	-4158
的笑容	-4159
的脸庞	-4160
十大名器	-4161
睁开眼睛	-4162
粉红色的	-4163
飞虎城的	-4164
一掌	-4165
不经	-4166
两翼	-4167
为一	-4168
了解	-4169
俯身	-4170
做好	-4171
冯习	-4172
决心	-4173
刚好	-4174
口腔	-4175
只手	-4176
坚守	-4177
完成	-4178
密集	-4179
寒光	-4180
小子	-4181
小贼	-4182
层层	-4183
才刚	-4184
招架	-4185
木板	-4186
汁液	-4187
江紫	-4188
津液	-4189
点点	-4190
烈火	-4191
男性	-4192
的山	-4193
直冲	-4194
看她	-4195
美妇	-4196
胡僧	-4197
舔弄	-4198
草原	-4199
血脉	-4200
被那	-4201
请你	-4202
轻咬	-4203
迟疑	-4204
送到	-4205
金甲	-4206
骚痒	-4207
魄的	-4208
▁艾虎	-4209
一点儿	-4210
不自觉	-4211
亲老婆	-4212
仔细的	-4213
你老公	-4214
做好了	-4215
刚才的	-4216
喜欢你	-4217
坏死了	-4218
幽谷口	-4219
微笑着	-4220
无尽的	-4221
本来是	-4222
江紫萍	-4223
然一笑	-4224
的娇吟	-4225
高兴地	-4226
▁宋太宗	-4227
双手紧紧	-4228
简直就是	-4229
▁六郎心中	-4230
++++++++++++++++	-4231
事的	-4232
二郎	-4233
交代	-4234
他也	-4235
侍女	-4236
副将	-4237
动情	-4238
又被	-4239
哼哼	-4240
坚定	-4241
大多	-4242
娇美	-4243
巅峰	-4244
找个	-4245
挥舞	-4246
摸索	-4247
早有	-4248
样的	-4249
梦君	-4250
欢喜	-4251
正色	-4252
死在	-4253
消灭	-4254
略带	-4255
的对	-4256
眼色	-4257
眼角	-4258
督战	-4259
秦淮	-4260
粉颈	-4261
老大	-4262
而不	-4263
胸部	-4264
脱离	-4265
自已	-4266
花径	-4267
见识	-4268
还好	-4269
长得	-4270
门外	-4271
顺势	-4272
风华	-4273
不得不	-4274
优美的	-4275
又是一	-4276
发现了	-4277
就是了	-4278
当六郎	-4279
我怎么	-4280
现在就	-4281
用舌头	-4282
疯狂地	-4283
的双乳	-4284
的玉门	-4285
的臀部	-4286
着一个	-4287
笑盈盈	-4288
笑着道	-4289
胸前的	-4290
说不出	-4291
▁李贵妃	-4292
不知何时	-4293
你可不要	-4294
实在是太	-4295
清影姑娘	-4296
看着六郎	-4297
▁四小姐道	-4298
一一	-4299
一紫	-4300
下唇	-4301
五嫂	-4302
军士	-4303
冰凉	-4304
刺痛	-4305
去吧	-4306
哪有	-4307
回家	-4308
多谢	-4309
她已	-4310
将士	-4311
将来	-4312
山上	-4313
巨舰	-4314
很大	-4315
得好	-4316
怒放	-4317
想想	-4318
我又	-4319
我吗	-4320
,	-4321
.	-4322
的	-4323
一	-4324
▁	-4325
。	-4326
了	-4327
不	-4328
是	-4329
六	-4330
“	-4331
”	-4332
郎	-4333
着	-4334
在	-4335
我	-4336
道	-4337
你	-4338
来	-4339
:	-4340
上	-4341
她	-4342
人	-4343
有	-4344
这	-4345
下	-4346
大	-4347
龙	-4348
那	-4349
到	-4350
就	-4351
身	-4352
中	-4353
要	-4354
地	-4355
战	-4356
说	-4357
手	-4358
后	-4359
好	-4360
小	-4361
自	-4362
出	-4363
姐	-4364
也	-4365
心	-4366
他	-4367
个	-4368
?	-4369
得	-4370
子	-4371
将	-4372
们	-4373
起	-4374
之	-4375
然	-4376
看	-4377
时	-4378
头	-4379
己	-4380
过	-4381
还	-4382
白	-4383
都	-4384
雪	-4385
啊	-4386
去	-4387
可	-4388
又	-4389
四	-4390
动	-4391
声	-4392
玉	-4393
只	-4394
天	-4395
住	-4396
么	-4397
!	-4398
已	-4399
轻	-4400
想	-4401
开	-4402
娇	-4403
面	-4404
没	-4405
和	-4406
如	-4407
为	-4408
美	-4409
会	-4410
被	-4411
前	-4412
里	-4413
能	-4414
样	-4415
无	-4416
对	-4417
力	-4418
感	-4419
紧	-4420
两	-4421
让	-4422
经	-4423
花	-4424
用	-4425
情	-4426
女	-4427
、	-4428
而	-4429
口	-4430
体	-4431
发	-4432
以	-4433
军	-4434
双	-4435
快	-4436
眼	-4437
点	-4438
儿	-4439
水	-4440
笑	-4441
明	-4442
真	-4443
神	-4444
些	-4445
见	-4446
知	-4447
兵	-4448
意	-4449
气	-4450
再	-4451
进	-4452
现	-4453
觉	-4454
间	-4455
多	-4456
红	-4457
容	-4458
马	-4459
高	-4460
却	-4461
回	-4462
枪	-4463
入	-4464
但	-4465
更	-4466
家	-4467
阵	-4468
全	-4469
三	-4470
主	-4471
死	-4472
事	-4473
清	-4474
满	-4475
微	-4476
柔	-4477
火	-4478
正	-4479
受	-4480
分	-4481
生	-4482
光	-4483
方	-4484
妃	-4485
长	-4486
边	-4487
色	-4488
把	-4489
处	-4490
给	-4491
越	-4492
此	-4493
什	-4494
若	-4495
慕	-4496
紫	-4497
航	-4498
才	-4499
于	-4500
羞	-4501
云	-4502
与	-4503
成	-4504
凤	-4505
次	-4506
向	-4507
脸	-4508
山	-4509
深	-4510
从	-4511
亲	-4512
十	-4513
妹	-4514
直	-4515
爱	-4516
服	-4517
娘	-4518
所	-4519
当	-4520
听	-4521
香	-4522
热	-4523
难	-4524
师	-4525
皇	-4526
连	-4527
般	-4528
内	-4529
几	-4530
公	-4531
种	-4532
慢	-4533
放	-4534
二	-4535
话	-4536
其	-4537
同	-4538
太	-4539
最	-4540
蕊	-4541
萧	-4542
带	-4543
打	-4544
欲	-4545
城	-4546
周	-4547
王	-4548
滑	-4549
令	-4550
温	-4551
虽	-4552
实	-4553
由	-4554
本	-4555
日	-4556
腿	-4557
强	-4558
候	-4559
外	-4560
挺	-4561
门	-4562
很	-4563
问	-4564
软	-4565
似	-4566
行	-4567
加	-4568
衣	-4569
张	-4570
插	-4571
重	-4572
刚	-4573
怎	-4574
叫	-4575
相	-4576
嫩	-4577
法	-4578
胸	-4579
凰	-4580
定	-4581
吧	-4582
嗯	-4583
绰	-4584
哥	-4585
风	-4586
宝	-4587
罗	-4588
走	-4589
灵	-4590
肉	-4591
老	-4592
像	-4593
弟	-4594
接	-4595
做	-4596
唇	-4597
冲	-4598
命	-4599
关	-4600
世	-4601
今	-4602
作	-4603
部	-4604
位	-4605
司	-4606
合	-4607
夫	-4608
乳	-4609
腰	-4610
穴	-4611
舒	-4612
飞	-4613
吸	-4614
弄	-4615
因	-4616
急	-4617
吗	-4618
等	-4619
激	-4620
元	-4621
望	-4622
功	-4623
比	-4624
第	-4625
使	-4626
嘴	-4627
阴	-4628
细	-4629
流	-4630
何	-4631
剑	-4632
抚	-4633
股	-4634
千	-4635
随	-4636
极	-4637
吻	-4638
目	-4639
指	-4640
尽	-4641
东	-4642
抱	-4643
精	-4644
完	-4645
始	-4646
烈	-4647
绝	-4648
万	-4649
峰	-4650
刺	-4651
击	-4652
性	-4653
痛	-4654
兰	-4655
辽	-4656
攻	-4657
应	-4658
惊	-4659
颤	-4660
幽	-4661
杀	-4662
少	-4663
舌	-4664
干	-4665
转	-4666
年	-4667
淫	-4668
丝	-4669
酥	-4670
倒	-4671
修	-4672
臀	-4673
便	-4674
丽	-4675
半	-4676
抽	-4677
程	-4678
南	-4679
虎	-4680
早	-4681
往	-4682
先	-4683
丰	-4684
嫂	-4685
怕	-4686
落	-4687
石	-4688
英	-4689
突	-4690
忍	-4691
吟	-4692
竟	-4693
摸	-4694
刀	-4695
秀	-4696
血	-4697
姑	-4698
原	-4699
顶	-4700
林	-4701
母	-4702
名	-4703
怀	-4704
西	-4705
跟	-4706
爷	-4707
猛	-4708
断	-4709
-	-4710
射	-4711
停	-4712
呼	-4713
空	-4714
果	-4715
息	-4716
并	-4717
黑	-4718
吃	-4719
渐	-4720
害	-4721
阳	-4722
喜	-4723
梅	-4724
乱	-4725
宋	-4726
男	-4727
片	-4728
呢	-4729
整	-4730
躯	-4731
百	-4732
伤	-4733
忙	-4734
别	-4735
平	-4736
朝	-4737
士	-4738
李	-4739
湿	-4740
立	-4741
足	-4742
缓	-4743
惜	-4744
箭	-4745
床	-4746
喘	-4747
狂	-4748
媚	-4749
房	-4750
终	-4751
春	-4752
解	-4753
哼	-4754
伸	-4755
华	-4756
敌	-4757
变	-4758
交	-4759
压	-4760
迷	-4761
欢	-4762
烟	-4763
浑	-4764
月	-4765
思	-4766
速	-4767
反	-4768
郡	-4769
艳	-4770
润	-4771
兴	-4772
未	-4773
纤	-4774
宫	-4775
路	-4776
势	-4777
领	-4778
影	-4779
父	-4780
即	-4781
近	-4782
送	-4783
摇	-4784
准	-4785
五	-4786
露	-4787
收	-4788
离	-4789
步	-4790
谷	-4791
蒙	-4792
乎	-4793
哎	-4794
至	-4795
哦	-4796
根	-4797
非	-4798
肌	-4799
远	-4800
条	-4801
坚	-4802
荡	-4803
杰	-4804
含	-4805
数	-4806
歌	-4807
粉	-4808
蜜	-4809
刻	-4810
管	-4811
许	-4812
队	-4813
且	-4814
掌	-4815
算	-4816
传	-4817
帮	-4818
仙	-4819
求	-4820
雅	-4821
任	-4822
形	-4823
安	-4824
静	-4825
每	-4826
必	-4827
洞	-4828
背	-4829
揉	-4830
抖	-4831
圆	-4832
低	-4833
呻	-4834
密	-4835
浪	-4836
船	-4837
够	-4838
坏	-4839
该	-4840
及	-4841
金	-4842
结	-4843
失	-4844
潘	-4845
敢	-4846
底	-4847
通	-4848
楚	-4849
暗	-4850
办	-4851
活	-4852
味	-4853
度	-4854
找	-4855
握	-4856
粗	-4857
扭	-4858
武	-4859
备	-4860
潮	-4861
散	-4862
肤	-4863
顺	-4864
圣	-4865
续	-4866
青	-4867
穆	-4868
晚	-4869
物	-4870
苗	-4871
巨	-4872
妙	-4873
赶	-4874
透	-4875
佛	-4876
芳	-4877
雨	-4878
居	-4879
哪	-4880
显	-4881
爽	-4882
硬	-4883
穿	-4884
亮	-4885
狠	-4886
冷	-4887
件	-4888
理	-4889
首	-4890
表	-4891
杨	-4892
破	-4893
乐	-4894
守	-4895
睛	-4896
禁	-4897
沙	-4898
言	-4899
坐	-4900
耳	-4901
诱	-4902
贵	-4903
麻	-4904
脱	-4905
梦	-4906
机	-4907
古	-4908
雁	-4909
尖	-4910
退	-4911
量	-4912
赵	-4913
依	-4914
岳	-4915
海	-4916
河	-4917
狼	-4918
常	-4919
咬	-4920
沉	-4921
闭	-4922
滋	-4923
制	-4924
拉	-4925
桂	-4926
愈	-4927
章	-4928
众	-4929
信	-4930
呀	-4931
跳	-4932
姥	-4933
差	-4934
谁	-4935
待	-4936
留	-4937
怒	-4938
兄	-4939
星	-4940
桃	-4941
抓	-4942
痒	-4943
另	-4944
玩	-4945
顿	-4946
八	-4947
久	-4948
音	-4949
充	-4950
律	-4951
钟	-4952
奇	-4953
挑	-4954
摆	-4955
冰	-4956
脚	-4957
泄	-4958
场	-4959
朱	-4960
苦	-4961
持	-4962
保	-4963
告	-4964
甜	-4965
搂	-4966
触	-4967
按	-4968
秋	-4969
魂	-4970
九	-4971
怪	-4972
液	-4973
洁	-4974
波	-4975
闪	-4976
骨	-4977
七	-4978
夜	-4979
厉	-4980
隐	-4981
异	-4982
喔	-4983
苑	-4984
骑	-4985
则	-4986
酒	-4987
提	-4988
消	-4989
围	-4990
利	-4991
君	-4992
弹	-4993
右	-4994
吮	-4995
尤	-4996
答	-4997
俩	-4998
喝	-4999
记	-5000
叹	-5001
语	-5002
雄	-5003
护	-5004
救	-5005
腻	-5006
妻	-5007
奋	-5008
站	-5009
化	-5010
樱	-5011
缠	-5012
苏	-5013
磨	-5014
贴	-5015
吴	-5016
飘	-5017
孟	-5018
鲜	-5019
认	-5020
支	-5021
宗	-5022
滚	-5023
江	-5024
切	-5025
「	-5026
练	-5027
国	-5028
照	-5029
府	-5030
探	-5031
止	-5032
官	-5033
」	-5034
夹	-5035
掉	-5036
偷	-5037
左	-5038
器	-5039
腹	-5040
继	-5041
肩	-5042
它	-5043
迎	-5044
易	-5045
享	-5046
妖	-5047
熟	-5048
抬	-5049
楼	-5050
煜	-5051
愿	-5052
推	-5053
车	-5054
龟	-5055
洪	-5056
银	-5057
咱	-5058
招	-5059
撞	-5060
线	-5061
良	-5062
松	-5063
御	-5064
徒	-5065
疼	-5066
新	-5067
木	-5068
喊	-5069
盖	-5070
翻	-5071
助	-5072
唔	-5073
沈	-5074
汗	-5075
耶	-5076
决	-5077
伏	-5078
客	-5079
致	-5080
弓	-5081
胜	-5082
姿	-5083
拿	-5084
靠	-5085
端	-5086
陆	-5087
请	-5088
醉	-5089
响	-5090
柳	-5091
湖	-5092
烫	-5093
睡	-5094
文	-5095
赤	-5096
追	-5097
取	-5098
引	-5099
涌	-5100
层	-5101
视	-5102
报	-5103
包	-5104
既	-5105
休	-5106
甲	-5107
醒	-5108
舔	-5109
挥	-5110
暴	-5111
壮	-5112
总	-5113
各	-5114
擦	-5115
臂	-5116
晕	-5117
者	-5118
试	-5119
逃	-5120
嘿	-5121
顾	-5122
凉	-5123
墙	-5124
计	-5125
逗	-5126
淡	-5127
象	-5128
蛋	-5129
黄	-5130
复	-5131
临	-5132
况	-5133
牙	-5134
烧	-5135
晋	-5136
界	-5137
或	-5138
罢	-5139
抗	-5140
错	-5141
鼻	-5142
腾	-5143
调	-5144
乌	-5145
薄	-5146
抵	-5147
棒	-5148
跑	-5149
绵	-5150
占	-5151
吐	-5152
识	-5153
暖	-5154
曲	-5155
堂	-5156
劲	-5157
态	-5158
敏	-5159
装	-5160
捏	-5161
角	-5162
炮	-5163
景	-5164
投	-5165
诉	-5166
眉	-5167
运	-5168
余	-5169
齐	-5170
除	-5171
裤	-5172
;	-5173
需	-5174
喷	-5175
嘛	-5176
单	-5177
盈	-5178
防	-5179
举	-5180
泪	-5181
义	-5182
念	-5183
户	-5184
肚	-5185
胴	-5186
哈	-5187
恶	-5188
掩	-5189
袭	-5190
饱	-5191
扑	-5192
摩	-5193
教	-5194
营	-5195
+	-5196
毒	-5197
仿	-5198
达	-5199
忘	-5200
岛	-5201
铁	-5202
甚	-5203
秘	-5204
脑	-5205
草	-5206
裸	-5207
配	-5208
巧	-5209
唐	-5210
威	-5211
药	-5212
雷	-5213
初	-5214
贝	-5215
悄	-5216
毛	-5217
丢	-5218
升	-5219
熙	-5220
玄	-5221
促	-5222
具	-5223
姬	-5224
颈	-5225
纷	-5226
耸	-5227
躺	-5228
简	-5229
注	-5230
排	-5231
展	-5232
浓	-5233
寒	-5234
屁	-5235
派	-5236
珠	-5237
魔	-5238
斗	-5239
须	-5240
谢	-5241
弱	-5242
代	-5243
颊	-5244
姜	-5245
混	-5246
布	-5247
肯	-5248
险	-5249
拥	-5250
集	-5251
逐	-5252
换	-5253
弩	-5254
毫	-5255
晶	-5256
游	-5257
系	-5258
凝	-5259
特	-5260
缩	-5261
颗	-5262
贼	-5263
眸	-5264
侧	-5265
采	-5266
震	-5267
壁	-5268
电	-5269
皮	-5270
北	-5271
涨	-5272
番	-5273
控	-5274
柴	-5275
陶	-5276
严	-5277
宁	-5278
尚	-5279
幸	-5280
挡	-5281
搓	-5282
移	-5283
亭	-5284
永	-5285
闻	-5286
炼	-5287
挤	-5288
仅	-5289
寸	-5290
牛	-5291
群	-5292
莹	-5293
妇	-5294
慈	-5295
丈	-5296
勾	-5297
泛	-5298
约	-5299
赞	-5300
团	-5301
段	-5302
肥	-5303
恨	-5304
限	-5305
匪	-5306
屋	-5307
躲	-5308
败	-5309
遥	-5310
模	-5311
素	-5312
吁	-5313
故	-5314
旗	-5315
术	-5316
畅	-5317
贞	-5318
仍	-5319
俏	-5320
划	-5321
谨	-5322
学	-5323
臣	-5324
藏	-5325
负	-5326
婆	-5327
略	-5328
胀	-5329
座	-5330
格	-5331
稍	-5332
剧	-5333
疯	-5334
耐	-5335
凑	-5336
尝	-5337
毕	-5338
滴	-5339
骊	-5340
吞	-5341
扎	-5342
偏	-5343
恐	-5344
慌	-5345
渴	-5346
拒	-5347
昨	-5348
鼓	-5349
呵	-5350
盘	-5351
舞	-5352
句	-5353
棠	-5354
横	-5355
秦	-5356
符	-5357
索	-5358
阻	-5359
陪	-5360
恩	-5361
丹	-5362
趁	-5363
互	-5364
犹	-5365
珍	-5366
盾	-5367
裙	-5368
号	-5369
婶	-5370
☆	-5371
仇	-5372
忽	-5373
燃	-5374
确	-5375
邪	-5376
字	-5377
拼	-5378
块	-5379
示	-5380
源	-5381
锋	-5382
承	-5383
树	-5384
仰	-5385
担	-5386
旋	-5387
汉	-5388
琼	-5389
垂	-5390
姨	-5391
沟	-5392
泽	-5393
菱	-5394
副	-5395
岁	-5396
帝	-5397
拍	-5398
怜	-5399
彻	-5400
疑	-5401
著	-5402
乃	-5403
付	-5404
昏	-5405
逍	-5406
隔	-5407
巴	-5408
舟	-5409
蛇	-5410
讲	-5411
食	-5412
扶	-5413
旁	-5414
碰	-5415
窄	-5416
哭	-5417
私	-5418
乖	-5419
骚	-5420
★	-5421
品	-5422
否	-5423
淋	-5424
胆	-5425
骂	-5426
亡	-5427
套	-5428
鬼	-5429
挣	-5430
硕	-5431
遍	-5432
默	-5433
卧	-5434
睁	-5435
惑	-5436
胡	-5437
貌	-5438
洗	-5439
节	-5440
遇	-5441
绕	-5442
亵	-5443
优	-5444
悬	-5445
独	-5446
绿	-5447
鱼	-5448
戏	-5449
浅	-5450
灭	-5451
观	-5452
赏	-5453
芙	-5454
1	-5455
—	-5456
撑	-5457
牌	-5458
状	-5459
凶	-5460
志	-5461
野	-5462
阿	-5463
征	-5464
置	-5465
脉	-5466
2	-5467
希	-5468
降	-5469
厚	-5470
叛	-5471
书	-5472
礼	-5473
轮	-5474
卫	-5475
州	-5476
酸	-5477
曾	-5478
涩	-5479
肆	-5480
境	-5481
朵	-5482
琳	-5483
莫	-5484
奔	-5485
5	-5486
旦	-5487
桥	-5488
短	-5489
埋	-5490
庞	-5491
附	-5492
爆	-5493
颜	-5494
寨	-5495
束	-5496
3	-5497
习	-5498
仁	-5499
侍	-5500
土	-5501
堪	-5502
架	-5503
兽	-5504
列	-5505
料	-5506
瓣	-5507
虚	-5508
勇	-5509
慰	-5510
^	-5511
份	-5512
台	-5513
挂	-5514
粮	-5515
危	-5516
侵	-5517
婵	-5518
伴	-5519
迫	-5520
嘻	-5521
环	-5522
陈	-5523
奸	-5524
尔	-5525
称	-5526
议	-5527
托	-5528
油	-5529
糊	-5530
适	-5531
争	-5532
销	-5533
焦	-5534
纱	-5535
蓝	-5536
蕾	-5537
际	-5538
吓	-5539
归	-5540
拨	-5541
浮	-5542
熊	-5543
庭	-5544
灼	-5545
存	-5546
翘	-5547
撒	-5548
燕	-5549
莲	-5550
兜	-5551
6	-5552
剩	-5553
犯	-5554
灯	-5555
图	-5556
寻	-5557
佳	-5558
登	-5559
钻	-5560
孩	-5561
溜	-5562
瑶	-5563
尸	-5564
隆	-5565
4	-5566
免	-5567
哀	-5568
肢	-5569
扬	-5570
福	-5571
陷	-5572
拔	-5573
避	-5574
彩	-5575
施	-5576
泉	-5577
齿	-5578
共	-5579
怯	-5580
质	-5581
圈	-5582
虫	-5583
距	-5584
延	-5585
效	-5586
纯	-5587
舍	-5588
式	-5589
改	-5590
汁	-5591
贤	-5592
傲	-5593
卷	-5594
吹	-5595
工	-5596
跃	-5597
论	-5598
院	-5599
彷	-5600
漾	-5601
甘	-5602
碎	-5603
袋	-5604
翼	-5605
薇	-5606
匡	-5607
讶	-5608
缝	-5609
题	-5610
弃	-5611
标	-5612
饭	-5613
晃	-5614
*	-5615
务	-5616
封	-5617
辰	-5618
8	-5619
午	-5620
溢	-5621
猜	-5622
艘	-5623
迅	-5624
镇	-5625
局	-5626
养	-5627
妩	-5628
拦	-5629
率	-5630
裹	-5631
室	-5632
倾	-5633
旧	-5634
普	-5635
胯	-5636
脂	-5637
导	-5638
涛	-5639
霞	-5640
魄	-5641
伙	-5642
辣	-5643
痴	-5644
胤	-5645
覆	-5646
敬	-5647
残	-5648
究	-5649
专	-5650
期	-5651
桌	-5652
商	-5653
增	-5654
岸	-5655
贪	-5656
(	-5657
奶	-5658
朋	-5659
啦	-5660
富	-5661
盛	-5662
夺	-5663
暂	-5664
替	-5665
爬	-5666
迟	-5667
侯	-5668
妾	-5669
沿	-5670
裂	-5671
辈	-5672
俊	-5673
欣	-5674
漫	-5675
唷	-5676
喉	-5677
困	-5678
宽	-5679
徐	-5680
智	-5681
遭	-5682
郑	-5683
)	-5684
冒	-5685
夏	-5686
婉	-5687
嫁	-5688
欺	-5689
殿	-5690
聚	-5691
较	-5692
轰	-5693
释	-5694
噗	-5695
累	-5696
衫	-5697
惨	-5698
杂	-5699
豹	-5700
选	-5701
凌	-5702
善	-5703
尺	-5704
建	-5705
径	-5706
撩	-5707
狗	-5708
饶	-5709
奏	-5710
斯	-5711
纵	-5712
鸾	-5713
丫	-5714
岂	-5715
怨	-5716
斩	-5717
喂	-5718
抹	-5719
壶	-5720
德	-5721
抢	-5722
遮	-5723
杯	-5724
檀	-5725
舰	-5726
净	-5727
焰	-5728
豪	-5729
俯	-5730
脖	-5731
跪	-5732
假	-5733
呜	-5734
悦	-5735
皱	-5736
逼	-5737
瘫	-5738
仔	-5739
仗	-5740
奈	-5741
尊	-5742
抑	-5743
统	-5744
造	-5745
霆	-5746
融	-5747
祖	-5748
织	-5749
联	-5750
菲	-5751
撤	-5752
材	-5753
炸	-5754
画	-5755
折	-5756
於	-5757
甬	-5758
费	-5759
京	-5760
瞬	-5761
萝	-5762
呈	-5763
咐	-5764
权	-5765
玲	-5766
技	-5767
援	-5768
搞	-5769
映	-5770
沾	-5771
补	-5772
珑	-5773
砍	-5774
卖	-5775
腴	-5776
懂	-5777
悠	-5778
浴	-5779
球	-5780
罪	-5781
葛	-5782
尘	-5783
斜	-5784
狱	-5785
督	-5786
积	-5787
诸	-5788
超	-5789
伦	-5790
凸	-5791
粒	-5792
荆	-5793
塞	-5794
闷	-5795
靥	-5796
额	-5797
浸	-5798
网	-5799
钱	-5800
喃	-5801
茫	-5802
鹘	-5803
历	-5804
叶	-5805
察	-5806
榻	-5807
病	-5808
锐	-5809
闹	-5810
验	-5811
瓦	-5812
瞧	-5813
哟	-5814
膀	-5815
据	-5816
治	-5817
属	-5818
披	-5819
借	-5820
唤	-5821
帐	-5822
戴	-5823
捧	-5824
铭	-5825
屈	-5826
扣	-5827
汪	-5828
责	-5829
刃	-5830
扫	-5831
帅	-5832
损	-5833
洒	-5834
茎	-5835
呆	-5836
型	-5837
忠	-5838
板	-5839
绸	-5840
艾	-5841
趣	-5842
丛	-5843
廷	-5844
查	-5845
羊	-5846
嘤	-5847
奉	-5848
煞	-5849
讨	-5850
雾	-5851
婚	-5852
嫣	-5853
幻	-5854
恼	-5855
霸	-5856
产	-5857
固	-5858
弯	-5859
伍	-5860
暄	-5861
缘	-5862
缺	-5863
证	-5864
鼎	-5865
匹	-5866
启	-5867
莉	-5868
驾	-5869
佩	-5870
牢	-5871
膛	-5872
韩	-5873
0	-5874
僧	-5875
惹	-5876
津	-5877
针	-5878
钦	-5879
悉	-5880
参	-5881
吩	-5882
啼	-5883
婪	-5884
孔	-5885
梁	-5886
爹	-5887
辉	-5888
劳	-5889
区	-5890
叔	-5891
恋	-5892
窗	-5893
7	-5894
凡	-5895
惧	-5896
耻	-5897
训	-5898
霜	-5899
亚	-5900
枫	-5901
民	-5902
奴	-5903
舐	-5904
镜	-5905
姓	-5906
彼	-5907
朕	-5908
琴	-5909
虑	-5910
催	-5911
恢	-5912
获	-5913
9	-5914
烦	-5915
瞪	-5916
纪	-5917
韵	-5918
疲	-5919
寂	-5920
攀	-5921
砸	-5922
纳	-5923
侠	-5924
傻	-5925
勉	-5926
唯	-5927
蠕	-5928
颇	-5929
丁	-5930
均	-5931
弦	-5932
搅	-5933
染	-5934
池	-5935
汤	-5936
演	-5937
考	-5938
输	-5939
潺	-5940
蓬	-5941
词	-5942
愤	-5943
菊	-5944
菜	-5945
园	-5946
拾	-5947
捉	-5948
芝	-5949
误	-5950
谈	-5951
饮	-5952
鸟	-5953
操	-5954
监	-5955
茶	-5956
诗	-5957
黏	-5958
咽	-5959
愧	-5960
稳	-5961
趴	-5962
辱	-5963
驰	-5964
骗	-5965
允	-5966
痕	-5967
碧	-5968
脯	-5969
铺	-5970
印	-5971
撕	-5972
值	-5973
枝	-5974
涂	-5975
绷	-5976
扔	-5977
洋	-5978
狐	-5979
琪	-5980
痉	-5981
袍	-5982
裳	-5983
搭	-5984
研	-5985
翠	-5986
芒	-5987
铜	-5988
执	-5989
核	-5990
牲	-5991
珊	-5992
脆	-5993
项	-5994
倍	-5995
滩	-5996
级	-5997
蛮	-5998
规	-5999
估	-6000
俗	-6001
员	-6002
宜	-6003
焚	-6004
牺	-6005
稀	-6006
腮	-6007
蜀	-6008
锦	-6009
闲	-6010
雕	-6011
鞭	-6012
亏	-6013
咯	-6014
啪	-6015
屏	-6016
亦	-6017
塘	-6018
慧	-6019
扰	-6020
抛	-6021
添	-6022
笔	-6023
遗	-6024
克	-6025
友	-6026
吼	-6027
截	-6028
旨	-6029
昂	-6030
森	-6031
浩	-6032
腔	-6033
庄	-6034
扯	-6035
挛	-6036
冯	-6037
凭	-6038
劝	-6039
基	-6040
拖	-6041
谓	-6042
颠	-6043
忧	-6044
政	-6045
狭	-6046
皙	-6047
羡	-6048
频	-6049
坦	-6050
筋	-6051
膝	-6052
衬	-6053
噢	-6054
堆	-6055
娥	-6056
愉	-6057
矜	-6058
组	-6059
耀	-6060
设	-6061
摔	-6062
栈	-6063
梯	-6064
禀	-6065
减	-6066
嗔	-6067
忌	-6068
奖	-6069
委	-6070
拜	-6071
笼	-6072
贯	-6073
辞	-6074
丧	-6075
勃	-6076
挨	-6077
灰	-6078
绑	-6079
迹	-6080
拢	-6081
漂	-6082
盯	-6083
纠	-6084
苍	-6085
饥	-6086
麽	-6087
劫	-6088
席	-6089
扩	-6090
饿	-6091
搐	-6092
浆	-6093
鸣	-6094
後	-6095
批	-6096
罩	-6097
锁	-6098
族	-6099
瓜	-6100
袖	-6101
陵	-6102
劈	-6103
店	-6104
沸	-6105
炽	-6106
田	-6107
类	-6108
蠢	-6109
豫	-6110
溃	-6111
灌	-6112
牵	-6113
茹	-6114
鸡	-6115
努	-6116
悟	-6117
罚	-6118
废	-6119
悲	-6120
曼	-6121
绯	-6122
绳	-6123
刹	-6124
厮	-6125
咛	-6126
崖	-6127
怡	-6128
恍	-6129
惯	-6130
晰	-6131
溪	-6132
膨	-6133
鲨	-6134
厅	-6135
契	-6136
殊	-6137
泣	-6138
眩	-6139
蓓	-6140
螓	-6141
褪	-6142
闯	-6143
～	-6144
啜	-6145
堡	-6146
眨	-6147
碗	-6148
芬	-6149
蚀	-6150
谋	-6151
崩	-6152
襟	-6153
巡	-6154
滥	-6155
虹	-6156
骇	-6157
甩	-6158
粘	-6159
绽	-6160
缎	-6161
缕	-6162
域	-6163
柱	-6164
胧	-6165
蝉	-6166
蝶	-6167
愣	-6168
枕	-6169
毁	-6170
艺	-6171
‘	-6172
夸	-6173
寿	-6174
捣	-6175
款	-6176
献	-6177
盆	-6178
窝	-6179
艨	-6180
返	-6181
驻	-6182
囊	-6183
孤	-6184
寺	-6185
搔	-6186
竹	-6187
绣	-6188
范	-6189
郁	-6190
预	-6191
尾	-6192
恭	-6193
泡	-6194
班	-6195
璟	-6196
策	-6197
誓	-6198
咏	-6199
哗	-6200
暇	-6201
杜	-6202
柄	-6203
汹	-6204
腥	-6205
荒	-6206
赛	-6207
仪	-6208
宾	-6209
慾	-6210
渡	-6211
瞒	-6212
阔	-6213
_	-6214
买	-6215
医	-6216
央	-6217
巾	-6218
幅	-6219
振	-6220
肿	-6221
脏	-6222
萍	-6223
隙	-6224
俱	-6225
健	-6226
写	-6227
割	-6228
寇	-6229
寞	-6230
川	-6231
择	-6232
汇	-6233
泥	-6234
炉	-6235
绪	-6236
诚	-6237
踏	-6238
途	-6239
坡	-6240
宴	-6241
拱	-6242
挽	-6243
末	-6244
淑	-6245
渗	-6246
盔	-6247
莱	-6248
键	-6249
嗅	-6250
疾	-6251
碍	-6252
祝	-6253
膜	-6254
葱	-6255
辛	-6256
’	-6257
乾	-6258
坠	-6259
婷	-6260
掀	-6261
掠	-6262
措	-6263
昧	-6264
潜	-6265
穷	-6266
剔	-6267
哧	-6268
填	-6269
宣	-6270
岩	-6271
巅	-6272
朦	-6273
狸	-6274
辕	-6275
霄	-6276
霹	-6277
魅	-6278
叠	-6279
宿	-6280
巍	-6281
彤	-6282
浇	-6283
耗	-6284
诀	-6285
价	-6286
刮	-6287
县	-6288
史	-6289
娜	-6290
幕	-6291
烂	-6292
逆	-6293
雳	-6294
骤	-6295
《	-6296
伐	-6297
啸	-6298
岗	-6299
彿	-6300
烛	-6301
脊	-6302
街	-6303
轩	-6304
骄	-6305
》	-6306
捂	-6307
漓	-6308
皆	-6309
赴	-6310
凛	-6311
删	-6312
匀	-6313
唉	-6314
弧	-6315
掏	-6316
晓	-6317
疗	-6318
邓	-6319
丘	-6320
案	-6321
漠	-6322
稚	-6323
葵	-6324
业	-6325
介	-6326
偶	-6327
嘶	-6328
暧	-6329
棋	-6330
棍	-6331
欧	-6332
溅	-6333
腕	-6334
冤	-6335
凹	-6336
婿	-6337
幼	-6338
忆	-6339
瑕	-6340
畏	-6341
虐	-6342
饰	-6343
削	-6344
唱	-6345
爪	-6346
米	-6347
逢	-6348
钢	-6349
亢	-6350
帘	-6351
彬	-6352
拂	-6353
拳	-6354
搜	-6355
荷	-6356
蜻	-6357
贲	-6358
跨	-6359
黎	-6360
咙	-6361
媳	-6362
广	-6363
椅	-6364
荣	-6365
予	-6366
俘	-6367
职	-6368
懒	-6369
搬	-6370
淮	-6371
漉	-6372
繁	-6373
蓉	-6374
蜓	-6375
踢	-6376
&	-6377
凄	-6378
召	-6379
益	-6380
躏	-6381
扇	-6382
昭	-6383
曹	-6384
盼	-6385
眯	-6386
矛	-6387
窜	-6388
竖	-6389
舫	-6390
苞	-6391
详	-6392
哨	-6393
垒	-6394
挪	-6395
瀑	-6396
燥	-6397
糟	-6398
纸	-6399
编	-6400
膊	-6401
蹂	-6402
乘	-6403
乡	-6404
弥	-6405
戒	-6406
检	-6407
翅	-6408
肠	-6409
萋	-6410
蒂	-6411
赧	-6412
馗	-6413
供	-6414
厄	-6415
婢	-6416
宏	-6417
悍	-6418
拭	-6419
授	-6420
摘	-6421
敲	-6422
澄	-6423
胳	-6424
警	-6425
豆	-6426
贱	-6427
资	-6428
乏	-6429
卸	-6430
妄	-6431
宠	-6432
朗	-6433
赖	-6434
钩	-6435
僵	-6436
嗤	-6437
悔	-6438
污	-6439
瑰	-6440
稠	-6441
维	-6442
臻	-6443
蒸	-6444
靡	-6445
串	-6446
卿	-6447
娶	-6448
宛	-6449
斌	-6450
泻	-6451
漏	-6452
澡	-6453
省	-6454
蔽	-6455
赐	-6456
桶	-6457
淹	-6458
踪	-6459
鳞	-6460
丑	-6461
刷	-6462
剥	-6463
壑	-6464
愕	-6465
捻	-6466
搏	-6467
摧	-6468
杆	-6469
某	-6470
琢	-6471
育	-6472
藉	-6473
蹄	-6474
递	-6475
兀	-6476
刑	-6477
呐	-6478
哄	-6479
怦	-6480
歇	-6481
殷	-6482
氛	-6483
烁	-6484
鄂	-6485
伯	-6486
偙	-6487
协	-6488
哩	-6489
夕	-6490
栗	-6491
漆	-6492
羽	-6493
萄	-6494
葡	-6495
藤	-6496
阅	-6497
偎	-6498
匆	-6499
嚎	-6500
妥	-6501
嫌	-6502
孙	-6503
构	-6504
沐	-6505
辜	-6506
餐	-6507
驱	-6508
井	-6509
兔	-6510
嘘	-6511
堵	-6512
戳	-6513
晨	-6514
蓄	-6515
蹲	-6516
鲁	-6517
刘	-6518
擅	-6519
测	-6520
疏	-6521
瘦	-6522
祸	-6523
耍	-6524
诡	-6525
蹙	-6526
陌	-6527
馨	-6528
鹰	-6529
"	-6530
娃	-6531
岭	-6532
恰	-6533
挲	-6534
揽	-6535
擒	-6536
旷	-6537
概	-6538
矩	-6539
窃	-6540
翩	-6541
藕	-6542
褥	-6543
赢	-6544
唾	-6545
愁	-6546
枯	-6547
窒	-6548
脾	-6549
违	-6550
阁	-6551
陡	-6552
零	-6553
仓	-6554
伟	-6555
例	-6556
创	-6557
哇	-6558
扮	-6559
斥	-6560
杏	-6561
汝	-6562
瘾	-6563
笨	-6564
诧	-6565
闺	-6566
鳌	-6567
鹅	-6568
典	-6569
勒	-6570
啧	-6571
壕	-6572
憾	-6573
灾	-6574
童	-6575
绍	-6576
聪	-6577
跌	-6578
醋	-6579
叉	-6580
吱	-6581
噬	-6582
宰	-6583
挟	-6584
斧	-6585
歪	-6586
烤	-6587
绞	-6588
缚	-6589
蜂	-6590
蹭	-6591
辆	-6592
逞	-6593
厌	-6594
塌	-6595
押	-6596
椒	-6597
猫	-6598
纹	-6599
账	-6600
Q	-6601
丸	-6602
励	-6603
咕	-6604
嘲	-6605
审	-6606
帜	-6607
挖	-6608
晌	-6609
瞄	-6610
竭	-6611
箍	-6612
逸	-6613
骷	-6614
髅	-6615
龄	-6616
勤	-6617
吕	-6618
喇	-6619
怔	-6620
惫	-6621
扈	-6622
拧	-6623
昆	-6624
歼	-6625
澎	-6626
盒	-6627
瞳	-6628
码	-6629
茂	-6630
踩	-6631
M	-6632
乍	-6633
倩	-6634
墨	-6635
娟	-6636
旺	-6637
秃	-6638
蛤	-6639
倏	-6640
冠	-6641
妈	-6642
恣	-6643
捅	-6644
聊	-6645
财	-6646
鼠	-6647
嘟	-6648
嘱	-6649
拽	-6650
掐	-6651
敞	-6652
梨	-6653
毙	-6654
沦	-6655
濡	-6656
烽	-6657
瓷	-6658
砰	-6659
述	-6660
馆	-6661
侄	-6662
倚	-6663
冀	-6664
呓	-6665
唧	-6666
啮	-6667
喀	-6668
喻	-6669
宇	-6670
攒	-6671
曰	-6672
淌	-6673
灿	-6674
烘	-6675
猎	-6676
眠	-6677
脐	-6678
蔓	-6679
衷	-6680
赌	-6681
郭	-6682
寝	-6683
括	-6684
泌	-6685
狞	-6686
睫	-6687
舱	-6688
贺	-6689
躬	-6690
逝	-6691
吾	-6692
扳	-6693
拚	-6694
摄	-6695
梳	-6696
泊	-6697
湃	-6698
熬	-6699
狡	-6700
狮	-6701
羚	-6702
肃	-6703
踝	-6704
铠	-6705
韧	-6706
叮	-6707
咻	-6708
堤	-6709
妨	-6710
巫	-6711
序	-6712
廊	-6713
慵	-6714
抄	-6715
枉	-6716
汴	-6717
济	-6718
炙	-6719
矶	-6720
耽	-6721
臭	-6722
蓦	-6723
载	-6724
障	-6725
骸	-6726
鬓	-6727
w	-6728
倦	-6729
冥	-6730
婀	-6731
孕	-6732
尬	-6733
尴	-6734
庆	-6735
患	-6736
撼	-6737
浊	-6738
涎	-6739
订	-6740
谅	-6741
遐	-6742
颅	-6743
麝	-6744
冻	-6745
咒	-6746
塔	-6747
悸	-6748
惩	-6749
捕	-6750
携	-6751
涡	-6752
狰	-6753
盗	-6754
窍	-6755
偿	-6756
剿	-6757
吊	-6758
啥	-6759
嗦	-6760
屠	-6761
惦	-6762
拐	-6763
敦	-6764
斑	-6765
梢	-6766
牡	-6767
瞅	-6768
瞎	-6769
瞟	-6770
虏	-6771
询	-6772
趟	-6773
遣	-6774
铃	-6775
髻	-6776
卒	-6777
坤	-6778
妒	-6779
扒	-6780
描	-6781
泼	-6782
溺	-6783
秽	-6784
耿	-6785
芊	-6786
茸	-6787
蚌	-6788
遵	-6789
酡	-6790
驶	-6791
宵	-6792
峦	-6793
巳	-6794
搁	-6795
洲	-6796
皓	-6797
盏	-6798
碌	-6799
胎	-6800
裘	-6801
览	-6802
趾	-6803
躁	-6804
酷	-6805
钉	-6806
阜	-6807
顽	-6808
鹫	-6809
鹿	-6810
※	-6811
仆	-6812
咦	-6813
壳	-6814
帽	-6815
怠	-6816
慎	-6817
挠	-6818
捆	-6819
昵	-6820
汨	-6821
汩	-6822
澈	-6823
瓶	-6824
疤	-6825
瘟	-6826
绒	-6827
驴	-6828
─	-6829
凯	-6830
卡	-6831
撇	-6832
甸	-6833
疆	-6834
窥	-6835
缀	-6836
蜕	-6837
酋	-6838
霎	-6839
顷	-6840
吵	-6841
嗜	-6842
嬉	-6843
库	-6844
捷	-6845
斤	-6846
昶	-6847
沁	-6848
猪	-6849
瑜	-6850
畔	-6851
睹	-6852
祭	-6853
舅	-6854
读	-6855
迈	-6856
邃	-6857
阱	-6858
~	-6859
咳	-6860
媾	-6861
嫉	-6862
循	-6863
戮	-6864
曳	-6865
毯	-6866
溶	-6867
玫	-6868
眶	-6869
矫	-6870
祥	-6871
竞	-6872
篷	-6873
董	-6874
蕴	-6875
诺	-6876
谐	-6877
逻	-6878
鞋	-6879
兼	-6880
募	-6881
匣	-6882
咚	-6883
哆	-6884
哑	-6885
惚	-6886
枚	-6887
矢	-6888
筹	-6889
豁	-6890
锤	-6891
黛	-6892
判	-6893
剪	-6894
咿	-6895
坑	-6896
嵌	-6897
廓	-6898
旭	-6899
村	-6900
棉	-6901
欠	-6902
渔	-6903
渺	-6904
皎	-6905
罕	-6906
肺	-6907
膳	-6908
艰	-6909
薛	-6910
蜡	-6911
诛	-6912
货	-6913
鬟	-6914
博	-6915
咧	-6916
嗽	-6917
娴	-6918
拌	-6919
擂	-6920
柜	-6921
校	-6922
歉	-6923
筒	-6924
籍	-6925
络	-6926
署	-6927
肝	-6928
胁	-6929
胞	-6930
胶	-6931
莺	-6932
蚁	-6933
酿	-6934
雀	-6935
鸿	-6936
佯	-6937
厥	-6938
呦	-6939
寡	-6940
尿	-6941
帆	-6942
帕	-6943
徘	-6944
杭	-6945
桩	-6946
梆	-6947
沫	-6948
禧	-6949
腑	-6950
褶	-6951
蹦	-6952
蹬	-6953
遂	-6954
铲	-6955
髓	-6956
┅	-6957
佑	-6958
兢	-6959
咪	-6960
囤	-6961
坎	-6962
妆	-6963
妮	-6964
媛	-6965
孝	-6966
屯	-6967
崽	-6968
巢	-6969
庙	-6970
徊	-6971
慨	-6972
憋	-6973
戚	-6974
拇	-6975
拘	-6976
渊	-6977
熄	-6978
签	-6979
芯	-6980
衡	-6981
赘	-6982
遽	-6983
链	-6984
阶	-6985
鸭	-6986
企	-6987
伺	-6988
党	-6989
冬	-6990
剌	-6991
吉	-6992
坛	-6993
婴	-6994
惶	-6995
抿	-6996
烙	-6997
煮	-6998
猿	-6999
禽	-7000
糙	-7001
肖	-7002
贾	-7003
饼	-7004
骋	-7005
冉	-7006
嗲	-7007
役	-7008
惮	-7009
搀	-7010
摊	-7011
晴	-7012
涓	-7013
疵	-7014
瞥	-7015
蝎	-7016
谦	-7017
贫	-7018
赋	-7019
迸	-7020
靴	-7021
鞘	-7022
驿	-7023
c	-7024
匠	-7025
厨	-7026
哮	-7027
嗓	-7028
嚷	-7029
孽	-7030
岔	-7031
挚	-7032
斟	-7033
棺	-7034
瀚	-7035
猾	-7036
稻	-7037
莽	-7038
萌	-7039
蚣	-7040
蜈	-7041
课	-7042
辩	-7043
钗	-7044
鸳	-7045
黯	-7046
卜	-7047
垦	-7048
戈	-7049
扛	-7050
拆	-7051
氏	-7052
泞	-7053
牧	-7054
痪	-7055
眷	-7056
禄	-7057
窈	-7058
筝	-7059
簇	-7060
翔	-7061
腐	-7062
膣	-7063
茗	-7064
荇	-7065
荑	-7066
衰	-7067
裕	-7068
评	-7069
诈	-7070
赫	-7071
践	-7072
遏	-7073
邀	-7074
锅	-7075
鸯	-7076
兆	-7077
兮	-7078
剠	-7079
呛	-7080
娆	-7081
弛	-7082
恕	-7083
恳	-7084
捡	-7085
捶	-7086
档	-7087
械	-7088
潇	-7089
潭	-7090
痊	-7091
筑	-7092
筛	-7093
箫	-7094
绘	-7095
绮	-7096
羔	-7097
胃	-7098
腋	-7099
舷	-7100
裁	-7101
遁	-7102
钳	-7103
霍	-7104
颌	-7105
N	-7106
傍	-7107
叩	-7108
吆	-7109
咋	-7110
啃	-7111
啐	-7112
垫	-7113
峭	-7114
幔	-7115
惭	-7116
挫	-7117
捺	-7118
暮	-7119
歹	-7120
涉	-7121
涔	-7122
溉	-7123
漩	-7124
煌	-7125
犬	-7126
申	-7127
瘙	-7128
簪	-7129
紊	-7130
辗	-7131
邻	-7132
O	-7133
储	-7134
奥	-7135
帖	-7136
怖	-7137
恬	-7138
懈	-7139
抠	-7140
抡	-7141
昇	-7142
昔	-7143
毅	-7144
淘	-7145
焉	-7146
煎	-7147
畜	-7148
磁	-7149
磕	-7150
绩	-7151
谎	-7152
迭	-7153
陋	-7154
飒	-7155
馥	-7156
驯	-7157
i	-7158
侦	-7159
卓	-7160
厢	-7161
垮	-7162
寰	-7163
怏	-7164
您	-7165
扉	-7166
掳	-7167
播	-7168
栩	-7169
植	-7170
沛	-7171
澜	-7172
煽	-7173
熔	-7174
猥	-7175
翕	-7176
胖	-7177
蝗	-7178
赔	-7179
蹈	-7180
辨	-7181
钓	-7182
伊	-7183
匕	-7184
咆	-7185
啄	-7186
喧	-7187
奢	-7188
姣	-7189
康	-7190
惟	-7191
旅	-7192
枢	-7193
栏	-7194
桑	-7195
沼	-7196
渍	-7197
滁	-7198
狈	-7199
痹	-7200
笈	-7201
翎	-7202
茁	-7203
荐	-7204
蛛	-7205
袅	-7206
钧	-7207
u	-7208
仲	-7209
僻	-7210
函	-7211
吭	-7212
嚐	-7213
季	-7214
寥	-7215
庸	-7216
懦	-7217
掷	-7218
揭	-7219
擎	-7220
敛	-7221
旱	-7222
棱	-7223
棵	-7224
泰	-7225
涟	-7226
炎	-7227
熏	-7228
熠	-7229
璧	-7230
绫	-7231
缰	-7232
芽	-7233
苟	-7234
葬	-7235
蚕	-7236
蜷	-7237
蝴	-7238
裆	-7239
讯	-7240
趋	-7241
踞	-7242
辅	-7243
逊	-7244
酣	-7245
铸	-7246
陀	-7247
m	-7248
儒	-7249
冶	-7250
刁	-7251
叱	-7252
呸	-7253
喽	-7254
姻	-7255
峡	-7256
憧	-7257
憬	-7258
戍	-7259
旌	-7260
株	-7261
栽	-7262
涧	-7263
滞	-7264
琅	-7265
窕	-7266
笋	-7267
缭	-7268
缴	-7269
褐	-7270
谜	-7271
趐	-7272
轨	-7273
逾	-7274
邦	-7275
镶	-7276
陛	-7277
魁	-7278
鸽	-7279
丞	-7280
伞	-7281
俸	-7282
俺	-7283
卑	-7284
呃	-7285
噩	-7286
嚼	-7287
堕	-7288
奠	-7289
妓	-7290
姊	-7291
宙	-7292
寐	-7293
屡	-7294
惬	-7295
慑	-7296
拟	-7297
析	-7298
湛	-7299
炯	-7300
焕	-7301
琶	-7302
瑟	-7303
盟	-7304
睿	-7305
矣	-7306
矮	-7307
秤	-7308
窘	-7309
竿	-7310
笛	-7311
罡	-7312
蛾	-7313
衙	-7314
觅	-7315
诵	-7316
谱	-7317
赦	-7318
跺	-7319
辖	-7320
鉴	-7321
闸	-7322
驳	-7323
驼	-7324
鹏	-7325
仑	-7326
侃	-7327
咸	-7328
哽	-7329
嗖	-7330
嚣	-7331
娑	-7332
寄	-7333
峻	-7334
惺	-7335
椎	-7336
沱	-7337
涵	-7338
渎	-7339
炫	-7340
炷	-7341
熨	-7342
犀	-7343
琵	-7344
瞩	-7345
砂	-7346
秒	-7347
糕	-7348
糜	-7349
绚	-7350
缉	-7351
翁	-7352
肴	-7353
芦	-7354
贡	-7355
醺	-7356
锣	-7357
霓	-7358
饷	-7359
黝	-7360
侮	-7361
凳	-7362
勿	-7363
卵	-7364
嗳	-7365
娱	-7366
媒	-7367
宅	-7368
忖	-7369
忡	-7370
恙	-7371
拙	-7372
挞	-7373
捞	-7374
旎	-7375
朴	-7376
桨	-7377
殃	-7378
涣	-7379
盎	-7380
眺	-7381
箱	-7382
粹	-7383
糖	-7384
蔑	-7385
蚊	-7386
袒	-7387
谑	-7388
隘	-7389
隶	-7390
霉	-7391
鞍	-7392
馒	-7393
佐	-7394
倘	-7395
刨	-7396
唬	-7397
嗷	-7398
噫	-7399
墓	-7400
夷	-7401
屑	-7402
彭	-7403
悴	-7404
扁	-7405
拯	-7406
捋	-7407
撬	-7408
攥	-7409
敷	-7410
旖	-7411
棚	-7412
沧	-7413
滔	-7414
燎	-7415
版	-7416
盐	-7417
祈	-7418
窦	-7419
筷	-7420
纲	-7421
绊	-7422
胭	-7423
舵	-7424
茵	-7425
葫	-7426
蛊	-7427
誉	-7428
辟	-7429
邸	-7430
鄙	-7431
雍	-7432
雏	-7433
鸥	-7434
e	-7435
―	-7436
乞	-7437
偌	-7438
凿	-7439
呗	-7440
噜	-7441
履	-7442
屹	-7443
岌	-7444
巷	-7445
市	-7446
录	-7447
惠	-7448
愚	-7449
憔	-7450
揩	-7451
梭	-7452
猝	-7453
疙	-7454
瘩	-7455
皑	-7456
眈	-7457
睐	-7458
睽	-7459
碉	-7460
秉	-7461
秩	-7462
蔼	-7463
蜒	-7464
蟒	-7465
讽	-7466
诏	-7467
赎	-7468
蹋	-7469
酱	-7470
靶	-7471
鸠	-7472
o	-7473
乙	-7474
伎	-7475
佻	-7476
侥	-7477
劣	-7478
勺	-7479
匈	-7480
卦	-7481
叽	-7482
呕	-7483
咂	-7484
嗡	-7485
噹	-7486
培	-7487
嫔	-7488
嫡	-7489
彦	-7490
忐	-7491
忸	-7492
怩	-7493
恒	-7494
懊	-7495
戎	-7496
撅	-7497
朽	-7498
栅	-7499
樵	-7500
淤	-7501
炖	-7502
炭	-7503
琊	-7504
甫	-7505
砖	-7506
社	-7507
祠	-7508
票	-7509
税	-7510
篓	-7511
纣	-7512
缨	-7513
肘	-7514
肪	-7515
臊	-7516
蕉	-7517
虾	-7518
蚂	-7519
螺	-7520
蟹	-7521
衔	-7522
讳	-7523
诅	-7524
踹	-7525
蹿	-7526
迁	-7527
镖	-7528
阖	-7529
雎	-7530
颦	-7531
驭	-7532
剐	-7533
叙	-7534
咫	-7535
嗒	-7536
奄	-7537
帼	-7538
忑	-7539
惘	-7540
掣	-7541
昼	-7542
棂	-7543
漪	-7544
漱	-7545
猖	-7546
猩	-7547
疚	-7548
疮	-7549
症	-7550
砌	-7551
磋	-7552
罐	-7553
莓	-7554
菇	-7555
蔻	-7556
蕃	-7557
蛆	-7558
诫	-7559
谊	-7560
贩	-7561
赳	-7562
郊	-7563
铮	-7564
骁	-7565
『	-7566
』	-7567
亩	-7568
侬	-7569
册	-7570
刎	-7571
嘎	-7572
噼	-7573
坟	-7574
幌	-7575
廉	-7576
拈	-7577
掬	-7578
晦	-7579
杵	-7580
樊	-7581
氓	-7582
洛	-7583
滟	-7584
濛	-7585
猴	-7586
睬	-7587
禅	-7588
纺	-7589
羹	-7590
萱	-7591
袱	-7592
贸	-7593
赠	-7594
铅	-7595
雌	-7596
鞠	-7597
飕	-7598
饵	-7599
驹	-7600
鲤	-7601
麟	-7602
j	-7603
∶	-7604
倔	-7605
傀	-7606
农	-7607
匙	-7608
匿	-7609
吒	-7610
呤	-7611
哉	-7612
嚓	-7613
孪	-7614
峨	-7615
崇	-7616
弊	-7617
弑	-7618
惋	-7619
拣	-7620
掘	-7621
栋	-7622
栘	-7623
橹	-7624
檐	-7625
殉	-7626
泯	-7627
泳	-7628
涕	-7629
涯	-7630
渠	-7631
渲	-7632
犊	-7633
犒	-7634
瑚	-7635
璀	-7636
璨	-7637
瓮	-7638
睑	-7639
瞋	-7640
瞌	-7641
绛	-7642
绢	-7643
耕	-7644
聆	-7645
茅	-7646
萦	-7647
蛟	-7648
蜿	-7649
袜	-7650
讪	-7651
访	-7652
诞	-7653
踵	-7654
轿	-7655
辎	-7656
迂	-7657
醇	-7658
钮	-7659
锢	-7660
锥	-7661
镔	-7662
馋	-7663
髯	-7664
鹄	-7665
鹭	-7666
伪	-7667
佗	-7668
侣	-7669
债	-7670
儡	-7671
冈	-7672
冽	-7673
剂	-7674
叨	-7675
叼	-7676
呶	-7677
咎	-7678
唆	-7679
啰	-7680
啲	-7681
啵	-7682
啾	-7683
嘀	-7684
噔	-7685
噤	-7686
坍	-7687
妞	-7688
娉	-7689
庐	-7690
惕	-7691
揪	-7692
撷	-7693
晖	-7694
柩	-7695
桅	-7696
梗	-7697
棘	-7698
殛	-7699
氲	-7700
泓	-7701
渚	-7702
爵	-7703
玛	-7704
璃	-7705
瘸	-7706
盅	-7707
睦	-7708
睨	-7709
瞻	-7710
矾	-7711
碾	-7712
笫	-7713
粥	-7714
绻	-7715
羁	-7716
蟠	-7717
衍	-7718
讥	-7719
谕	-7720
谙	-7721
谩	-7722
贻	-7723
酝	-7724
酬	-7725
钝	-7726
铿	-7727
阙	-7728
颔	-7729
馀	-7730
驸	-7731
麒	-7732
麾	-7733
t	-7734
伶	-7735
佬	-7736
佼	-7737
偃	-7738
剃	-7739
匝	-7740
吝	-7741
呲	-7742
咀	-7743
咔	-7744
喏	-7745
喳	-7746
垛	-7747
壤	-7748
夭	-7749
奕	-7750
娈	-7751
屎	-7752
巩	-7753
币	-7754
帛	-7755
帷	-7756
弋	-7757
彪	-7758
怅	-7759
惆	-7760
慷	-7761
拴	-7762
採	-7763
旬	-7764
杖	-7765
柏	-7766
栖	-7767
殆	-7768
氤	-7769
沃	-7770
沌	-7771
洽	-7772
涤	-7773
狩	-7774
獠	-7775
琐	-7776
癫	-7777
硝	-7778
硫	-7779
碟	-7780
磺	-7781
祀	-7782
祷	-7783
篝	-7784
籁	-7785
粼	-7786
缤	-7787
翟	-7788
肋	-7789
肏	-7790
肮	-7791
艇	-7792
苹	-7793
茧	-7794
荼	-7795
萃	-7796
蘸	-7797
袄	-7798
襄	-7799
觑	-7800
诊	-7801
谆	-7802
谣	-7803
赚	-7804
踉	-7805
鄱	-7806
酌	-7807
锵	-7808
锻	-7809
镰	-7810
阂	-7811
阎	-7812
霏	-7813
飙	-7814
驮	-7815
骏	-7816
乔	-7817
佈	-7818
侏	-7819
券	-7820
啬	-7821
嘉	-7822
噘	-7823
噙	-7824
垢	-7825
塑	-7826
奎	-7827
姗	-7828
尉	-7829
屉	-7830
嶂	-7831
徽	-7832
恃	-7833
恪	-7834
悯	-7835
戟	-7836
戾	-7837
扼	-7838
拎	-7839
拓	-7840
拗	-7841
揖	-7842
斋	-7843
暑	-7844
梧	-7845
楞	-7846
榜	-7847
汲	-7848
沥	-7849
泱	-7850
洼	-7851
浏	-7852
淅	-7853
湘	-7854
潸	-7855
炬	-7856
猬	-7857
玷	-7858
皂	-7859
瞑	-7860
矗	-7861
础	-7862
礁	-7863
窑	-7864
绎	-7865
绥	-7866
缱	-7867
耘	-7868
聘	-7869
腼	-7870
芸	-7871
荫	-7872
菩	-7873
萨	-7874
蒲	-7875
薰	-7876
蘑	-7877
虞	-7878
蟆	-7879
跄	-7880
銮	-7881
霖	-7882
饲	-7883
骡	-7884
鸦	-7885
黠	-7886
/	-7887
⊙	-7888
□	-7889
亘	-7890
伫	-7891
來	-7892
傅	-7893
勋	-7894
叵	-7895
唏	-7896
嗨	-7897
嘈	-7898
囔	-7899
坞	-7900
娓	-7901
嫦	-7902
徵	-7903
憨	-7904
捎	-7905
掰	-7906
掹	-7907
揣	-7908
搡	-7909
摞	-7910
撮	-7911
擞	-7912
晒	-7913
晾	-7914
柿	-7915
桀	-7916
棕	-7917
橘	-7918
毡	-7919
汰	-7920
沓	-7921
湍	-7922
湟	-7923
濒	-7924
燄	-7925
爸	-7926
瘁	-7927
癞	-7928
睾	-7929
矿	-7930
祟	-7931
科	-7932
稽	-7933
笆	-7934
篱	-7935
簸	-7936
絮	-7937
缈	-7938
缥	-7939
胄	-7940
腆	-7941
舂	-7942
荤	-7943
蔷	-7944
薪	-7945
蚋	-7946
蛙	-7947
蜘	-7948
衅	-7949
衮	-7950
褂	-7951
谧	-7952
谴	-7953
赃	-7954
跷	-7955
轴	-7956
逡	-7957
钥	-7958
锭	-7959
锯	-7960
阑	-7961
韬	-7962
颁	-7963
颐	-7964
饽	-7965
骜	-7966
骠	-7967
魏	-7968
鸪	-7969
x	-7970
丐	-7971
仕	-7972
俐	-7973
俞	-7974
倜	-7975
傥	-7976
兹	-7977
剜	-7978
剽	-7979
匍	-7980
咣	-7981
售	-7982
囚	-7983
墩	-7984
妍	-7985
孵	-7986
宸	-7987
尹	-7988
岖	-7989
峙	-7990
崎	-7991
嶽	-7992
庇	-7993
弘	-7994
恤	-7995
悚	-7996
捐	-7997
掸	-7998
攫	-7999
曝	-8000
曦	-8001
枣	-8002
柯	-8003
栓	-8004
桦	-8005
殴	-8006
汽	-8007
涮	-8008
港	-8009
炒	-8010
烬	-8011
爲	-8012
玻	-8013
瑭	-8014
瓢	-8015
瞠	-8016
砣	-8017
砾	-8018
磐	-8019
磷	-8020
租	-8021
穹	-8022
窟	-8023
篇	-8024
篡	-8025
纬	-8026
纶	-8027
纽	-8028
综	-8029
缪	-8030
翡	-8031
翱	-8032
聋	-8033
脔	-8034
茬	-8035
荧	-8036
萎	-8037
萤	-8038
蔚	-8039
蛰	-8040
褟	-8041
谪	-8042
购	-8043
跋	-8044
踱	-8045
蹊	-8046
辙	-8047
逛	-8048
锚	-8049
镀	-8050
隧	-8051
霪	-8052
革	-8053
颓	-8054
颚	-8055
骼	-8056
鲫	-8057
a	-8058
丙	-8059
侈	-8060
俨	-8061
凋	-8062
匐	-8063
匾	-8064
吏	-8065
哺	-8066
嗣	-8067
圃	-8068
坪	-8069
坷	-8070
奂	-8071
姆	-8072
孜	-8073
宕	-8074
宦	-8075
岚	-8076
幡	-8077
幺	-8078
庶	-8079
廝	-8080
彰	-8081
徨	-8082
忒	-8083
恻	-8084
愛	-8085
憎	-8086
懿	-8087
抒	-8088
掂	-8089
掖	-8090
揍	-8091
攘	-8092
敝	-8093
斛	-8094
昌	-8095
杉	-8096
棹	-8097
榨	-8098
槌	-8099
泵	-8100
泾	-8101
浃	-8102
涑	-8103
淀	-8104
淬	-8105
湾	-8106
烜	-8107
牟	-8108
獭	-8109
琉	-8110
瑙	-8111
瑞	-8112
瘪	-8113
盲	-8114
瞭	-8115
矟	-8116
砦	-8117
磊	-8118
磬	-8119
禢	-8120
稷	-8121
笠	-8122
篮	-8123
簌	-8124
簿	-8125
糠	-8126
纾	-8127
绦	-8128
翌	-8129
肇	-8130
肛	-8131
肾	-8132
胛	-8133
膏	-8134
膘	-8135
芭	-8136
茉	-8137
蒜	-8138
蕤	-8139
藐	-8140
藩	-8141
虬	-8142
蛀	-8143
螃	-8144
襦	-8145
诣	-8146
诩	-8147
诲	-8148
诶	-8149
谗	-8150
赓	-8151
踮	-8152
蹑	-8153
辇	-8154
辐	-8155
辘	-8156
辫	-8157
迥	-8158
邮	-8159
酉	-8160
鎚	-8161
鏖	-8162
锈	-8163
锏	-8164
镂	-8165
阀	-8166
阡	-8167
陇	-8168
陕	-8169
霰	-8170
靓	-8171
韭	-8172
颖	-8173
饴	-8174
馍	-8175
驷	-8176
鲸	-8177
鸢	-8178
鸨	-8179
鹧	-8180
'	-8181
A	-8182
F	-8183
V	-8184
X	-8185
